{
  "version": "1.0",
  "truncation": null,
  "padding": null,
  "added_tokens": [
    {
      "id": 120000,
      "content": "<|eos|>",
      "single_word": false,
      "lstrip": false,
      "rstrip": false,
      "normalized": false,
      "special": true
    },
    {
      "id": 120001,
      "content": "<|unk|>",
      "single_word": false,
      "lstrip": false,
      "rstrip": false,
      "normalized": false,
      "special": true
    },
    {
      "id": 120002,
      "content": "<|pad|>",
      "single_word": false,
      "lstrip": false,
      "rstrip": false,
      "normalized": false,
      "special": true
    },
    {
      "id": 120003,
      "content": "<|role_start|>",
      "single_word": false,
      "lstrip": false,
      "rstrip": false,
      "normalized": false,
      "special": true
    },
    {
      "id": 120004,
      "content": "<|role_end|>",
      "single_word": false,
      "lstrip": false,
      "rstrip": false,
      "normalized": false,
      "special": true
    },
    {
      "id": 120005,
      "content": "<|turn_end|>",
      "single_word": false,
      "lstrip": false,
      "rstrip": false,
      "normalized": false,
      "special": true
    },
    {
      "id": 120006,
      "content": "<|code_start|>",
      "single_word": false,
      "lstrip": false,
      "rstrip": false,
      "normalized": false,
      "special": true
    },
    {
      "id": 120007,
      "content": "<|code_end|>",
      "single_word": false,
      "lstrip": false,
      "rstrip": false,
      "normalized": false,
      "special": true
    },
    {
      "id": 120008,
      "content": "<|commit_start|>",
      "single_word": false,
      "lstrip": false,
      "rstrip": false,
      "normalized": false,
      "special": true
    },
    {
      "id": 120009,
      "content": "<|commit_end|>",
      "single_word": false,
      "lstrip": false,
      "rstrip": false,
      "normalized": false,
      "special": true
    },
    {
      "id": 120010,
      "content": "<|diff_start|>",
      "single_word": false,
      "lstrip": false,
      "rstrip": false,
      "normalized": false,
      "special": true
    },
    {
      "id": 120011,
      "content": "<|diff_end|>",
      "single_word": false,
      "lstrip": false,
      "rstrip": false,
      "normalized": false,
      "special": true
    },
    {
      "id": 120012,
      "content": "<|code_execution_start|>",
      "single_word": false,
      "lstrip": false,
      "rstrip": false,
      "normalized": false,
      "special": true
    },
    {
      "id": 120013,
      "content": "<|code_execution_end|>",
      "single_word": false,
      "lstrip": false,
      "rstrip": false,
      "normalized": false,
      "special": true
    },
    {
      "id": 120014,
      "content": "<|image_start|>",
      "single_word": false,
      "lstrip": false,
      "rstrip": false,
      "normalized": false,
      "special": true
    },
    {
      "id": 120015,
      "content": "<|image_end|>",
      "single_word": false,
      "lstrip": false,
      "rstrip": false,
      "normalized": false,
      "special": true
    },
    {
      "id": 120016,
      "content": "<|image_pad|>",
      "single_word": false,
      "lstrip": false,
      "rstrip": false,
      "normalized": false,
      "special": true
    },
    {
      "id": 120017,
      "content": "<|video_start|>",
      "single_word": false,
      "lstrip": false,
      "rstrip": false,
      "normalized": false,
      "special": true
    },
    {
      "id": 120018,
      "content": "<|video_end|>",
      "single_word": false,
      "lstrip": false,
      "rstrip": false,
      "normalized": false,
      "special": true
    },
    {
      "id": 120019,
      "content": "<|video_pad|>",
      "single_word": false,
      "lstrip": false,
      "rstrip": false,
      "normalized": false,
      "special": true
    },
    {
      "id": 120020,
      "content": "<|audio_start|>",
      "single_word": false,
      "lstrip": false,
      "rstrip": false,
      "normalized": false,
      "special": true
    },
    {
      "id": 120021,
      "content": "<|audio_end|>",
      "single_word": false,
      "lstrip": false,
      "rstrip": false,
      "normalized": false,
      "special": true
    },
    {
      "id": 120022,
      "content": "<|audio_pad|>",
      "single_word": false,
      "lstrip": false,
      "rstrip": false,
      "normalized": false,
      "special": true
    },
    {
      "id": 120023,
      "content": "<|function_start|>",
      "single_word": false,
      "lstrip": false,
      "rstrip": false,
      "normalized": false,
      "special": true
    },
    {
      "id": 120024,
      "content": "<|function_end|>",
      "single_word": false,
      "lstrip": false,
      "rstrip": false,
      "normalized": false,
      "special": true
    },
    {
      "id": 120025,
      "content": "<|turn_end>",
      "single_word": false,
      "lstrip": false,
      "rstrip": false,
      "normalized": false,
      "special": true
    }
  ],
  "normalizer": {
    "type": "NFC"
  },
  "pre_tokenizer": {
    "type": "Sequence",
    "pretokenizers": [
      {
        "type": "Split",
        "pattern": {
          "Regex": "(?i:'s|'t|'re|'ve|'m|'ll|'d)|[^\\r\\n\\p{L}\\p{N}]?\\p{L}+|\\p{N}| ?[^\\s\\p{L}\\p{N}]+[\\r\\n]*|\\s*[\\r\\n]+|\\s+(?!\\S)|\\s+"
        },
        "behavior": "Isolated",
        "invert": false
      },
      {
        "type": "ByteLevel",
        "add_prefix_space": false,
        "trim_offsets": false,
        "use_regex": false
      }
    ]
  },
  "post_processor": {
    "type": "ByteLevel",
    "add_prefix_space": false,
    "trim_offsets": false,
    "use_regex": false
  },
  "decoder": {
    "type": "ByteLevel",
    "add_prefix_space": false,
    "trim_offsets": false,
    "use_regex": false
  },
  "model": {
    "type": "BPE",
    "dropout": null,
    "unk_token": null,
    "continuing_subword_prefix": null,
    "end_of_word_suffix": null,
    "fuse_unk": false,
    "byte_fallback": false,
    "ignore_merges": false,
    "vocab": {
      "!": 0,
      "\"": 1,
      "#": 2,
      "$": 3,
      "%": 4,
      "&": 5,
      "'": 6,
      "(": 7,
      ")": 8,
      "*": 9,
      "+": 10,
      ",": 11,
      "-": 12,
      ".": 13,
      "/": 14,
      "0": 15,
      "1": 16,
      "2": 17,
      "3": 18,
      "4": 19,
      "5": 20,
      "6": 21,
      "7": 22,
      "8": 23,
      "9": 24,
      ":": 25,
      ";": 26,
      "<": 27,
      "=": 28,
      ">": 29,
      "?": 30,
      "@": 31,
      "A": 32,
      "B": 33,
      "C": 34,
      "D": 35,
      "E": 36,
      "F": 37,
      "G": 38,
      "H": 39,
      "I": 40,
      "J": 41,
      "K": 42,
      "L": 43,
      "M": 44,
      "N": 45,
      "O": 46,
      "P": 47,
      "Q": 48,
      "R": 49,
      "S": 50,
      "T": 51,
      "U": 52,
      "V": 53,
      "W": 54,
      "X": 55,
      "Y": 56,
      "Z": 57,
      "[": 58,
      "\\": 59,
      "]": 60,
      "^": 61,
      "_": 62,
      "`": 63,
      "a": 64,
      "b": 65,
      "c": 66,
      "d": 67,
      "e": 68,
      "f": 69,
      "g": 70,
      "h": 71,
      "i": 72,
      "j": 73,
      "k": 74,
      "l": 75,
      "m": 76,
      "n": 77,
      "o": 78,
      "p": 79,
      "q": 80,
      "r": 81,
      "s": 82,
      "t": 83,
      "u": 84,
      "v": 85,
      "w": 86,
      "x": 87,
      "y": 88,
      "z": 89,
      "{": 90,
      "|": 91,
      "}": 92,
      "~": 93,
      "¡": 94,
      "¢": 95,
      "£": 96,
      "¤": 97,
      "¥": 98,
      "¦": 99,
      "§": 100,
      "¨": 101,
      "©": 102,
      "ª": 103,
      "«": 104,
      "¬": 105,
      "®": 106,
      "¯": 107,
      "°": 108,
      "±": 109,
      "²": 110,
      "³": 111,
      "´": 112,
      "µ": 113,
      "¶": 114,
      "·": 115,
      "¸": 116,
      "¹": 117,
      "º": 118,
      "»": 119,
      "¼": 120,
      "½": 121,
      "¾": 122,
      "¿": 123,
      "Â": 124,
      "Ã": 125,
      "Ä": 126,
      "Å": 127,
      "Æ": 128,
      "Ç": 129,
      "È": 130,
      "É": 131,
      "Ê": 132,
      "Ë": 133,
      "Ì": 134,
      "Í": 135,
      "Î": 136,
      "Ï": 137,
      "Ð": 138,
      "Ñ": 139,
      "Ò": 140,
      "Ó": 141,
      "Ô": 142,
      "Õ": 143,
      "Ö": 144,
      "×": 145,
      "Ø": 146,
      "Ù": 147,
      "Ú": 148,
      "Û": 149,
      "Ü": 150,
      "Ý": 151,
      "Þ": 152,
      "ß": 153,
      "à": 154,
      "á": 155,
      "â": 156,
      "ã": 157,
      "ä": 158,
      "å": 159,
      "æ": 160,
      "ç": 161,
      "è": 162,
      "é": 163,
      "ê": 164,
      "ë": 165,
      "ì": 166,
      "í": 167,
      "î": 168,
      "ï": 169,
      "ð": 170,
      "ñ": 171,
      "ò": 172,
      "ó": 173,
      "ô": 174,
      "Ā": 175,
      "ā": 176,
      "Ă": 177,
      "ă": 178,
      "Ą": 179,
      "ą": 180,
      "Ć": 181,
      "ć": 182,
      "Ĉ": 183,
      "ĉ": 184,
      "Ċ": 185,
      "ċ": 186,
      "Č": 187,
      "č": 188,
      "Ď": 189,
      "ď": 190,
      "Đ": 191,
      "đ": 192,
      "Ē": 193,
      "ē": 194,
      "Ĕ": 195,
      "ĕ": 196,
      "Ė": 197,
      "ė": 198,
      "Ę": 199,
      "ę": 200,
      "Ě": 201,
      "ě": 202,
      "Ĝ": 203,
      "ĝ": 204,
      "Ğ": 205,
      "ğ": 206,
      "Ġ": 207,
      "ġ": 208,
      "Ģ": 209,
      "ģ": 210,
      "Ĥ": 211,
      "ĥ": 212,
      "Ħ": 213,
      "ħ": 214,
      "Ĩ": 215,
      "ĩ": 216,
      "Ī": 217,
      "ī": 218,
      "Ĭ": 219,
      "ĭ": 220,
      "Į": 221,
      "į": 222,
      "İ": 223,
      "ı": 224,
      "Ĳ": 225,
      "ĳ": 226,
      "Ĵ": 227,
      "ĵ": 228,
      "Ķ": 229,
      "ķ": 230,
      "ĸ": 231,
      "Ĺ": 232,
      "ĺ": 233,
      "Ļ": 234,
      "ļ": 235,
      "Ľ": 236,
      "ľ": 237,
      "Ŀ": 238,
      "ŀ": 239,
      "Ł": 240,
      "ł": 241,
      "Ń": 242,
      "ĠĠ": 243,
      "ĠĠĠĠ": 244,
      "Ġt": 245,
      "in": 246,
      "Ġa": 247,
      "he": 248,
      "on": 249,
      "er": 250,
      "ä¸": 251,
      "re": 252,
      "at": 253,
      "Ġthe": 254,
      "en": 255,
      "or": 256,
      "Ġs": 257,
      "es": 258,
      "Ġc": 259,
      "it": 260,
      "is": 261,
      "al": 262,
      "an": 263,
      "çļ": 264,
      "Ġw": 265,
      "çļĦ": 266,
      "Ġo": 267,
      "ĠĠĠĠĠĠĠĠ": 268,
      "ar": 269,
      "ĠĠĠ": 270,
      "ed": 271,
      "äº": 272,
      "Ġf": 273,
      "ion": 274,
      "Ġp": 275,
      "ing": 276,
      "le": 277,
      "Ġb": 278,
      "nd": 279,
      "ou": 280,
      "Ġin": 281,
      "æľ": 282,
      "as": 283,
      "ic": 284,
      "åı": 285,
      "Ġof": 286,
      "Ġm": 287,
      "Ġd": 288,
      "åħ": 289,
      "ro": 290,
      "ä»": 291,
      "Ġto": 292,
      "ãĢ": 293,
      "Ġand": 294,
      "et": 295,
      "ct": 296,
      "ent": 297,
      "å¤": 298,
      "st": 299,
      "el": 300,
      "å®": 301,
      ".Ċ": 302,
      "åĪ": 303,
      "Ġh": 304,
      "il": 305,
      "Ġn": 306,
      "om": 307,
      "Ġth": 308,
      "am": 309,
      "ä½": 310,
      "Ġre": 311,
      "è¿": 312,
      "id": 313,
      "åĲ": 314,
      "åľ": 315,
      "çĶ": 316,
      ";Ċ": 317,
      "ãĢģ": 318,
      "æĺ": 319,
      "im": 320,
      "åĬ": 321,
      "æĪ": 322,
      "Ġl": 323,
      "ig": 324,
      "ut": 325,
      "ol": 326,
      "ĠĠĠĠĠĠĠ": 327,
      "Ġe": 328,
      "ç»": 329,
      "ur": 330,
      "ac": 331,
      "--": 332,
      "è¯": 333,
      "æĸ": 334,
      "ot": 335,
      "ad": 336,
      "se": 337,
      "Ġ=": 338,
      "ation": 339,
      "åĽ": 340,
      "Ġ(": 341,
      "iv": 342,
      "ä¹": 343,
      "ĠS": 344,
      "ä¸Ģ": 345,
      "ĠT": 346,
      "âĢ": 347,
      "æĹ": 348,
      "è®": 349,
      "Ġis": 350,
      "å°": 351,
      "Ġg": 352,
      "å¹": 353,
      "åį": 354,
      "ä¼": 355,
      "ĠI": 356,
      "ĊĊ": 357,
      "ĠC": 358,
      "ĠA": 359,
      "åŃ": 360,
      "æĺ¯": 361,
      "Ġfor": 362,
      "ul": 363,
      "Ġ\"": 364,
      "ow": 365,
      "od": 366,
      "æĿ": 367,
      "ay": 368,
      "if": 369,
      "Ġ$": 370,
      "å¸": 371,
      "ce": 372,
      "ĉĉ": 373,
      "ï¼": 374,
      "Ġst": 375,
      "Ġbe": 376,
      "ly": 377,
      "æľī": 378,
      "em": 379,
      "ch": 380,
      "å·": 381,
      "us": 382,
      "åľ¨": 383,
      "Ġ\\": 384,
      "un": 385,
      "Ġon": 386,
      "æī": 387,
      "ag": 388,
      "Ġ{": 389,
      "ver": 390,
      "ab": 391,
      "ter": 392,
      "éĩ": 393,
      "å¼": 394,
      "ä¸į": 395,
      "ate": 396,
      "äºº": 397,
      "Ġthat": 398,
      "åĨ": 399,
      "um": 400,
      "ith": 401,
      "åº": 402,
      "è¡": 403,
      "ir": 404,
      "čĊ": 405,
      "åĮ": 406,
      "ĠĠĠĠĠĠĠĠĠĠĠĠĠĠĠĠ": 407,
      "pe": 408,
      "äºĨ": 409,
      "éĢ": 410,
      "Ġv": 411,
      "åĩ": 412,
      "Ġcon": 413,
      "ä¸Ń": 414,
      "qu": 415,
      "ĠM": 416,
      "est": 417,
      "th": 418,
      "è´": 419,
      "èĢ": 420,
      "çĽ": 421,
      "Ġy": 422,
      "Ġas": 423,
      ",Ċ": 424,
      "å¾": 425,
      "æķ": 426,
      "ap": 427,
      "æĬ": 428,
      "av": 429,
      "tr": 430,
      "å¯": 431,
      "ht": 432,
      "=\"": 433,
      ");Ċ": 434,
      "ers": 435,
      "æł": 436,
      "å¤§": 437,
      "ĠP": 438,
      "Ġwith": 439,
      "ex": 440,
      "å±": 441,
      "åĴ": 442,
      "å¥": 443,
      "Ġ<": 444,
      "ĥ½": 445,
      "è§": 446,
      ">Ċ": 447,
      "èµ": 448,
      "oc": 449,
      "ç§": 450,
      "}Ċ": 451,
      "ĠB": 452,
      "Ġpro": 453,
      "ä¸º": 454,
      "Ġal": 455,
      "her": 456,
      "Ġ-": 457,
      "ction": 458,
      "ame": 459,
      "end": 460,
      "çī": 461,
      "Ġan": 462,
      "æĢ": 463,
      "çİ": 464,
      "Ġit": 465,
      ")Ċ": 466,
      "åĴĮ": 467,
      "res": 468,
      "éĻ": 469,
      "op": 470,
      "ort": 471,
      "//": 472,
      "éĹ": 473,
      "ist": 474,
      "and": 475,
      "Ġ{Ċ": 476,
      "ess": 477,
      "æĶ": 478,
      "Ġwh": 479,
      "ain": 480,
      "ass": 481,
      "Ġ*": 482,
      "ew": 483,
      "Ġde": 484,
      "åİ": 485,
      "ä¸Ĭ": 486,
      "os": 487,
      "çº": 488,
      "ub": 489,
      "ä¿": 490,
      "ĠĠĠĠĠĠĠĠĠĠĠ": 491,
      "å¿": 492,
      "ï¼Į": 493,
      "Ġr": 494,
      "æ°": 495,
      "åĳ": 496,
      "ĠH": 497,
      "ĠD": 498,
      "åĽ½": 499,
      "ä¸ļ": 500,
      "ĠF": 501,
      "å¹´": 502,
      "ä»¥": 503,
      "----": 504,
      "ĠR": 505,
      "pl": 506,
      "ue": 507,
      "æ³": 508,
      "our": 509,
      "ity": 510,
      "ĠThe": 511,
      "å½": 512,
      "**": 513,
      "åıĳ": 514,
      "ĠĠĠĠĠ": 515,
      "Ġwas": 516,
      "æŃ": 517,
      "ä¸ª": 518,
      "Ġcom": 519,
      "Ġ'": 520,
      "ore": 521,
      "æĪĳ": 522,
      "Ġex": 523,
      "çĶ¨": 524,
      "æµ": 525,
      "ill": 526,
      "rom": 527,
      "pt": 528,
      "è½": 529,
      "æĹ¶": 530,
      "éĿ": 531,
      "çĶŁ": 532,
      "æİ": 533,
      "¦ģ": 534,
      "ĠN": 535,
      "èĩ": 536,
      "ä¼ļ": 537,
      "åŃ¦": 538,
      "Ġare": 539,
      "Ġhe": 540,
      "art": 541,
      "è¦ģ": 542,
      "ight": 543,
      "ke": 544,
      "âĢĻ": 545,
      "ĠW": 546,
      "ri": 547,
      "ĠL": 548,
      "Ġat": 549,
      "Ġor": 550,
      "ä½ľ": 551,
      "çĲ": 552,
      "ment": 553,
      "åĵ": 554,
      "çľ": 555,
      "</": 556,
      "up": 557,
      "ç½": 558,
      "ç«": 559,
      "ect": 560,
      "Ġby": 561,
      "æŀ": 562,
      "Ġcl": 563,
      "è¡Į": 564,
      "çŃ": 565,
      "æ²": 566,
      "ĠE": 567,
      "ld": 568,
      "é¢": 569,
      "èĥ½": 570,
      "nt": 571,
      "ĠG": 572,
      "ies": 573,
      "è¿Ļ": 574,
      "port": 575,
      "iz": 576,
      "åĪ°": 577,
      "å·¥": 578,
      "ant": 579,
      "æĿ¥": 580,
      "ure": 581,
      "age": 582,
      "æĭ": 583,
      "ine": 584,
      "Ġse": 585,
      "ive": 586,
      "Ġwe": 587,
      "con": 588,
      "åı¯": 589,
      "Ġfrom": 590,
      "Ġthis": 591,
      "all": 592,
      "è¾": 593,
      "ial": 594,
      "==": 595,
      "åĩº": 596,
      "åħ¬": 597,
      "og": 598,
      "æĥ": 599,
      "ud": 600,
      "cl": 601,
      "ath": 602,
      "æĪĲ": 603,
      "æ¯": 604,
      "å¯¹": 605,
      "æĮ": 606,
      "_{": 607,
      "éĺ": 608,
      "å®¶": 609,
      "åľ°": 610,
      "Ġ}": 611,
      "Ġtr": 612,
      "ave": 613,
      "äºİ": 614,
      "åī": 615,
      "ack": 616,
      "ff": 617,
      "..": 618,
      "æ±": 619,
      "åŁ": 620,
      "urn": 621,
      "||": 622,
      "ult": 623,
      "ge": 624,
      "ä¸ĭ": 625,
      "æĸ°": 626,
      "ext": 627,
      "çĲĨ": 628,
      "ib": 629,
      "Ġnot": 630,
      "orm": 631,
      "æ¬": 632,
      "rou": 633,
      "ĠĊ": 634,
      "Ġyou": 635,
      "Ġch": 636,
      "per": 637,
      "ç®": 638,
      "èĤ": 639,
      "out": 640,
      "å¤ļ": 641,
      "åĪĨ": 642,
      "ĠO": 643,
      "int": 644,
      "eg": 645,
      "å¸Ĥ": 646,
      "Ġle": 647,
      "æĸ¹": 648,
      "ust": 649,
      "æ¸": 650,
      "åĬ¨": 651,
      "æĦ": 652,
      "act": 653,
      "æľ¬": 654,
      "able": 655,
      "()": 656,
      "ä¾": 657,
      "é«": 658,
      "æĹ¥": 659,
      "å¦": 660,
      "ç¬": 661,
      "Ġsh": 662,
      "ard": 663,
      "é¡": 664,
      "ip": 665,
      "äº§": 666,
      "are": 667,
      "åĲİ": 668,
      "èĩª": 669,
      "é«ĺ": 670,
      "ber": 671,
      "ç»ı": 672,
      "æ´": 673,
      "åħ¨": 674,
      "ä»¬": 675,
      "ost": 676,
      "çĤ": 677,
      "Ġif": 678,
      "è¿Ľ": 679,
      "com": 680,
      "ord": 681,
      "åĵģ": 682,
      "Ġhave": 683,
      "Ġ&": 684,
      "éģ": 685,
      "æľº": 686,
      "ind": 687,
      "ĠU": 688,
      "å°±": 689,
      "å¼Ģ": 690,
      "çİ°": 691,
      "turn": 692,
      "ell": 693,
      "ime": 694,
      "è¿ĩ": 695,
      "éĥ": 696,
      "ata": 697,
      "ĠJ": 698,
      "The": 699,
      "ans": 700,
      "ov": 701,
      "ated": 702,
      "éķ": 703,
      "ef": 704,
      "ç½ĳ": 705,
      "Ġ[": 706,
      "å®ŀ": 707,
      "str": 708,
      "æı": 709,
      "ype": 710,
      "èģ": 711,
      "ç¨": 712,
      "ite": 713,
      "ile": 714,
      "ire": 715,
      "sp": 716,
      "ase": 717,
      "çŃī": 718,
      "ĠĠĠĠĠĠĠĠĠĠĠĠĠĠĠ": 719,
      "éĿ¢": 720,
      "ä¹Ł": 721,
      "ak": 722,
      "å¥½": 723,
      "å°ı": 724,
      "çĶµ": 725,
      "ich": 726,
      "Ġclass": 727,
      "ign": 728,
      "ork": 729,
      "åģ": 730,
      "ãĢĤ": 731,
      "Ġcan": 732,
      "ä»ĸ": 733,
      "ä½ĵ": 734,
      "{\\": 735,
      "ä¸İ": 736,
      "ice": 737,
      "to": 738,
      "åĬĽ": 739,
      "åĲĪ": 740,
      "ode": 741,
      "ast": 742,
      "get": 743,
      "Ġj": 744,
      "æĽ": 745,
      "ition": 746,
      "æ³ķ": 747,
      "ace": 748,
      "è·": 749,
      "å»": 750,
      "ä¸»": 751,
      "pro": 752,
      "ould": 753,
      "å®ļ": 754,
      "cc": 755,
      "'s": 756,
      "In": 757,
      "åŃĲ": 758,
      "åħ³": 759,
      "è°": 760,
      "æľĪ": 761,
      "éĥ¨": 762,
      "ary": 763,
      "Ġu": 764,
      "ong": 765,
      "åĲĮ": 766,
      "ref": 767,
      "åĮĸ": 768,
      "Ġus": 769,
      "\",": 770,
      "ç¤": 771,
      "âĢĻs": 772,
      "èĢħ": 773,
      "Ġpl": 774,
      "å¿ĥ": 775,
      "æĸĩ": 776,
      "ide": 777,
      "ep": 778,
      "ical": 779,
      "éĽ": 780,
      "Ġab": 781,
      "åĨħ": 782,
      "çŁ": 783,
      "Ġk": 784,
      "æĢ§": 785,
      "åĿ": 786,
      "åĬł": 787,
      "åīį": 788,
      "Ġcomp": 789,
      "ear": 790,
      "Ġwhe": 791,
      "åĬ¡": 792,
      "ok": 793,
      "ang": 794,
      "ç¾": 795,
      "ç¬¬": 796,
      "form": 797,
      "Ġhas": 798,
      "erv": 799,
      "æĻ": 800,
      "Ġall": 801,
      "alue": 802,
      "--------": 803,
      "æį": 804,
      "ç³": 805,
      "ĠIn": 806,
      "Ġim": 807,
      ":Ċ": 808,
      "éĢļ": 809,
      "å¤©": 810,
      "åħ¶": 811,
      "çĤ¹": 812,
      "èī": 813,
      "Ġ$\\": 814,
      "ä¹ĭ": 815,
      "è®¾": 816,
      "æīĢ": 817,
      "\"Ċ": 818,
      "æľĢ": 819,
      "åĮº": 820,
      "ma": 821,
      "ec": 822,
      "åı¸": 823,
      "->": 824,
      "ph": 825,
      "ther": 826,
      "one": 827,
      "éĹ´": 828,
      "å¾Ĺ": 829,
      "å¦Ĥ": 830,
      "so": 831,
      "ence": 832,
      "Ġad": 833,
      "èµĦ": 834,
      "æģ": 835,
      "ĠâĢ": 836,
      "å»º": 837,
      "ject": 838,
      "é£": 839,
      "è¶": 840,
      "åľº": 841,
      "ens": 842,
      "ia": 843,
      "æıĲ": 844,
      "ance": 845,
      "éķ¿": 846,
      "::": 847,
      "ild": 848,
      "lic": 849,
      "ft": 850,
      "éĶ": 851,
      "Ġun": 852,
      "ä¿¡": 853,
      "Ġwill": 854,
      "åº¦": 855,
      "åıĬ": 856,
      "åĢ": 857,
      "ont": 858,
      "èĬ": 859,
      "éĥ½": 860,
      "ations": 861,
      "ON": 862,
      "Ġres": 863,
      "å±ķ": 864,
      "éĩį": 865,
      "lo": 866,
      "ions": 867,
      "è¡¨": 868,
      "Ġwhich": 869,
      "èĢĮ": 870,
      "çĿ": 871,
      "__": 872,
      "æŁ": 873,
      "æ¶": 874,
      "äºĭ": 875,
      "çł": 876,
      "math": 877,
      "ç³»": 878,
      "åħ¬åı¸": 879,
      "çĻ": 880,
      "ome": 881,
      "å§": 882,
      "ä½ł": 883,
      "du": 884,
      "ĉĉĉĉ": 885,
      "\">": 886,
      "åķ": 887,
      "Ġdo": 888,
      "),": 889,
      "elf": 890,
      "ms": 891,
      "Ġ}Ċ": 892,
      "Ġdis": 893,
      "ĠV": 894,
      "åĪ¶": 895,
      "Ġap": 896,
      "Ġ|": 897,
      "Ġreturn": 898,
      "ä½į": 899,
      "è¯´": 900,
      "å°Ĩ": 901,
      "Ġcont": 902,
      "ä¿Ŀ": 903,
      "##": 904,
      "Ġen": 905,
      "ous": 906,
      "ç®¡": 907,
      "åĳĺ": 908,
      ").": 909,
      "è¿ĺ": 910,
      "ĠK": 911,
      "Ġhis": 912,
      "éļ": 913,
      "çĽ®": 914,
      "çľĭ": 915,
      "å¢": 916,
      "ail": 917,
      "æ°´": 918,
      "Ġout": 919,
      "Ġnew": 920,
      "ory": 921,
      "æķ°": 922,
      "æĥħ": 923,
      "Ġar": 924,
      "ev": 925,
      "Ġ.": 926,
      "åĲį": 927,
      "ç©": 928,
      "éĩı": 929,
      "æľŁ": 930,
      "çķ": 931,
      "ents": 932,
      "åħ¥": 933,
      "Ġ+": 934,
      "gh": 935,
      "ach": 936,
      "IN": 937,
      "Ġ//": 938,
      "ps": 939,
      "ll": 940,
      "Ġgo": 941,
      "éĩĳ": 942,
      "åºĶ": 943,
      "ublic": 944,
      "ä¸ī": 945,
      "Ġbut": 946,
      "ç±": 947,
      "éģĵ": 948,
      "ize": 949,
      "éĤ": 950,
      "ere": 951,
      "éľ": 952,
      "è®¡": 953,
      "}ĊĊ": 954,
      "æĺİ": 955,
      "ä»¶": 956,
      "row": 957,
      "ress": 958,
      "èĲ": 959,
      "ç¨ĭ": 960,
      "å¤ĸ": 961,
      "Ġpr": 962,
      "Ġstr": 963,
      "æķĻ": 964,
      "Ġ:": 965,
      "Ġme": 966,
      "au": 967,
      "',": 968,
      "è½¦": 969,
      "div": 970,
      "å®ī": 971,
      "ĠTh": 972,
      "Ġtheir": 973,
      "çĦ": 974,
      "çĽ¸": 975,
      "æĤ": 976,
      "ER": 977,
      "ert": 978,
      "æĽ´": 979,
      "Ġone": 980,
      "ç§į": 981,
      "éħ": 982,
      "put": 983,
      "ual": 984,
      "aw": 985,
      "Ġsu": 986,
      "Ġ/": 987,
      "}\\": 988,
      "====": 989,
      "set": 990,
      "te": 991,
      "åħĥ": 992,
      "own": 993,
      "ne": 994,
      "ount": 995,
      "æ¬¡": 996,
      "æīĭ": 997,
      "(\"": 998,
      "fer": 999,
      "ç¾İ": 1000,
      "****": 1001,
      "âĢĿ": 1002,
      "ç²": 1003,
      "çī©": 1004,
      "Ġthey": 1005,
      "å¼ı": 1006,
      "æ°ĳ": 1007,
      "ock": 1008,
      "å½ĵ": 1009,
      "fr": 1010,
      "ose": 1011,
      "unction": 1012,
      "æĦı": 1013,
      "Ġ@": 1014,
      "ple": 1015,
      "ĠSt": 1016,
      "å¹³": 1017,
      "('": 1018,
      "æ¡": 1019,
      "ound": 1020,
      "èĭ": 1021,
      "å·¥ä½ľ": 1022,
      "Ġup": 1023,
      "çĥ": 1024,
      "}$": 1025,
      "err": 1026,
      "å¾Ī": 1027,
      "_t": 1028,
      "å¹¶": 1029,
      "li": 1030,
      "æĬĢ": 1031,
      "æĹł": 1032,
      "ä¸Ģä¸ª": 1033,
      "é¦": 1034,
      "çĿĢ": 1035,
      "St": 1036,
      "æľį": 1037,
      "^{": 1038,
      "æ¯Ķ": 1039,
      "\",Ċ": 1040,
      "ç¼": 1041,
      "Ġpart": 1042,
      "ark": 1043,
      "cri": 1044,
      "ake": 1045,
      "ors": 1046,
      "éĴ": 1047,
      "Ġalso": 1048,
      "æ·": 1049,
      "åķĨ": 1050,
      "éĩĮ": 1051,
      "æŀľ": 1052,
      "clud": 1053,
      "éĵ": 1054,
      "ä¸ĵ": 1055,
      "ree": 1056,
      "ç´": 1057,
      "ç¡": 1058,
      "çĸ": 1059,
      "è£": 1060,
      "ç¥": 1061,
      "aram": 1062,
      "ob": 1063,
      "Ġper": 1064,
      "æĪĸ": 1065,
      "Ġqu": 1066,
      "æĬ¥": 1067,
      "irst": 1068,
      "åı¯ä»¥": 1069,
      "Ġev": 1070,
      "ä½¿": 1071,
      "æ´»": 1072,
      "èµ·": 1073,
      "åĽł": 1074,
      "Ġmore": 1075,
      "æĪĳä»¬": 1076,
      "ä»İ": 1077,
      "Ġwere": 1078,
      "é¢ĺ": 1079,
      "che": 1080,
      "è¢": 1081,
      "ç§ĳ": 1082,
      "Ġman": 1083,
      "çĪ": 1084,
      "çĦ¶": 1085,
      "æľ¯": 1086,
      "Ġtime": 1087,
      "ull": 1088,
      "old": 1089,
      "fig": 1090,
      "Ġwork": 1091,
      "Ġother": 1092,
      "iew": 1093,
      "èį": 1094,
      "ely": 1095,
      "ption": 1096,
      "ãĢĬ": 1097,
      "å£": 1098,
      "ãĢĭ": 1099,
      "çī¹": 1100,
      "åĪ©": 1101,
      "ä¹Ī": 1102,
      "Ġwho": 1103,
      "ä»£": 1104,
      "åŀ": 1105,
      "Ġget": 1106,
      "ä¸ŃåĽ½": 1107,
      "ook": 1108,
      "Ġname": 1109,
      "cal": 1110,
      "|||": 1111,
      "ä»·": 1112,
      "pr": 1113,
      "ãģ": 1114,
      "äºĮ": 1115,
      "ĠCh": 1116,
      "Ġinter": 1117,
      "abel": 1118,
      "ian": 1119,
      "equ": 1120,
      "Ġ#": 1121,
      "æŃ¤": 1122,
      "ink": 1123,
      "ings": 1124,
      "Ġyour": 1125,
      "umber": 1126,
      "Ġ</": 1127,
      "å¸¸": 1128,
      "we": 1129,
      "Ġso": 1130,
      "ĠĠĠĠĠĠĠĠĠĠĠĠĠĠĠĠĠĠĠ": 1131,
      "Ġne": 1132,
      "äº¤": 1133,
      "æŃ£": 1134,
      "æ²¡": 1135,
      "low": 1136,
      "èĪ": 1137,
      "yst": 1138,
      "æģ¯": 1139,
      "æİ¥": 1140,
      "çĹ": 1141,
      "cre": 1142,
      "Ġint": 1143,
      "very": 1144,
      "æº": 1145,
      "åŁº": 1146,
      "ates": 1147,
      "çģ": 1148,
      "ener": 1149,
      "Ġdef": 1150,
      "odel": 1151,
      "çº¿": 1152,
      "æĶ¿": 1153,
      "æµ·": 1154,
      "ĠIt": 1155,
      "ä»»": 1156,
      "ä¼ģ": 1157,
      "sh": 1158,
      "td": 1159,
      "text": 1160,
      "eld": 1161,
      "ä½Ĩ": 1162,
      "ict": 1163,
      "æłĩ": 1164,
      "èĥ": 1165,
      "éĹ®": 1166,
      "Ġsp": 1167,
      "èģĶ": 1168,
      "è§£": 1169,
      "ĠĠĠĠĠĠĠĠĠ": 1170,
      "éĻ¢": 1171,
      "åĲĦ": 1172,
      "lect": 1173,
      "Ġyear": 1174,
      "æį®": 1175,
      "ck": 1176,
      "è´¨": 1177,
      "å·²": 1178,
      "pect": 1179,
      "Ġabout": 1180,
      "Ġbeen": 1181,
      "æł¼": 1182,
      "é¡¹": 1183,
      "name": 1184,
      "enc": 1185,
      "Ġover": 1186,
      ";ĊĊ": 1187,
      "éª": 1188,
      "Ġpre": 1189,
      "Ġset": 1190,
      "ool": 1191,
      "Ġ}ĊĊ": 1192,
      "}}": 1193,
      "Ġhad": 1194,
      "è·¯": 1195,
      "RE": 1196,
      "import": 1197,
      "Ġcol": 1198,
      "Ġag": 1199,
      "eth": 1200,
      "æĶ¶": 1201,
      "Ġits": 1202,
      "oint": 1203,
      "åįķ": 1204,
      "åİ»": 1205,
      "ss": 1206,
      "ish": 1207,
      "åįģ": 1208,
      "æ±Ĥ": 1209,
      "äºĽ": 1210,
      "wo": 1211,
      "(\\": 1212,
      "éĹ¨": 1213,
      "ield": 1214,
      "æĮģ": 1215,
      "è¢«": 1216,
      "å¼º": 1217,
      "mer": 1218,
      "ç»Ł": 1219,
      "nder": 1220,
      "Ġpublic": 1221,
      "ĠY": 1222,
      "pec": 1223,
      "ry": 1224,
      "ç»ĵ": 1225,
      "ä¼ģä¸ļ": 1226,
      "ä¸ľ": 1227,
      "æĪ·": 1228,
      "min": 1229,
      "æµģ": 1230,
      "åıª": 1231,
      "æĥ³": 1232,
      "åİŁ": 1233,
      "Ġvalue": 1234,
      "éľĢ": 1235,
      "çº§": 1236,
      "ystem": 1237,
      "çŁ¥": 1238,
      "èº": 1239,
      "è§Ħ": 1240,
      "åŀĭ": 1241,
      "ĠĠĠĠĠĠ": 1242,
      "æł·": 1243,
      "egin": 1244,
      "AT": 1245,
      "app": 1246,
      "åĸ": 1247,
      "Ġte": 1248,
      "çĶ±": 1249,
      "åģļ": 1250,
      "ari": 1251,
      "arg": 1252,
      "tring": 1253,
      "ng": 1254,
      "Ġwhen": 1255,
      "é©": 1256,
      "ä¸ĩ": 1257,
      "èī²": 1258,
      "ug": 1259,
      "Ġany": 1260,
      "over": 1261,
      "ick": 1262,
      "line": 1263,
      "inal": 1264,
      "Ġli": 1265,
      "ax": 1266,
      "Ġfirst": 1267,
      "è¥": 1268,
      "æ»": 1269,
      "æĦŁ": 1270,
      "\\b": 1271,
      "èĦ": 1272,
      "ys": 1273,
      "Ġ*/": 1274,
      "ays": 1275,
      "fter": 1276,
      "col": 1277,
      "ix": 1278,
      "ç«Ļ": 1279,
      "Ġob": 1280,
      "éĤ£": 1281,
      "æ³¨": 1282,
      "gr": 1283,
      "è¯ģ": 1284,
      "é£İ": 1285,
      "the": 1286,
      "Ġthere": 1287,
      "ç»Ħ": 1288,
      "è¥¿": 1289,
      "ME": 1290,
      "ater": 1291,
      "åĲĳ": 1292,
      "è´¹": 1293,
      "å¹¿": 1294,
      "å¤Ħ": 1295,
      "åħ·": 1296,
      "Ġour": 1297,
      "ve": 1298,
      "Ġcomm": 1299,
      "round": 1300,
      ";čĊ": 1301,
      "èº«": 1302,
      "Ġid": 1303,
      "åĽŀ": 1304,
      "();Ċ": 1305,
      "å¯¼": 1306,
      "ĠHe": 1307,
      "ä¸¤": 1308,
      "rit": 1309,
      "ä¼ł": 1310,
      ".\"": 1311,
      "ä¾Ľ": 1312,
      "ç¦": 1313,
      "åįĹ": 1314,
      "Ġdes": 1315,
      "_d": 1316,
      "èĢĥ": 1317,
      "åı£": 1318,
      "ty": 1319,
      "ç¤º": 1320,
      "Ġpe": 1321,
      "æºĲ": 1322,
      "Ġro": 1323,
      "è£ħ": 1324,
      "æĢ»": 1325,
      "è¿Ĳ": 1326,
      "vel": 1327,
      "âĢĶ": 1328,
      "åıĳå±ķ": 1329,
      "Ġfunction": 1330,
      "ç«ĭ": 1331,
      "å¸Ī": 1332,
      "pos": 1333,
      "éĢī": 1334,
      "æľįåĬ¡": 1335,
      "ç¤¾": 1336,
      "oun": 1337,
      "è®°": 1338,
      "æ°Ķ": 1339,
      "è¯·": 1340,
      "Ġi": 1341,
      "ç±»": 1342,
      "))": 1343,
      "://": 1344,
      "Ġsome": 1345,
      "å®¹": 1346,
      "å¤ĩ": 1347,
      "åĻ": 1348,
      "pon": 1349,
      "åĶ": 1350,
      "]Ċ": 1351,
      "right": 1352,
      "æīĵ": 1353,
      "Ġkn": 1354,
      "Ġwould": 1355,
      "ä¹¦": 1356,
      "æ¸¸": 1357,
      "å±±": 1358,
      "ç®¡çĲĨ": 1359,
      "åĪĽ": 1360,
      "ics": 1361,
      "èİ": 1362,
      "{Ċ": 1363,
      "è¯¥": 1364,
      "ĉĉĉ": 1365,
      "è°ĥ": 1366,
      "åĮĹ": 1367,
      "\":": 1368,
      "ray": 1369,
      "Ġher": 1370,
      "ra": 1371,
      "è®©": 1372,
      "åı°": 1373,
      "å·±": 1374,
      "æķĪ": 1375,
      "ĠâĢľ": 1376,
      "é»": 1377,
      "çłĶ": 1378,
      "åŁİ": 1379,
      "Ġthan": 1380,
      "Pro": 1381,
      "-b": 1382,
      "\">Ċ": 1383,
      "Ġrec": 1384,
      "anc": 1385,
      "Ġass": 1386,
      "Ex": 1387,
      "æ£": 1388,
      "iss": 1389,
      "è¿Ľè¡Į": 1390,
      "Name": 1391,
      "label": 1392,
      "éĽĨ": 1393,
      "ange": 1394,
      "Ġ=>": 1395,
      "les": 1396,
      "Ġsup": 1397,
      "æĹ¶éĹ´": 1398,
      "åıĹ": 1399,
      "ific": 1400,
      "ons": 1401,
      "èĢģ": 1402,
      "-s": 1403,
      "span": 1404,
      ".ĊĊ": 1405,
      "add": 1406,
      "tern": 1407,
      "oid": 1408,
      "éĢł": 1409,
      "èĩªå·±": 1410,
      "æł¡": 1411,
      "igh": 1412,
      "_s": 1413,
      "èĮ": 1414,
      ".p": 1415,
      "rap": 1416,
      "Ġtwo": 1417,
      "Ġ`": 1418,
      "è®º": 1419,
      "æĪ¿": 1420,
      "_{\\": 1421,
      "åĻ¨": 1422,
      "ç²¾": 1423,
      "èĤ²": 1424,
      "TI": 1425,
      "ied": 1426,
      "Ġadd": 1427,
      "åĪ«": 1428,
      "Ġinto": 1429,
      "çľģ": 1430,
      "ç»Ļ": 1431,
      "æŁ¥": 1432,
      "åħĪ": 1433,
      "éĻĲ": 1434,
      "åĳĬ": 1435,
      "åįİ": 1436,
      "uct": 1437,
      "ç«ł": 1438,
      "px": 1439,
      "ople": 1440,
      "Ġnumber": 1441,
      "this": 1442,
      "Ġacc": 1443,
      "ade": 1444,
      "ä¿¡æģ¯": 1445,
      "æĿĥ": 1446,
      "æİ¨": 1447,
      "ie": 1448,
      "}{": 1449,
      "ient": 1450,
      "io": 1451,
      "ource": 1452,
      "mb": 1453,
      "Ġonly": 1454,
      "çľŁ": 1455,
      "å²": 1456,
      "å¥³": 1457,
      "æĬķ": 1458,
      "ove": 1459,
      "ational": 1460,
      "äº§åĵģ": 1461,
      "ĠThis": 1462,
      "\\end": 1463,
      "å½±": 1464,
      "ative": 1465,
      "htt": 1466,
      ")$": 1467,
      "å¢ŀ": 1468,
      "Ġself": 1469,
      "èĩ³": 1470,
      "roup": 1471,
      "Ġcons": 1472,
      "ãĥ": 1473,
      "æĸĻ": 1474,
      "ta": 1475,
      "Ġreg": 1476,
      "Ġdata": 1477,
      "\\begin": 1478,
      "åĬŀ": 1479,
      "èĬĤ": 1480,
      "Ġmy": 1481,
      "Ġno": 1482,
      "----------------": 1483,
      "èĲ¥": 1484,
      "Ġbet": 1485,
      "è¾¾": 1486,
      "ĠUn": 1487,
      ".s": 1488,
      "åĮ»": 1489,
      "å¸ĥ": 1490,
      "åı·": 1491,
      "trib": 1492,
      "ning": 1493,
      "uild": 1494,
      "å®Į": 1495,
      "idth": 1496,
      "ise": 1497,
      "æ²¡æľī": 1498,
      "è½¬": 1499,
      "è¯Ŀ": 1500,
      "ox": 1501,
      "åĽĽ": 1502,
      "çĽ´": 1503,
      "ator": 1504,
      "åıĺ": 1505,
      "å®¢": 1506,
      "'Ċ": 1507,
      "Ġcre": 1508,
      "è®¤": 1509,
      "Ġoff": 1510,
      "Ġend": 1511,
      "ä¼ĺ": 1512,
      ".com": 1513,
      "å°ĳ": 1514,
      ".m": 1515,
      "ular": 1516,
      "Ġx": 1517,
      "æĶ¾": 1518,
      "Ġthem": 1519,
      "Ġpos": 1520,
      "æĤ¨": 1521,
      "ST": 1522,
      "åħ±": 1523,
      "æĮĩ": 1524,
      "Ġinclud": 1525,
      "åĽ¾": 1526,
      "Ġ*/Ċ": 1527,
      "æ¼": 1528,
      "oy": 1529,
      "Ġind": 1530,
      "å¤´": 1531,
      "ating": 1532,
      "æķ´": 1533,
      "æ¯ı": 1534,
      "urre": 1535,
      "å½¢": 1536,
      "tribut": 1537,
      "ĠĠĠĠĠĠĠĠĠĠĠĠĠĠĠĠĠĠĠĠĠĠĠĠĠĠĠĠĠĠĠĠ": 1538,
      "Ġact": 1539,
      "ities": 1540,
      "åħī": 1541,
      "_p": 1542,
      "Ġwhere": 1543,
      "Ġdif": 1544,
      "åĩĨ": 1545,
      "ãĤ": 1546,
      "Ġsub": 1547,
      "Ġop": 1548,
      "},": 1549,
      "ally": 1550,
      "æĬĢæľ¯": 1551,
      "Type": 1552,
      "æ®": 1553,
      "ml": 1554,
      "key": 1555,
      "æĶ¯": 1556,
      "Ġpeople": 1557,
      "Id": 1558,
      "atch": 1559,
      "Ġrel": 1560,
      "Ġel": 1561,
      "è§Ĩ": 1562,
      "éŁ": 1563,
      "å¸¦": 1564,
      "return": 1565,
      ");ĊĊ": 1566,
      ",åľ¨": 1567,
      "Ġtrans": 1568,
      "æ¨": 1569,
      "èĻ": 1570,
      "Ġunder": 1571,
      "Â·": 1572,
      "Ġwhat": 1573,
      "Ġprov": 1574,
      "Ġconst": 1575,
      "éĺŁ": 1576,
      "der": 1577,
      "Con": 1578,
      "fo": 1579,
      "åıĸ": 1580,
      "aid": 1581,
      "ï¼ļ": 1582,
      "atic": 1583,
      "Ġ!": 1584,
      "å¿«": 1585,
      "ause": 1586,
      ".get": 1587,
      "Ġsc": 1588,
      "arch": 1589,
      "Ġfe": 1590,
      "å±Ģ": 1591,
      ",è¿Ļ": 1592,
      ".d": 1593,
      "eq": 1594,
      "çĲĥ": 1595,
      "Ġuse": 1596,
      "å¸Ĥåľº": 1597,
      "ues": 1598,
      "çİ¯": 1599,
      "æĿ¡": 1600,
      "åĮħ": 1601,
      "åıĤ": 1602,
      "eng": 1603,
      "Ġrequ": 1604,
      "ement": 1605,
      "æ²»": 1606,
      "ased": 1607,
      "ĠWe": 1608,
      "æ¶Ī": 1609,
      "èĤ¡": 1610,
      "å·ŀ": 1611,
      "frac": 1612,
      "è®®": 1613,
      "-d": 1614,
      "æĶ¹": 1615,
      "ID": 1616,
      "è¿ĳ": 1617,
      "ä»Ĭ": 1618,
      "Ġ>": 1619,
      "å¤į": 1620,
      "man": 1621,
      "Ġresult": 1622,
      "è¯ķ": 1623,
      ".S": 1624,
      "ices": 1625,
      "let": 1626,
      "ä¸ĸ": 1627,
      "è±": 1628,
      "of": 1629,
      "rm": 1630,
      "çħ": 1631,
      "Th": 1632,
      "åĬŁ": 1633,
      "é¢Ĩ": 1634,
      "cess": 1635,
      "ç©º": 1636,
      "als": 1637,
      ",ä¸į": 1638,
      "Ġserv": 1639,
      "ç¡®": 1640,
      "åĽ¢": 1641,
      "Ġback": 1642,
      ",ä½Ĩ": 1643,
      "oth": 1644,
      "Cont": 1645,
      "Ġshe": 1646,
      "è´£": 1647,
      "ments": 1648,
      "éĺ²": 1649,
      "ility": 1650,
      "ble": 1651,
      "rough": 1652,
      ")ĊĊ": 1653,
      "Ġmay": 1654,
      "Ġbec": 1655,
      "æ¢": 1656,
      "Ġneed": 1657,
      "è§Ĥ": 1658,
      "ember": 1659,
      "Ġhow": 1660,
      "âĢĻt": 1661,
      "SS": 1662,
      "è¯Ħ": 1663,
      "æ·±": 1664,
      "Ġsuch": 1665,
      "ash": 1666,
      "hed": 1667,
      "çĪ±": 1668,
      "enter": 1669,
      "uth": 1670,
      "Ġthen": 1671,
      "Ġinv": 1672,
      "ä½¿çĶ¨": 1673,
      "yn": 1674,
      "æīį": 1675,
      "æĪĺ": 1676,
      "éĹ®é¢ĺ": 1677,
      "read": 1678,
      "çĥŃ": 1679,
      "éĿŀ": 1680,
      "æĺĵ": 1681,
      "Ġ_": 1682,
      "cont": 1683,
      "éªĮ": 1684,
      "orld": 1685,
      "ible": 1686,
      ".c": 1687,
      "ton": 1688,
      "imes": 1689,
      "ner": 1690,
      "its": 1691,
      "br": 1692,
      "Ġloc": 1693,
      "æ¸ħ": 1694,
      "çīĩ": 1695,
      "åıĭ": 1696,
      "Ġbl": 1697,
      "_c": 1698,
      "vers": 1699,
      "çīĪ": 1700,
      "ollow": 1701,
      "cite": 1702,
      "ä½ķ": 1703,
      "çĭ": 1704,
      "èģĮ": 1705,
      "Ġmost": 1706,
      "ä¹Ĳ": 1707,
      "èµĽ": 1708,
      "Ġtype": 1709,
      "Ġstud": 1710,
      "Ġform": 1711,
      "son": 1712,
      "left": 1713,
      "Ġjust": 1714,
      "è¾ĥ": 1715,
      "olog": 1716,
      "Ġlike": 1717,
      "plic": 1718,
      "_m": 1719,
      "ward": 1720,
      "Ġ==": 1721,
      "çĹħ": 1722,
      "ç½®": 1723,
      "Ġafter": 1724,
      "_f": 1725,
      "ars": 1726,
      "æ¡Ī": 1727,
      "Ġthese": 1728,
      "é¥": 1729,
      "ized": 1730,
      "><": 1731,
      "Âł": 1732,
      "ily": 1733,
      "ery": 1734,
      "åĨ³": 1735,
      "not": 1736,
      "é¦ĸ": 1737,
      "alse": 1738,
      "eta": 1739,
      "æŃ¥": 1740,
      "åŃĹ": 1741,
      "åĨį": 1742,
      "æĬĬ": 1743,
      "æŀĦ": 1744,
      "åĳ¨": 1745,
      "und": 1746,
      "çķĮ": 1747,
      "å§Ķ": 1748,
      "rc": 1749,
      "ethod": 1750,
      "amp": 1751,
      "Res": 1752,
      "irect": 1753,
      "def": 1754,
      "Ġpol": 1755,
      "tt": 1756,
      "dd": 1757,
      "Ġam": 1758,
      "èĬ±": 1759,
      "éħį": 1760,
      "msg": 1761,
      "reat": 1762,
      "äºĶ": 1763,
      "ough": 1764,
      "========": 1765,
      "?Ċ": 1766,
      "ames": 1767,
      "work": 1768,
      "ider": 1769,
      "ank": 1770,
      "éĻħ": 1771,
      "Ġ--": 1772,
      "ä¹ł": 1773,
      "bf": 1774,
      "Ġph": 1775,
      "Ġrem": 1776,
      "çĬ": 1777,
      "eter": 1778,
      "********": 1779,
      "éĶĢ": 1780,
      "ages": 1781,
      "âĢ¦": 1782,
      "Ġval": 1783,
      "uring": 1784,
      "LE": 1785,
      "æĸ½": 1786,
      "æ±Ł": 1787,
      "è§ģ": 1788,
      "Ġthrough": 1789,
      "resent": 1790,
      "AC": 1791,
      "ault": 1792,
      "å¥¹": 1793,
      "æ¬¾": 1794,
      "éĢŁ": 1795,
      "Ġac": 1796,
      "cond": 1797,
      "çĻ½": 1798,
      "Ġerr": 1799,
      "æ¹": 1800,
      "val": 1801,
      "ited": 1802,
      "ures": 1803,
      "Ġcall": 1804,
      "Ġspec": 1805,
      "ä»Ģ": 1806,
      "ious": 1807,
      "æ¨¡": 1808,
      "æĳ": 1809,
      "ç§¯": 1810,
      "ĠCom": 1811,
      "çı": 1812,
      "urrent": 1813,
      "Ġgr": 1814,
      "Ġdr": 1815,
      "Ġyears": 1816,
      "æľª": 1817,
      "Ġprodu": 1818,
      "å®ĥ": 1819,
      "ç©¶": 1820,
      "_N": 1821,
      "Ġ,": 1822,
      "äº¬": 1823,
      "åĨµ": 1824,
      "éĩĩ": 1825,
      "AR": 1826,
      "ature": 1827,
      "Ġ%": 1828,
      "led": 1829,
      "red": 1830,
      "``": 1831,
      "ting": 1832,
      "Com": 1833,
      "Ġplay": 1834,
      "AD": 1835,
      "ç¥ŀ": 1836,
      "Ġwell": 1837,
      "åĨľ": 1838,
      "(s": 1839,
      "cript": 1840,
      "å¼ķ": 1841,
      "æĲ": 1842,
      "ife": 1843,
      "éĢļè¿ĩ": 1844,
      "ween": 1845,
      "Ġdiffer": 1846,
      "ful": 1847,
      "ĠĠĠĠĠĠĠĠĠĠĠĠĠĠĠĠĠĠĠĠĠĠĠ": 1848,
      "è¨": 1849,
      "Ġfollow": 1850,
      "çİĩ": 1851,
      "ince": 1852,
      "ç§°": 1853,
      "æµİ": 1854,
      "ä»Ģä¹Ī": 1855,
      ",\\": 1856,
      "Ġ|||": 1857,
      "ced": 1858,
      "é¡¹çĽ®": 1859,
      "ower": 1860,
      "å¼ł": 1861,
      "è½½": 1862,
      ".l": 1863,
      "wn": 1864,
      "ead": 1865,
      "ĠPro": 1866,
      "åĢ¼": 1867,
      "Ġused": 1868,
      "ution": 1869,
      "OR": 1870,
      "Ch": 1871,
      "å°±æĺ¯": 1872,
      ",å¹¶": 1873,
      "Ġinst": 1874,
      "ç»Ń": 1875,
      "æĺ¾": 1876,
      "ä½İ": 1877,
      "')": 1878,
      "è´Ń": 1879,
      "âĢľ": 1880,
      "ody": 1881,
      "åĬ©": 1882,
      "Ġgener": 1883,
      "any": 1884,
      "ts": 1885,
      "ask": 1886,
      "æĬ¤": 1887,
      "çª": 1888,
      "ren": 1889,
      "We": 1890,
      "æİ§": 1891,
      "æıĲä¾Ľ": 1892,
      "ç³»ç»Ł": 1893,
      "Ġshow": 1894,
      "åŃĺ": 1895,
      "air": 1896,
      "Ġatt": 1897,
      "åĦ": 1898,
      "_b": 1899,
      "æĿĳ": 1900,
      "']": 1901,
      "Ġmany": 1902,
      "})": 1903,
      ",æĪĳ": 1904,
      "čĊčĊ": 1905,
      "ek": 1906,
      "vent": 1907,
      "Ġshould": 1908,
      "ctions": 1909,
      "Ġsim": 1910,
      "Ġsaid": 1911,
      "></": 1912,
      "lp": 1913,
      "raph": 1914,
      "../": 1915,
      "**Ċ": 1916,
      "AL": 1917,
      "Ġem": 1918,
      "è¶ħ": 1919,
      "å¦Ĥæŀľ": 1920,
      "class": 1921,
      "è¯Ń": 1922,
      "erson": 1923,
      "åıĪ": 1924,
      "-t": 1925,
      "Ġco": 1926,
      "Ġstart": 1927,
      "itle": 1928,
      "rr": 1929,
      "String": 1930,
      "èħ": 1931,
      "ele": 1932,
      "Ġcase": 1933,
      "essage": 1934,
      "éľĢè¦ģ": 1935,
      "å¨": 1936,
      "çĻ¾": 1937,
      "é¾": 1938,
      "åįĩ": 1939,
      "INE": 1940,
      "èİ·": 1941,
      "ule": 1942,
      "æĢģ": 1943,
      "It": 1944,
      "hat": 1945,
      "è¯Ĩ": 1946,
      "Ġknow": 1947,
      "æķĻèĤ²": 1948,
      "try": 1949,
      "param": 1950,
      "item": 1951,
      "yle": 1952,
      "gan": 1953,
      "Ġbetween": 1954,
      "æĴ": 1955,
      "ivate": 1956,
      "ier": 1957,
      "Ġfil": 1958,
      "æ¥": 1959,
      "List": 1960,
      "Ġmake": 1961,
      "_n": 1962,
      "Ġeff": 1963,
      "ivers": 1964,
      "Ġmodel": 1965,
      "-m": 1966,
      "æ´»åĬ¨": 1967,
      "Ġright": 1968,
      "æĸ¯": 1969,
      "åĦ¿": 1970,
      "_l": 1971,
      "çīĮ": 1972,
      "å¢ĥ": 1973,
      "',Ċ": 1974,
      "Ġlet": 1975,
      "åĩł": 1976,
      "IT": 1977,
      "æ£Ģ": 1978,
      "($": 1979,
      "-f": 1980,
      "amb": 1981,
      "mathcal": 1982,
      "æµĭ": 1983,
      "$,": 1984,
      "Ġtrue": 1985,
      "å»ºè®¾": 1986,
      "æİĴ": 1987,
      "åıį": 1988,
      ".j": 1989,
      "æł¹": 1990,
      "da": 1991,
      "Ġser": 1992,
      "ood": 1993,
      "hen": 1994,
      "è®¾è®¡": 1995,
      "è¨Ģ": 1996,
      "ww": 1997,
      "EN": 1998,
      "å§ĭ": 1999,
      "Ġelse": 2000,
      "()Ċ": 2001,
      "view": 2002,
      "uch": 2003,
      "land": 2004,
      "ample": 2005,
      "æĿĲ": 2006,
      "åĪĴ": 2007,
      "Ġsystem": 2008,
      "åĽ½å®¶": 2009,
      "Ġtest": 2010,
      "ever": 2011,
      "åħļ": 2012,
      "Ġz": 2013,
      "ä¿®": 2014,
      "chool": 2015,
      "ĠÐ": 2016,
      "['": 2017,
      "é£Ł": 2018,
      "####": 2019,
      "Ġcor": 2020,
      "equation": 2021,
      "ä»ĸä»¬": 2022,
      "Ġcould": 2023,
      "é¢Ħ": 2024,
      "ä¾¿": 2025,
      "Ġimport": 2026,
      "åį³": 2027,
      "ãĢĤĊ": 2028,
      "yp": 2029,
      "be": 2030,
      "Ġbr": 2031,
      "ĉif": 2032,
      "æļ": 2033,
      "éĻ¤": 2034,
      "Ġent": 2035,
      "åĶ®": 2036,
      "é©¬": 2037,
      "ument": 2038,
      "Ġlong": 2039,
      "ired": 2040,
      "å¡": 2041,
      "fore": 2042,
      "ç»´": 2043,
      "{equation": 2044,
      "Ġevery": 2045,
      "å¹²": 2046,
      "Ġhim": 2047,
      "éŁ³": 2048,
      "ç»ıæµİ": 2049,
      "order": 2050,
      "Ġsm": 2051,
      "Data": 2052,
      "é¡µ": 2053,
      "åºĹ": 2054,
      "éļ¾": 2055,
      "ins": 2056,
      "çħ§": 2057,
      "AN": 2058,
      "çłĶç©¶": 2059,
      "è¶Ĭ": 2060,
      "åħ»": 2061,
      "çİĭ": 2062,
      "hip": 2063,
      "ç±³": 2064,
      "åİ¿": 2065,
      "Ġbecause": 2066,
      ",èĢĮ": 2067,
      "åİĨ": 2068,
      "ines": 2069,
      "Ġdec": 2070,
      "å¾·": 2071,
      "å®īåħ¨": 2072,
      "LINE": 2073,
      "è¿ŀ": 2074,
      "çº¦": 2075,
      "å¿ħ": 2076,
      "Ġeach": 2077,
      "'t": 2078,
      "\\n": 2079,
      "Ġchar": 2080,
      "bb": 2081,
      "_C": 2082,
      "ined": 2083,
      "ä»½": 2084,
      ".f": 2085,
      "ond": 2086,
      "åĪĻ": 2087,
      "ists": 2088,
      "åĽŃ": 2089,
      "MB": 2090,
      "èµ°": 2091,
      "Ġbeing": 2092,
      "formation": 2093,
      ".t": 2094,
      "Ġed": 2095,
      "ç®Ĺ": 2096,
      "atus": 2097,
      "åĪĹ": 2098,
      "å¤ª": 2099,
      "TIME": 2100,
      "cept": 2101,
      "pp": 2102,
      "ä¸Ķ": 2103,
      "åŃ¦çĶŁ": 2104,
      "æŀģ": 2105,
      "å£«": 2106,
      "uc": 2107,
      "ten": 2108,
      "æĿ¿": 2109,
      "å£°": 2110,
      "sub": 2111,
      "ä¸ĵä¸ļ": 2112,
      "èĭ±": 2113,
      "Ġpoint": 2114,
      "\\Ċ": 2115,
      "ç¦»": 2116,
      "æĢĿ": 2117,
      "åĥ": 2118,
      "pha": 2119,
      "ĠâĢĵ": 2120,
      "èĮĥ": 2121,
      "åĨĽ": 2122,
      "å½ķ": 2123,
      "ception": 2124,
      "ccess": 2125,
      "ä½ı": 2126,
      "ision": 2127,
      "ä¼Ĺ": 2128,
      ",ä¸Ģ": 2129,
      "åĭ": 2130,
      "SE": 2131,
      "Ġhref": 2132,
      "ç¼ĸ": 2133,
      "Ġagain": 2134,
      "Ġnow": 2135,
      ",\"": 2136,
      "_id": 2137,
      "ason": 2138,
      "æľĽ": 2139,
      "ç¬¬ä¸Ģ": 2140,
      "ĠĠĠĠĠĠĠĠĠĠĠĠĠ": 2141,
      "Tr": 2142,
      "çĮ": 2143,
      "æŀĹ": 2144,
      "çĶŁäº§": 2145,
      "éĢĤ": 2146,
      "Ġgiv": 2147,
      "rol": 2148,
      "åįı": 2149,
      "Ġmin": 2150,
      "åİĭ": 2151,
      "ĠNew": 2152,
      "Ġwant": 2153,
      "az": 2154,
      "}(": 2155,
      "çĽ¸åħ³": 2156,
      "ann": 2157,
      "åĨħå®¹": 2158,
      "ç»Ĩ": 2159,
      "æĥħåĨµ": 2160,
      "\")": 2161,
      "ĠAr": 2162,
      "Ġ)": 2163,
      "èı": 2164,
      "Ġsee": 2165,
      "Ġnull": 2166,
      "ĠSe": 2167,
      "å·²ç»ı": 2168,
      "DE": 2169,
      "å°Ķ": 2170,
      "ä¸Ńå¿ĥ": 2171,
      "è¶³": 2172,
      "éĺ³": 2173,
      "æ»¡": 2174,
      "è¦ģæ±Ĥ": 2175,
      "ser": 2176,
      "ĉreturn": 2177,
      "èĩ´": 2178,
      "å±ŀ": 2179,
      "èĳ": 2180,
      "gram": 2181,
      "Ġsign": 2182,
      "åĬ¿": 2183,
      "string": 2184,
      "af": 2185,
      "\".": 2186,
      "Ġsame": 2187,
      "ç´ł": 2188,
      "Ġcoun": 2189,
      "To": 2190,
      "Ġexper": 2191,
      "Ġread": 2192,
      "Ġstate": 2193,
      "Ġvery": 2194,
      "rem": 2195,
      ",-": 2196,
      "code": 2197,
      "çº¢": 2198,
      "æĸŃ": 2199,
      "åħĭ": 2200,
      "Ġfound": 2201,
      ".g": 2202,
      "press": 2203,
      "å®¤": 2204,
      "other": 2205,
      "play": 2206,
      "æ²¹": 2207,
      "data": 2208,
      "Ġfam": 2209,
      "Ð¾": 2210,
      "ç¤¾ä¼ļ": 2211,
      "ets": 2212,
      "-id": 2213,
      "Ġhigh": 2214,
      "ĠQ": 2215,
      "å®Ŀ": 2216,
      ",ä¹Ł": 2217,
      "As": 2218,
      "Ġway": 2219,
      "ĠAs": 2220,
      "æħ": 2221,
      "ä¸»è¦ģ": 2222,
      "æĮī": 2223,
      "ç®Ģ": 2224,
      "aking": 2225,
      "FF": 2226,
      "ONLINE": 2227,
      "}^": 2228,
      "Ġeven": 2229,
      "æ¸©": 2230,
      "}_": 2231,
      "æľīéĻĲ": 2232,
      "oci": 2233,
      "itt": 2234,
      "!Ċ": 2235,
      "~\\": 2236,
      "Ġvari": 2237,
      "Ã©": 2238,
      "åĵį": 2239,
      "Ob": 2240,
      "Ġext": 2241,
      "ole": 2242,
      "Ġlist": 2243,
      "åĢĻ": 2244,
      "Ġhelp": 2245,
      "æĻ¯": 2246,
      "ential": 2247,
      "çĶŁæ´»": 2248,
      "ern": 2249,
      "Ġsol": 2250,
      "](": 2251,
      "éĿĴ": 2252,
      "velop": 2253,
      "alth": 2254,
      "ĠAl": 2255,
      "éĻ©": 2256,
      "éļı": 2257,
      "iness": 2258,
      "Ġwhile": 2259,
      "è±¡": 2260,
      "ey": 2261,
      "ä»ĭ": 2262,
      "ĠTr": 2263,
      "var": 2264,
      "ces": 2265,
      "Ar": 2266,
      "çĸĹ": 2267,
      "æĺŁ": 2268,
      "ization": 2269,
      "requ": 2270,
      "Ġstring": 2271,
      "ength": 2272,
      "ä¹ī": 2273,
      "date": 2274,
      "è´Ł": 2275,
      "çĽĳ": 2276,
      "CT": 2277,
      "Ġsur": 2278,
      "width": 2279,
      "è½¯": 2280,
      "Ġdevelop": 2281,
      "Ġbel": 2282,
      "Ġvoid": 2283,
      "org": 2284,
      "èį¯": 2285,
      "Ġdid": 2286,
      "Ðµ": 2287,
      "è¿Ļä¸ª": 2288,
      "...": 2289,
      "Ġbefore": 2290,
      "Ġapp": 2291,
      "iver": 2292,
      "oad": 2293,
      ".b": 2294,
      "åħį": 2295,
      "Ġmod": 2296,
      "åĩ»": 2297,
      "ify": 2298,
      "alpha": 2299,
      "html": 2300,
      "Col": 2301,
      "perty": 2302,
      "roll": 2303,
      "Ġresp": 2304,
      "value": 2305,
      "Ġdoes": 2306,
      "here": 2307,
      "æĭĽ": 2308,
      "unc": 2309,
      "https": 2310,
      "å±Ĥ": 2311,
      "ik": 2312,
      "Ð°": 2313,
      "èŀ": 2314,
      "meric": 2315,
      "æ®µ": 2316,
      "äººåĳĺ": 2317,
      "æĵ": 2318,
      ",ä»¥": 2319,
      "Ġrep": 2320,
      "ote": 2321,
      "è®¸": 2322,
      "åĿĩ": 2323,
      "åĥı": 2324,
      "ç»ĩ": 2325,
      "Ġdifferent": 2326,
      "åĲĮæĹ¶": 2327,
      "ç¢": 2328,
      "ute": 2329,
      "Ġthose": 2330,
      "ï¼ī": 2331,
      "way": 2332,
      "ä¹°": 2333,
      "ah": 2334,
      "ï¼Ĥ": 2335,
      "Ġfind": 2336,
      "ï¼Ī": 2337,
      "(Ċ": 2338,
      "æĬķèµĦ": 2339,
      "Ġmade": 2340,
      "æĪı": 2341,
      "Ġequ": 2342,
      "çŁ³": 2343,
      "PH": 2344,
      "ĠFor": 2345,
      "Ġrun": 2346,
      "ral": 2347,
      "ouse": 2348,
      "åı¯èĥ½": 2349,
      "åŁŁ": 2350,
      "Ġboth": 2351,
      ",æľī": 2352,
      "ric": 2353,
      "è§ī": 2354,
      "Ġmon": 2355,
      "Ġest": 2356,
      "æī¿": 2357,
      ")\\": 2358,
      "url": 2359,
      "èīº": 2360,
      "Ġoper": 2361,
      "use": 2362,
      "ience": 2363,
      "ĠIf": 2364,
      "-c": 2365,
      "åŁ¹": 2366,
      "Ġlead": 2367,
      "åıĮ": 2368,
      "å·¥ç¨ĭ": 2369,
      "=\\": 2370,
      "Ġchild": 2371,
      "for": 2372,
      "åģ¥": 2373,
      "arn": 2374,
      "ĠĠĊ": 2375,
      "çķĻ": 2376,
      "ots": 2377,
      ":\"": 2378,
      "çļĦä¸Ģ": 2379,
      "arget": 2380,
      "æĭī": 2381,
      "Ġfl": 2382,
      "gy": 2383,
      "uss": 2384,
      "Ġworld": 2385,
      "Ġmed": 2386,
      "æ¼Ķ": 2387,
      "ache": 2388,
      "ically": 2389,
      "ually": 2390,
      "IP": 2391,
      "////": 2392,
      "çĬ¶": 2393,
      "ä»ħ": 2394,
      "Ġline": 2395,
      "lass": 2396,
      "Ġfinal": 2397,
      "è¯»": 2398,
      "åĽłä¸º": 2399,
      "Ġappro": 2400,
      "ather": 2401,
      "æĸ¹å¼ı": 2402,
      "æł¸": 2403,
      "apt": 2404,
      "Ġsrc": 2405,
      "èĲ½": 2406,
      "opt": 2407,
      "uff": 2408,
      "elta": 2409,
      "pi": 2410,
      "çģ«": 2411,
      "-l": 2412,
      "äººæ°ĳ": 2413,
      "è¾¹": 2414,
      "åį¡": 2415,
      "ared": 2416,
      "Ġpartic": 2417,
      "æĭ©": 2418,
      "Ġfr": 2419,
      "è¯¾": 2420,
      "Ġown": 2421,
      "æ¬¢": 2422,
      "ONE": 2423,
      "orn": 2424,
      "co": 2425,
      "arent": 2426,
      "Ġsupport": 2427,
      "ism": 2428,
      "ĠZ": 2429,
      "ession": 2430,
      "lock": 2431,
      "æĸ¹éĿ¢": 2432,
      "nection": 2433,
      ".n": 2434,
      "çİ°åľ¨": 2435,
      "åĪĩ": 2436,
      "ervice": 2437,
      "$.": 2438,
      "Ġusing": 2439,
      "ĠCon": 2440,
      "ym": 2441,
      "ground": 2442,
      "AG": 2443,
      "å¾ĭ": 2444,
      "color": 2445,
      "é¾Ļ": 2446,
      "aj": 2447,
      "åºľ": 2448,
      "ister": 2449,
      "ger": 2450,
      "ains": 2451,
      "Ġgu": 2452,
      "sum": 2453,
      "Ġvar": 2454,
      "ä¾ĭ": 2455,
      "éĢģ": 2456,
      "Ġbus": 2457,
      "ream": 2458,
      "Ġlook": 2459,
      "Ġele": 2460,
      "ĠAnd": 2461,
      "(t": 2462,
      "ä¸ĸçķĮ": 2463,
      "Ġfact": 2464,
      "ained": 2465,
      ",æĺ¯": 2466,
      "äºļ": 2467,
      "è¡Įä¸ļ": 2468,
      "Ġ->": 2469,
      "Ġlife": 2470,
      "UL": 2471,
      "part": 2472,
      "ense": 2473,
      "heck": 2474,
      "ambda": 2475,
      "Ġ]": 2476,
      "_P": 2477,
      "Ġprocess": 2478,
      "Ġfalse": 2479,
      "Ġthree": 2480,
      "çļĦäºº": 2481,
      "oot": 2482,
      "iev": 2483,
      "user": 2484,
      "vert": 2485,
      "åĳ½": 2486,
      "æīĢæľī": 2487,
      "Ġgood": 2488,
      "åŃ©": 2489,
      "))Ċ": 2490,
      "reg": 2491,
      "ĠX": 2492,
      "aining": 2493,
      "umn": 2494,
      "section": 2495,
      "Ġmain": 2496,
      "file": 2497,
      "å¾®": 2498,
      "day": 2499,
      "rror": 2500,
      "çĽĬ": 2501,
      "Ġmuch": 2502,
      "ght": 2503,
      ").Ċ": 2504,
      "Ġlast": 2505,
      "æ²³": 2506,
      "éĢīæĭ©": 2507,
      "_S": 2508,
      "æķ°æį®": 2509,
      "Ġhand": 2510,
      "çŃĸ": 2511,
      "Ġart": 2512,
      "åº·": 2513,
      "ĠAmeric": 2514,
      "è´§": 2515,
      "Ġter": 2516,
      "ä¸¾": 2517,
      "ished": 2518,
      "Ġbuild": 2519,
      "ç¾¤": 2520,
      "åŃ¦ä¹ł": 2521,
      "åĮĹäº¬": 2522,
      "bar": 2523,
      "çľ¼": 2524,
      "æľīéĻĲåħ¬åı¸": 2525,
      "çĶ·": 2526,
      "å¤±": 2527,
      "ified": 2528,
      "Value": 2529,
      "{eq": 2530,
      "MBER": 2531,
      "Ġfield": 2532,
      "è´¢": 2533,
      "ä¾Ŀ": 2534,
      "åħ¶ä»ĸ": 2535,
      "Ġorder": 2536,
      "ott": 2537,
      "par": 2538,
      "Ġdisc": 2539,
      "Ġduring": 2540,
      "back": 2541,
      "ases": 2542,
      "Ġmov": 2543,
      "å¥½çļĦ": 2544,
      "Ġsecond": 2545,
      "Ġreal": 2546,
      "ident": 2547,
      "Ġåıĳ": 2548,
      "åĽ´": 2549,
      "Ġmat": 2550,
      "é»Ħ": 2551,
      "éħĴ": 2552,
      "éĵ¶": 2553,
      "Ġperson": 2554,
      "Ġav": 2555,
      "ants": 2556,
      "ĠEx": 2557,
      "æ¥¼": 2558,
      "çłģ": 2559,
      "ology": 2560,
      "chn": 2561,
      "åł": 2562,
      "Ġprivate": 2563,
      ">čĊ": 2564,
      "Ġdon": 2565,
      "Ġ!=": 2566,
      "éĩįè¦ģ": 2567,
      "comm": 2568,
      "ç½ĳç«Ļ": 2569,
      "å¯Ĩ": 2570,
      "come": 2571,
      "Ġmark": 2572,
      "Ġcurrent": 2573,
      "ends": 2574,
      "å¾Ģ": 2575,
      "åĽ½éĻħ": 2576,
      "alk": 2577,
      "çĽ®åīį": 2578,
      "å¤§åŃ¦": 2579,
      "ç¦ı": 2580,
      "è®Ń": 2581,
      "ç»Ī": 2582,
      "http": 2583,
      "_i": 2584,
      "ness": 2585,
      "lob": 2586,
      "åĸľ": 2587,
      "Ġthink": 2588,
      "ç»ľ": 2589,
      "æĸĩåĮĸ": 2590,
      "å®¡": 2591,
      "å¿Ĺ": 2592,
      "åħħ": 2593,
      "Ġcontin": 2594,
      "ives": 2595,
      "cription": 2596,
      "Ġweight": 2597,
      "struct": 2598,
      "UMBER": 2599,
      "bers": 2600,
      "\"/": 2601,
      "å¤Ł": 2602,
      "til": 2603,
      "lex": 2604,
      "Ġcommun": 2605,
      "åįļ": 2606,
      "Ġcare": 2607,
      "Ġdirect": 2608,
      "Ġmem": 2609,
      "uthor": 2610,
      "ä¸įæĺ¯": 2611,
      "ĠString": 2612,
      "ee": 2613,
      "}.": 2614,
      "æĹ¶åĢĻ": 2615,
      "æĹħ": 2616,
      "ploy": 2617,
      "ross": 2618,
      "èŀį": 2619,
      "Ġinformation": 2620,
      "Ġfin": 2621,
      "xy": 2622,
      "èĥ½åĬĽ": 2623,
      ">ĊĊ": 2624,
      "ived": 2625,
      "log": 2626,
      "\"ĊĊ": 2627,
      "ä¸ŃçļĦ": 2628,
      "indow": 2629,
      "ho": 2630,
      ".C": 2631,
      "Ġcr": 2632,
      "èģĶç³»": 2633,
      "Ġtake": 2634,
      "oss": 2635,
      "amma": 2636,
      "ç»Ħç»ĩ": 2637,
      "orth": 2638,
      "version": 2639,
      "å¼Ģå§ĭ": 2640,
      "å±ħ": 2641,
      "Ġmethod": 2642,
      "Ġâ": 2643,
      "includ": 2644,
      "ustom": 2645,
      "-p": 2646,
      "çİ¯å¢ĥ": 2647,
      "ä»·æł¼": 2648,
      "En": 2649,
      "çĶ¨æĪ·": 2650,
      "iversity": 2651,
      "$\\": 2652,
      "å©": 2653,
      "ĠAn": 2654,
      "çıŃ": 2655,
      "åĨĻ": 2656,
      ".åľ¨": 2657,
      "åħŃ": 2658,
      "inter": 2659,
      "äº¿": 2660,
      "Ġdest": 2661,
      "æĪĲä¸º": 2662,
      "med": 2663,
      "head": 2664,
      "align": 2665,
      "RO": 2666,
      "Ġpass": 2667,
      "action": 2668,
      "sc": 2669,
      "ural": 2670,
      "ital": 2671,
      "eb": 2672,
      "ava": 2673,
      "type": 2674,
      "Ġexpect": 2675,
      "lear": 2676,
      "åĪĿ": 2677,
      "MA": 2678,
      "ä¸ªäºº": 2679,
      "çĻ»": 2680,
      "Ġteam": 2681,
      "....": 2682,
      "å¯Į": 2683,
      "è½»": 2684,
      "ĠSh": 2685,
      "ency": 2686,
      "Object": 2687,
      "],": 2688,
      "ãĢĳ": 2689,
      "Ð¸": 2690,
      "è¿ľ": 2691,
      "_\\": 2692,
      "æĻ®": 2693,
      "This": 2694,
      "äºī": 2695,
      "æĻº": 2696,
      "ãĢĲ": 2697,
      "rite": 2698,
      "å¤§çļĦ": 2699,
      ".h": 2700,
      "ä¸¥": 2701,
      "Ġdown": 2702,
      "Ġincre": 2703,
      "åħ´": 2704,
      "å½±åĵį": 2705,
      "ale": 2706,
      "ĠYou": 2707,
      "self": 2708,
      "å¤§å®¶": 2709,
      "åį°": 2710,
      "load": 2711,
      "_NUMBER": 2712,
      "è®¾å¤ĩ": 2713,
      "Ġcour": 2714,
      "Ġperform": 2715,
      "Ġnon": 2716,
      ".A": 2717,
      "Ġsom": 2718,
      "æĶ¿åºľ": 2719,
      "åºķ": 2720,
      "ãĢĢ": 2721,
      "itions": 2722,
      "Ġconsider": 2723,
      "Ġear": 2724,
      "é¢ĳ": 2725,
      "å¥ĸ": 2726,
      "æĿİ": 2727,
      "PHONE": 2728,
      "mu": 2729,
      "itial": 2730,
      "æ¸¸æĪı": 2731,
      "que": 2732,
      "åİĤ": 2733,
      "Im": 2734,
      ".\"Ċ": 2735,
      "ç¥¨": 2736,
      "åľŁ": 2737,
      "éĻį": 2738,
      "Ġtop": 2739,
      "éĥ¨åĪĨ": 2740,
      ",ä¸º": 2741,
      "äºĳ": 2742,
      "æī¾": 2743,
      "Ġprovid": 2744,
      "ector": 2745,
      "Ġ?": 2746,
      "{fig": 2747,
      "Ġparam": 2748,
      ".,": 2749,
      "ç½ĳç»ľ": 2750,
      "å¾Īå¤ļ": 2751,
      "ĠInd": 2752,
      "php": 2753,
      "oh": 2754,
      "Ġtext": 2755,
      "face": 2756,
      "Ġprogram": 2757,
      "ission": 2758,
      "Ġbo": 2759,
      "fl": 2760,
      "Ġins": 2761,
      "array": 2762,
      "pre": 2763,
      "é¦Ļ": 2764,
      "Ġopt": 2765,
      "ÑĤ": 2766,
      ",å¯¹": 2767,
      "igma": 2768,
      "etail": 2769,
      "Ġschool": 2770,
      "ä½ľä¸º": 2771,
      "Ġopen": 2772,
      "æĹ©": 2773,
      "Ġday": 2774,
      "éĹ»": 2775,
      "bs": 2776,
      "åĩı": 2777,
      "ters": 2778,
      "}čĊ": 2779,
      "mathbb": 2780,
      "Error": 2781,
      "è§Ĵ": 2782,
      "_T": 2783,
      "æĺ¯ä¸Ģ": 2784,
      "new": 2785,
      "å½©": 2786,
      "Ġcar": 2787,
      "\";Ċ": 2788,
      "ĠĠĠĠĠĠĠĠĠĠĠĠĠĠĠĠĠĠĠĠĠĠĠĠĠĠĠ": 2789,
      "ç§ĳæĬĢ": 2790,
      "æķħ": 2791,
      "etwork": 2792,
      "ait": 2793,
      "Ġwrit": 2794,
      "rop": 2795,
      "IC": 2796,
      "Ġeffect": 2797,
      "åįķä½į": 2798,
      "æīĢä»¥": 2799,
      "ler": 2800,
      "ĠCol": 2801,
      "Ġlocal": 2802,
      "Ġbusiness": 2803,
      "),Ċ": 2804,
      "æī§": 2805,
      "For": 2806,
      "Ġ},Ċ": 2807,
      "Ġvis": 2808,
      "ponse": 2809,
      "è¡Ģ": 2810,
      "Ġarg": 2811,
      "åı²": 2812,
      "è¾ĵ": 2813,
      "duct": 2814,
      "View": 2815,
      "åĪ°äºĨ": 2816,
      "Ġgiven": 2817,
      "By": 2818,
      "äºĴ": 2819,
      "è®²": 2820,
      "by": 2821,
      "(f": 2822,
      "ateg": 2823,
      "âĢĶâĢĶ": 2824,
      "âĢĵ": 2825,
      "è¿ĺæĺ¯": 2826,
      "çĽĺ": 2827,
      "urs": 2828,
      "reak": 2829,
      "éķĩ": 2830,
      "ega": 2831,
      "æī¹": 2832,
      "Ġkey": 2833,
      "Ġhere": 2834,
      "word": 2835,
      "}^{": 2836,
      "Ġincluding": 2837,
      "Requ": 2838,
      "On": 2839,
      "åŃ¦æł¡": 2840,
      "Ġallow": 2841,
      "}_{": 2842,
      "Ġsince": 2843,
      "åĲĥ": 2844,
      "Un": 2845,
      "Ġgover": 2846,
      "Ġsmall": 2847,
      "att": 2848,
      "åį«": 2849,
      "Ġpop": 2850,
      "\"çļĦ": 2851,
      "éĿŀå¸¸": 2852,
      "åįĬ": 2853,
      "Ġposs": 2854,
      "Ġstatic": 2855,
      "çĶ»": 2856,
      "ç¯": 2857,
      "Ġmust": 2858,
      "cd": 2859,
      "irc": 2860,
      "Ġobject": 2861,
      "CC": 2862,
      "____": 2863,
      "Ġrele": 2864,
      "äº²": 2865,
      "åŃ£": 2866,
      "è´¨éĩı": 2867,
      "por": 2868,
      "Ġstill": 2869,
      "åĬŁèĥ½": 2870,
      "lay": 2871,
      "Ġplace": 2872,
      "åĲ¬": 2873,
      "æĢİ": 2874,
      "idd": 2875,
      "tract": 2876,
      "æĭħ": 2877,
      "ĠBut": 2878,
      "ä»¥ä¸Ĭ": 2879,
      "Ġ&&": 2880,
      "ron": 2881,
      "Ġbest": 2882,
      "ences": 2883,
      "åĵģçīĮ": 2884,
      "å¿µ": 2885,
      "Ġsing": 2886,
      "At": 2887,
      "ç¿": 2888,
      "æį¢": 2889,
      "è½¯ä»¶": 2890,
      "åį´": 2891,
      "empl": 2892,
      "eps": 2893,
      "ä¸įåĲĮ": 2894,
      "èĩªå·±çļĦ": 2895,
      "Ġbook": 2896,
      "Ġfile": 2897,
      "æĺ¥": 2898,
      "Ġaut": 2899,
      "Ġhead": 2900,
      "äººçļĦ": 2901,
      "ven": 2902,
      "\"/>Ċ": 2903,
      "Ġgroup": 2904,
      "æĶ¯æĮģ": 2905,
      "Ġcent": 2906,
      "-\\": 2907,
      "çĨ": 2908,
      "çĭ¬": 2909,
      "ush": 2910,
      "me": 2911,
      "Ġaround": 2912,
      "search": 2913,
      "æ±½": 2914,
      "è¯¢": 2915,
      "Ġke": 2916,
      "åĨĮ": 2917,
      "ĠĠĠĠĠĠĠĠĠĠĠĠ": 2918,
      "index": 2919,
      "Ġproject": 2920,
      "ality": 2921,
      "):Ċ": 2922,
      "util": 2923,
      "éĴ±": 2924,
      "èī¯": 2925,
      "ected": 2926,
      "nment": 2927,
      "Ġ:=": 2928,
      "PE": 2929,
      "ulation": 2930,
      "akes": 2931,
      "Ġsize": 2932,
      "const": 2933,
      "åı¤": 2934,
      "æŀĲ": 2935,
      "æł¹æį®": 2936,
      "å¸®": 2937,
      "ager": 2938,
      "é¢Ŀ": 2939,
      "ability": 2940,
      "\");Ċ": 2941,
      "Ġhome": 2942,
      ",æĪĳä»¬": 2943,
      "æŃ¢": 2944,
      "cent": 2945,
      "é¸": 2946,
      "arge": 2947,
      "Ġfollowing": 2948,
      "ĠShe": 2949,
      "els": 2950,
      "åī¯": 2951,
      "Set": 2952,
      "ĠThey": 2953,
      "ĠHow": 2954,
      "æ¿": 2955,
      "Ġevent": 2956,
      "ç¾İåĽ½": 2957,
      "çļ®": 2958,
      "Ġreport": 2959,
      "ape": 2960,
      "().": 2961,
      "):": 2962,
      "ety": 2963,
      "ively": 2964,
      "Ġleft": 2965,
      "çİ©": 2966,
      "äºĨä¸Ģ": 2967,
      "åĤ": 2968,
      "é²": 2969,
      "='": 2970,
      "/s": 2971,
      "ç¬¬äºĮ": 2972,
      ".html": 2973,
      "input": 2974,
      "çļĦæĺ¯": 2975,
      "ä»¥åıĬ": 2976,
      "Ġpost": 2977,
      "ç´¢": 2978,
      "äº§ä¸ļ": 2979,
      ");": 2980,
      "/*": 2981,
      "æ½": 2982,
      "IL": 2983,
      "Ġlaw": 2984,
      "æ¹ĸ": 2985,
      "].": 2986,
      "ocument": 2987,
      "Ġpar": 2988,
      "åĿļ": 2989,
      "Ġstruct": 2990,
      "Ġrece": 2991,
      "åĸĦ": 2992,
      "è´£ä»»": 2993,
      "è¯ī": 2994,
      "ĠIs": 2995,
      "å¼Ģåıĳ": 2996,
      "åħ·æľī": 2997,
      "ä¸Ĭæµ·": 2998,
      "angu": 2999,
      "ane": 3000,
      "Ġ/**Ċ": 3001,
      "çĶ³": 3002,
      "loat": 3003,
      "utton": 3004,
      "Ġproble": 3005,
      "è¿°": 3006,
      "ET": 3007,
      ",åħ¶": 3008,
      "Ð½": 3009,
      "æıĲé«ĺ": 3010,
      "é»ĳ": 3011,
      "çŁŃ": 3012,
      "æĸ¹æ³ķ": 3013,
      "Ġmet": 3014,
      "åŃ©åŃĲ": 3015,
      "IS": 3016,
      "åŁİå¸Ĥ": 3017,
      "äº«": 3018,
      "åºı": 3019,
      "è¡¨ç¤º": 3020,
      "urch": 3021,
      ".è¿Ļ": 3022,
      "lection": 3023,
      "åĲ§": 3024,
      "phi": 3025,
      "å°½": 3026,
      "Get": 3027,
      "æłĩåĩĨ": 3028,
      "ĠFr": 3029,
      "arm": 3030,
      "åĲ¦": 3031,
      "abl": 3032,
      "å¥Ĺ": 3033,
      "æ¦": 3034,
      "Ġiss": 3035,
      "Ġfamily": 3036,
      "Ġref": 3037,
      "istr": 3038,
      ",ä»ĸ": 3039,
      "outh": 3040,
      "mp": 3041,
      "aving": 3042,
      "Ġtry": 3043,
      "lambda": 3044,
      "åĲĪä½ľ": 3045,
      "#:": 3046,
      "Ġtri": 3047,
      "åħ¨åĽ½": 3048,
      "Ġrecord": 3049,
      "æĴŃ": 3050,
      "Ġpres": 3051,
      "çł´": 3052,
      "AA": 3053,
      "Ġ{\\": 3054,
      "ersion": 3055,
      "\")Ċ": 3056,
      "\"></": 3057,
      "^{\\": 3058,
      "å®ŀçİ°": 3059,
      "illion": 3060,
      "ior": 3061,
      "èĹ": 3062,
      "less": 3063,
      "å®£": 3064,
      "Ġbu": 3065,
      "_F": 3066,
      "itor": 3067,
      "(x": 3068,
      "Ġdesign": 3069,
      "è°¢": 3070,
      "Ġnext": 3071,
      "é¡»": 3072,
      "opy": 3073,
      "åħ«": 3074,
      "Ġlevel": 3075,
      "ension": 3076,
      ".org": 3077,
      "ä½ľèĢħ": 3078,
      "Ġgreat": 3079,
      "éĥ½æĺ¯": 3080,
      "Ġorgan": 3081,
      "å®ĺ": 3082,
      "å¤ĦçĲĨ": 3083,
      "çŁ¥éģĵ": 3084,
      "Ġcond": 3085,
      "åĩºçİ°": 3086,
      "æĵį": 3087,
      "çķ¥": 3088,
      "éĶĻ": 3089,
      "ways": 3090,
      "å®¢æĪ·": 3091,
      "ä»ĺ": 3092,
      "ĠComm": 3093,
      ".set": 3094,
      "Ġappe": 3095,
      "æ¤": 3096,
      "èĪ¬": 3097,
      "ED": 3098,
      "Ġsay": 3099,
      "å¸Į": 3100,
      "},Ċ": 3101,
      "ina": 3102,
      "Ġagainst": 3103,
      "æ¸¯": 3104,
      "åª": 3105,
      "vir": 3106,
      "Ġinterest": 3107,
      "çĵ": 3108,
      "Ġuser": 3109,
      "Ġhist": 3110,
      "Exception": 3111,
      "ï¼Ľ": 3112,
      "æ¿Ģ": 3113,
      "ADD": 3114,
      "Ġview": 3115,
      "_st": 3116,
      "éĥ¨éĹ¨": 3117,
      "ĠOn": 3118,
      "èŃ": 3119,
      "--------------------------------": 3120,
      "Ġprot": 3121,
      "çºª": 3122,
      "æŁĲ": 3123,
      "sec": 3124,
      "ä½Ļ": 3125,
      "è¡¥": 3126,
      "Ġ__": 3127,
      "ĊĊĊ": 3128,
      "Ġpat": 3129,
      "net": 3130,
      "æŃ¦": 3131,
      "èµĦæºĲ": 3132,
      "vious": 3133,
      "plication": 3134,
      "ç«¯": 3135,
      "ĠRes": 3136,
      "Ġpresent": 3137,
      "Key": 3138,
      "åĳ³": 3139,
      "çªģ": 3140,
      "Ġadv": 3141,
      "Ġ///": 3142,
      "AP": 3143,
      "å¾ħ": 3144,
      "è®°èĢħ": 3145,
      "ved": 3146,
      "å¹³åı°": 3147,
      "ç½Ĺ": 3148,
      "angle": 3149,
      "è®¯": 3150,
      "ĉĉĉĉĉ": 3151,
      "ä¹¡": 3152,
      "Ġsk": 3153,
      "Ġweek": 3154,
      "public": 3155,
      "ĠUniversity": 3156,
      "error": 3157,
      "ä»£è¡¨": 3158,
      "çĶµè¯Ŀ": 3159,
      "ĠÂ·": 3160,
      "aster": 3161,
      "Ġfour": 3162,
      "Ġlog": 3163,
      "äºĨè§£": 3164,
      "');Ċ": 3165,
      "argin": 3166,
      ",å°±": 3167,
      "ately": 3168,
      "éĵģ": 3169,
      "Int": 3170,
      "****************": 3171,
      "Ġerror": 3172,
      "ware": 3173,
      "Ġgoing": 3174,
      "Ġdep": 3175,
      "mathbf": 3176,
      "Ġtechn": 3177,
      "umer": 3178,
      "omen": 3179,
      "æĭ¬": 3180,
      "åįĥ": 3181,
      "é£ŀ": 3182,
      "ird": 3183,
      "stand": 3184,
      "åıĳçİ°": 3185,
      "Ġimportant": 3186,
      "lobal": 3187,
      "Ġstand": 3188,
      "Ġprof": 3189,
      ".M": 3190,
      "éŃ": 3191,
      "ä¸´": 3192,
      "ç»į": 3193,
      "Ġ*Ċ": 3194,
      "åĲ«": 3195,
      "bo": 3196,
      "áĪ": 3197,
      "éĶĢåĶ®": 3198,
      "Ġexpl": 3199,
      "trans": 3200,
      "off": 3201,
      "ÑĢ": 3202,
      ".w": 3203,
      "rist": 3204,
      "ilon": 3205,
      "ackage": 3206,
      "ats": 3207,
      "Ġhealth": 3208,
      "iving": 3209,
      "ä¸įèĥ½": 3210,
      "è¿ĩç¨ĭ": 3211,
      "raw": 3212,
      "File": 3213,
      "æĹı": 3214,
      "Text": 3215,
      "ocial": 3216,
      "lected": 3217,
      "æŃĮ": 3218,
      "max": 3219,
      "-g": 3220,
      "Ġorig": 3221,
      "mm": 3222,
      "ocus": 3223,
      "ised": 3224,
      "Ġì": 3225,
      "An": 3226,
      "ĠRe": 3227,
      "Ind": 3228,
      ".D": 3229,
      "Ġexp": 3230,
      "OT": 3231,
      "msgid": 3232,
      "/d": 3233,
      "msgstr": 3234,
      "Ġcolor": 3235,
      "èĭı": 3236,
      "å·®": 3237,
      "Ġwithout": 3238,
      ",è¿ĺ": 3239,
      "Time": 3240,
      "Sh": 3241,
      "Ġsever": 3242,
      "itive": 3243,
      "Request": 3244,
      "éĴ¢": 3245,
      "ç´§": 3246,
      "æĽ´å¤ļ": 3247,
      "åı¦": 3248,
      ".P": 3249,
      "eters": 3250,
      "åĺ": 3251,
      "åĪĨæŀĲ": 3252,
      "Test": 3253,
      "Ġpath": 3254,
      "åºĶçĶ¨": 3255,
      "ouble": 3256,
      "åº§": 3257,
      "ç»§": 3258,
      "aces": 3259,
      "ithub": 3260,
      "RESS": 3261,
      "ĠSc": 3262,
      "Ġsuccess": 3263,
      "uration": 3264,
      "usic": 3265,
      "Info": 3266,
      "å®³": 3267,
      "++": 3268,
      "._": 3269,
      "å·´": 3270,
      "];Ċ": 3271,
      "Ġpower": 3272,
      "_ADD": 3273,
      "åŁºç¡": 3274,
      "åĵª": 3275,
      "~~": 3276,
      "ury": 3277,
      "acy": 3278,
      "Ġdi": 3279,
      "åŁºç¡Ģ": 3280,
      "aut": 3281,
      "èŃ¦": 3282,
      "inc": 3283,
      "æİĪ": 3284,
      "ification": 3285,
      "Ġcompany": 3286,
      "ä¼¤": 3287,
      "é¼": 3288,
      "ä¸ĥ": 3289,
      "èĥ½å¤Ł": 3290,
      "ertain": 3291,
      "iter": 3292,
      "Ġcalled": 3293,
      "Ġconf": 3294,
      "ç§»": 3295,
      "åŃ¦éĻ¢": 3296,
      "uf": 3297,
      "================": 3298,
      "ailable": 3299,
      "æĸ°éĹ»": 3300,
      "acter": 3301,
      "ched": 3302,
      "ç¨³": 3303,
      "Ġdel": 3304,
      "ä¸ļåĬ¡": 3305,
      "è´Łè´£": 3306,
      "æ¶Īè´¹": 3307,
      "æĻļ": 3308,
      "Ġinvest": 3309,
      "Ġknown": 3310,
      "å¼Ģå±ķ": 3311,
      "å®ĮæĪĲ": 3312,
      "åĲĹ": 3313,
      "config": 3314,
      "TT": 3315,
      "../../": 3316,
      "Ġwithin": 3317,
      "æľĭ": 3318,
      "åĮħæĭ¬": 3319,
      "Item": 3320,
      "æĿ¥çļĦ": 3321,
      "ĠDe": 3322,
      "EC": 3323,
      "Ġ**": 3324,
      "Ġident": 3325,
      "':": 3326,
      "AB": 3327,
      "çŃĳ": 3328,
      "Ġmult": 3329,
      "æľ¨": 3330,
      "åĲ¸": 3331,
      "Ġproduct": 3332,
      "sy": 3333,
      "ä¸ĭè½½": 3334,
      "lement": 3335,
      "table": 3336,
      "æŃ»": 3337,
      "ources": 3338,
      "Ġlim": 3339,
      "Ġfew": 3340,
      "-w": 3341,
      "Re": 3342,
      "_name": 3343,
      "Ġanother": 3344,
      "Ġold": 3345,
      "å¦Ĥä½ķ": 3346,
      "è¿Ļæł·": 3347,
      "\"><": 3348,
      "Ġleg": 3349,
      "/m": 3350,
      "ĠThere": 3351,
      "Config": 3352,
      "å®ģ": 3353,
      "ä¸Ģå®ļ": 3354,
      "èĴ": 3355,
      "MP": 3356,
      "ubl": 3357,
      "Ð¾Ð": 3358,
      "ene": 3359,
      "Ġdem": 3360,
      "æ³¢": 3361,
      "ift": 3362,
      "LO": 3363,
      "ä¸ĢäºĽ": 3364,
      "Ġchang": 3365,
      "serv": 3366,
      "ä¸°": 3367,
      "æľºæŀĦ": 3368,
      "æĤ£": 3369,
      "';Ċ": 3370,
      "Ġcreate": 3371,
      "Ñģ": 3372,
      "anguage": 3373,
      "aps": 3374,
      "èĪª": 3375,
      "åľ°åĮº": 3376,
      "åįł": 3377,
      "ru": 3378,
      "åĮ»éĻ¢": 3379,
      "åıĳçĶŁ": 3380,
      "åħ°": 3381,
      "æ¯Ķè¾ĥ": 3382,
      "ium": 3383,
      "åıĳå¸ĥ": 3384,
      "connection": 3385,
      "uary": 3386,
      "\\in": 3387,
      "å²ģ": 3388,
      "tribute": 3389,
      "åī§": 3390,
      "ocal": 3391,
      "Ġann": 3392,
      "}{\\": 3393,
      "ES": 3394,
      "Ġdist": 3395,
      "éĻĪ": 3396,
      "æİ§åĪ¶": 3397,
      "ä»ĭç»į": 3398,
      "çĶµåŃĲ": 3399,
      "UR": 3400,
      "Ġresults": 3401,
      "Ġexample": 3402,
      "test": 3403,
      "åģ¥åº·": 3404,
      "è·Ł": 3405,
      "ç¨İ": 3406,
      "Ġ{čĊ": 3407,
      "Ġwon": 3408,
      "åĪĽæĸ°": 3409,
      "ormal": 3410,
      "Ġbased": 3411,
      "ently": 3412,
      ",ä½ł": 3413,
      "Ġmonth": 3414,
      "ä¹Ŀ": 3415,
      "Al": 3416,
      "Ġgrow": 3417,
      "åĳ¢": 3418,
      "æĪĳçļĦ": 3419,
      "Ġrequest": 3420,
      "åªĴ": 3421,
      "Ġlater": 3422,
      "ç£": 3423,
      "Ġhapp": 3424,
      "éĽĨåĽ¢": 3425,
      "cale": 3426,
      "uro": 3427,
      "Ġ(\\": 3428,
      "bl": 3429,
      "iod": 3430,
      "Form": 3431,
      "itional": 3432,
      "Ġrepresent": 3433,
      ",ä»İ": 3434,
      "åĿĢ": 3435,
      "ump": 3436,
      "Ġret": 3437,
      "Ġchildren": 3438,
      "ai": 3439,
      "_ADDRESS": 3440,
      "rel": 3441,
      "æīĭæľº": 3442,
      ",è®©": 3443,
      "Ġcontent": 3444,
      "Ġreally": 3445,
      "sigma": 3446,
      "UT": 3447,
      "Version": 3448,
      "éļľ": 3449,
      "æ±½è½¦": 3450,
      "Ġsit": 3451,
      "ĠWh": 3452,
      "Ġanal": 3453,
      "çĶ±äºİ": 3454,
      "));Ċ": 3455,
      "rix": 3456,
      "ä¸ĬçļĦ": 3457,
      "éĺ¿": 3458,
      "åŁºæľ¬": 3459,
      "æĽ¾": 3460,
      "\"\"": 3461,
      "ivity": 3462,
      "èİ·å¾Ĺ": 3463,
      "æ³¨åĨĮ": 3464,
      "æľĭåıĭ": 3465,
      "Ġes": 3466,
      "Param": 3467,
      "Ġbro": 3468,
      "æ±ī": 3469,
      "Ġthings": 3470,
      "_r": 3471,
      "ĠUnited": 3472,
      "content": 3473,
      "æĢİä¹Ī": 3474,
      "ules": 3475,
      "Ġ/*": 3476,
      "Ġservice": 3477,
      "ances": 3478,
      "State": 3479,
      "Or": 3480,
      "ended": 3481,
      "icy": 3482,
      "```": 3483,
      "Ġchange": 3484,
      "çº³": 3485,
      "Ġtyp": 3486,
      "Ġsl": 3487,
      "ves": 3488,
      "Ġnil": 3489,
      "viron": 3490,
      "With": 3491,
      "å¥ĩ": 3492,
      "Path": 3493,
      "ties": 3494,
      "_in": 3495,
      ",è¯·": 3496,
      "Ġcheck": 3497,
      "aim": 3498,
      "pace": 3499,
      "å¯¹äºİ": 3500,
      "åģĩ": 3501,
      "ĠCl": 3502,
      "ending": 3503,
      "ainer": 3504,
      "çŃ¾": 3505,
      "Ġdev": 3506,
      "è®¤ä¸º": 3507,
      "åĿĹ": 3508,
      "å¯Ł": 3509,
      "æĪĸèĢħ": 3510,
      "èĦĳ": 3511,
      "icro": 3512,
      "éĶ®": 3513,
      "_D": 3514,
      "conom": 3515,
      "NT": 3516,
      "æĿĲæĸĻ": 3517,
      "Ġhum": 3518,
      ".st": 3519,
      "df": 3520,
      "aff": 3521,
      "å¼Ĥ": 3522,
      "åŁ¹è®Ń": 3523,
      "Ġstyle": 3524,
      "Ġocc": 3525,
      "ĠĠĠĠĠĠĠĠĠĠ": 3526,
      "AS": 3527,
      "print": 3528,
      ",éĤ£": 3529,
      "ording": 3530,
      "[]": 3531,
      "ç»¼": 3532,
      "åħ³äºİ": 3533,
      "ä»»ä½ķ": 3534,
      "met": 3535,
      "pty": 3536,
      "åºĵ": 3537,
      "www": 3538,
      "Ġarea": 3539,
      "Ġbeh": 3540,
      "ajor": 3541,
      "èĹı": 3542,
      "where": 3543,
      "Ġpay": 3544,
      "Ġlarge": 3545,
      "ilde": 3546,
      "+\\": 3547,
      "Ġgovernment": 3548,
      "åĽ½åĨħ": 3549,
      "pm": 3550,
      "Se": 3551,
      "(self": 3552,
      "ULL": 3553,
      "ç»ıèĲ¥": 3554,
      "Ġwidth": 3555,
      "Ġspe": 3556,
      "ç«ŀ": 3557,
      "ç»ĥ": 3558,
      "ples": 3559,
      "åģľ": 3560,
      "ination": 3561,
      "ç»Ŀ": 3562,
      "ken": 3563,
      "ç§ĳåŃ¦": 3564,
      "Ġquest": 3565,
      "Ġaff": 3566,
      "è¿İ": 3567,
      "icle": 3568,
      "time": 3569,
      "æĦ¿": 3570,
      "ĠAll": 3571,
      "(p": 3572,
      "Ġmax": 3573,
      "urity": 3574,
      "æ¯į": 3575,
      "ĠĠĠĠĊ": 3576,
      "ought": 3577,
      "ention": 3578,
      "dis": 3579,
      "^{-": 3580,
      "éĿ©": 3581,
      "ĠAmerican": 3582,
      "uck": 3583,
      "iles": 3584,
      "æĺ¾ç¤º": 3585,
      "Ġcap": 3586,
      "è§£åĨ³": 3587,
      "He": 3588,
      "Ġput": 3589,
      "æľīåħ³": 3590,
      "ç»¿": 3591,
      "éº": 3592,
      "ething": 3593,
      "(m": 3594,
      "Ġbackground": 3595,
      "ibr": 3596,
      "enu": 3597,
      "æ²»çĸĹ": 3598,
      "US": 3599,
      "èĵ": 3600,
      "è§Ħå®ļ": 3601,
      "ĠPr": 3602,
      "è®¿": 3603,
      "ä¸ĩåħĥ": 3604,
      ">\\": 3605,
      "EX": 3606,
      "space": 3607,
      "Ġplan": 3608,
      "è®¡åĪĴ": 3609,
      "result": 3610,
      "tn": 3611,
      "Ġinput": 3612,
      "uffer": 3613,
      "¤Ĳ": 3614,
      "Ġuntil": 3615,
      "æ¬§": 3616,
      ",åı¯": 3617,
      "æĭ¥": 3618,
      "ä¹Łæĺ¯": 3619,
      "mathrm": 3620,
      "çĽ´æİ¥": 3621,
      "ç§Ģ": 3622,
      "Ġposition": 3623,
      "_h": 3624,
      "ohn": 3625,
      "\",\"": 3626,
      "Ġide": 3627,
      "Ġintern": 3628,
      "epend": 3629,
      "çŃĶ": 3630,
      "Ġeas": 3631,
      "ories": 3632,
      "ilar": 3633,
      "api": 3634,
      "èĻ½": 3635,
      "ĠAt": 3636,
      "å³": 3637,
      "åºĨ": 3638,
      "çļĦæĹ¶åĢĻ": 3639,
      "ä»Ĭå¹´": 3640,
      "åįĸ": 3641,
      "_B": 3642,
      "{align": 3643,
      "gg": 3644,
      "é¦Ĩ": 3645,
      "Ġalways": 3646,
      "Ġtot": 3647,
      "stance": 3648,
      "å¸ĮæľĽ": 3649,
      "ync": 3650,
      "olution": 3651,
      "è¿ĻäºĽ": 3652,
      "mail": 3653,
      ");čĊ": 3654,
      "éĩĩçĶ¨": 3655,
      "Ġgame": 3656,
      "void": 3657,
      "ĠPh": 3658,
      "Ġ\\\\Ċ": 3659,
      "Ã¡": 3660,
      "åĪļ": 3661,
      "Qu": 3662,
      "ume": 3663,
      "ttp": 3664,
      "Ġword": 3665,
      "ä¼ļè®®": 3666,
      "Ġtoo": 3667,
      "mbol": 3668,
      "ä½ľçĶ¨": 3669,
      "ä¸ĢæŃ¥": 3670,
      "ĠEng": 3671,
      "äº¤æĺĵ": 3672,
      "')Ċ": 3673,
      "Ġcho": 3674,
      "If": 3675,
      "nb": 3676,
      "gamma": 3677,
      "å·¦": 3678,
      "gin": 3679,
      "une": 3680,
      "å»ºçŃĳ": 3681,
      "Ġless": 3682,
      "Ġbas": 3683,
      ",âĢĿ": 3684,
      "éĨ": 3685,
      "æ³ķå¾ĭ": 3686,
      "ï¼İ": 3687,
      "ĠAd": 3688,
      "ĠOr": 3689,
      "åı³": 3690,
      "-in": 3691,
      "\\\\": 3692,
      "ä»¤": 3693,
      "idual": 3694,
      "Ġtitle": 3695,
      "Ġsum": 3696,
      "(d": 3697,
      "Ġmeas": 3698,
      "éľĢæ±Ĥ": 3699,
      "box": 3700,
      "-st": 3701,
      "Ġfull": 3702,
      "ç²¾ç¥ŀ": 3703,
      "ĠHowever": 3704,
      "çģµ": 3705,
      "ittle": 3706,
      "Ġdefault": 3707,
      ",åıª": 3708,
      "åıĤåĬł": 3709,
      "Ġinclude": 3710,
      "Ġseveral": 3711,
      "è¿Ľåħ¥": 3712,
      "arrow": 3713,
      "æľĢåĲİ": 3714,
      "hold": 3715,
      "beta": 3716,
      "æīĺ": 3717,
      "éĺħ": 3718,
      "ottom": 3719,
      "çŁ¥è¯Ĩ": 3720,
      "ĠGod": 3721,
      "Ġmight": 3722,
      "hes": 3723,
      "èĨ": 3724,
      "Ġorg": 3725,
      "Ġable": 3726,
      "ially": 3727,
      "ĠSystem": 3728,
      "IG": 3729,
      "-n": 3730,
      "position": 3731,
      "éģĩ": 3732,
      "éĵ¶è¡Į": 3733,
      "wit": 3734,
      "Ġrefer": 3735,
      "æĵįä½ľ": 3736,
      "mit": 3737,
      "^\\": 3738,
      "urther": 3739,
      "ley": 3740,
      "åĲĦç§į": 3741,
      "é¤Ĳ": 3742,
      "çĸ«": 3743,
      "adi": 3744,
      "Field": 3745,
      "æĿ¾": 3746,
      "_type": 3747,
      "enn": 3748,
      "æĹħæ¸¸": 3749,
      "åĪĺ": 3750,
      "Ġcome": 3751,
      "Ġaccess": 3752,
      "arr": 3753,
      "å±Ĭ": 3754,
      "æ¯ķ": 3755,
      "Ġbetter": 3756,
      "æįŁ": 3757,
      "Ġseason": 3758,
      "æ³¨æĦı": 3759,
      "ä¿ĥ": 3760,
      "ored": 3761,
      "/c": 3762,
      "åĪ»": 3763,
      "Ġassert": 3764,
      "å¾ģ": 3765,
      "rec": 3766,
      "ĠSo": 3767,
      "ä¸½": 3768,
      "ĠUS": 3769,
      "èıľ": 3770,
      "åºŃ": 3771,
      "ches": 3772,
      "adding": 3773,
      "ĠčĊ": 3774,
      "éĴŁ": 3775,
      "èĽ": 3776,
      "ogle": 3777,
      "Ġalong": 3778,
      "((": 3779,
      "åĽłæŃ¤": 3780,
      "Ġconfig": 3781,
      "åħ¸": 3782,
      "Ġnear": 3783,
      "Ġcost": 3784,
      "thing": 3785,
      "Ġvalues": 3786,
      "Ġnever": 3787,
      "âĸ": 3788,
      "Class": 3789,
      "Ġavailable": 3790,
      "æķĻåŃ¦": 3791,
      "å¿ħé¡»": 3792,
      "ope": 3793,
      "Ġmarket": 3794,
      "æĿ¥æºĲ": 3795,
      "agement": 3796,
      "Ġeng": 3797,
      "ival": 3798,
      "<connection": 3799,
      "Ġrest": 3800,
      "å¸ģ": 3801,
      "ready": 3802,
      "Ġtarget": 3803,
      "wh": 3804,
      "è½®": 3805,
      "Ġ||": 3806,
      "emplate": 3807,
      "Context": 3808,
      "ret": 3809,
      "Ġener": 3810,
      "_M": 3811,
      "bed": 3812,
      "ux": 3813,
      "æ¯Ĵ": 3814,
      "åįĪ": 3815,
      "de": 3816,
      "-h": 3817,
      "ĠĊĊ": 3818,
      "å¨ģ": 3819,
      "aint": 3820,
      "è®¢": 3821,
      "Ġtem": 3822,
      "Ġborder": 3823,
      "Ġet": 3824,
      "iction": 3825,
      "ators": 3826,
      "script": 3827,
      "########": 3828,
      "Ġsomething": 3829,
      "icon": 3830,
      "ling": 3831,
      "è¡Ĺ": 3832,
      "ç»©": 3833,
      "Ġspace": 3834,
      "oper": 3835,
      "éĵ¾": 3836,
      ".R": 3837,
      "æłĳ": 3838,
      "çĩ": 3839,
      "(n": 3840,
      "{{": 3841,
      "ĠMay": 3842,
      "åĨ·": 3843,
      "åİħ": 3844,
      "vironment": 3845,
      "mary": 3846,
      "è°Ī": 3847,
      "Ġfeel": 3848,
      "Ġturn": 3849,
      "ags": 3850,
      "Ġrequire": 3851,
      "stru": 3852,
      "\\label": 3853,
      "Ġcountry": 3854,
      "é¢Ĩå¯¼": 3855,
      "ender": 3856,
      "ands": 3857,
      "æĶ¿çŃĸ": 3858,
      "ĉĊ": 3859,
      "ĠĠĠĠĠĠĠĠĠĠĠĠĠĠĠĠĠĠĠĠĠĠĠĠĠĠĠĠĠĠĠ": 3860,
      "ç®±": 3861,
      "âĢĻre": 3862,
      "atures": 3863,
      "Ġmean": 3864,
      "Ġparticular": 3865,
      "pose": 3866,
      "äº®": 3867,
      "cm": 3868,
      "Ġemploy": 3869,
      "_j": 3870,
      "]{": 3871,
      "ä¹ĭåĲİ": 3872,
      "æıĲåįĩ": 3873,
      "å¢ŀåĬł": 3874,
      "ç¬ĳ": 3875,
      "ables": 3876,
      "User": 3877,
      "semb": 3878,
      "è§Ī": 3879,
      "ured": 3880,
      "Ġdue": 3881,
      "éĻĦ": 3882,
      "odule": 3883,
      "æĽ²": 3884,
      "å¢ŀéķ¿": 3885,
      "ç¬¬ä¸ī": 3886,
      "Ġstat": 3887,
      "Ġoffic": 3888,
      "Ġsingle": 3889,
      "çĳ": 3890,
      "uture": 3891,
      "delta": 3892,
      "æĸĩç«ł": 3893,
      "ç³»åĪĹ": 3894,
      "Ġrange": 3895,
      "Ġfore": 3896,
      "ĠChrist": 3897,
      "cho": 3898,
      "ems": 3899,
      "ique": 3900,
      "define": 3901,
      "ĠLe": 3902,
      "[i": 3903,
      "åħ³ç³»": 3904,
      "efault": 3905,
      "roller": 3906,
      "_v": 3907,
      "ä¸įä¼ļ": 3908,
      ".(": 3909,
      "CO": 3910,
      "ä½łçļĦ": 3911,
      "plement": 3912,
      "oin": 3913,
      "ç¯ĩ": 3914,
      "Ġmajor": 3915,
      "Man": 3916,
      "ä¿ĿæĬ¤": 3917,
      "åĵĪ": 3918,
      "%,": 3919,
      "Ġprom": 3920,
      "è´µ": 3921,
      "theta": 3922,
      "create": 3923,
      "è¿½": 3924,
      "...Ċ": 3925,
      "åĬ³": 3926,
      "Ġcal": 3927,
      "åĪ¤": 3928,
      "Ph": 3929,
      "odes": 3930,
      "éĴĪ": 3931,
      "Model": 3932,
      "Ġfilm": 3933,
      "Ġdescri": 3934,
      "ç»ıéªĮ": 3935,
      "rho": 3936,
      "Ġbreak": 3937,
      "Ġåıĳè¡¨": 3938,
      "ards": 3939,
      "ĠâĢĶ": 3940,
      "Ġfail": 3941,
      ")}": 3942,
      "ç»¼åĲĪ": 3943,
      "Service": 3944,
      "Ġcity": 3945,
      "é¡º": 3946,
      "ued": 3947,
      "Of": 3948,
      "Ġask": 3949,
      "ients": 3950,
      "Ġfac": 3951,
      "Map": 3952,
      "olean": 3953,
      "æ²Ļ": 3954,
      "ç»ĵæŀĦ": 3955,
      "Ġtimes": 3956,
      "æĪĲåĬŁ": 3957,
      "Ġexist": 3958,
      "Ġoften": 3959,
      "èĸ": 3960,
      "èµ·æĿ¥": 3961,
      "æľīæķĪ": 3962,
      "Ġla": 3963,
      "Ġstudents": 3964,
      "Ġarray": 3965,
      "å¤«": 3966,
      "perties": 3967,
      "åĲ¯": 3968,
      "å¹´çļĦ": 3969,
      "æĢ¥": 3970,
      "èĥĮ": 3971,
      "çī¹åĪ«": 3972,
      "åĸľæ¬¢": 3973,
      "github": 3974,
      "æĭ¿": 3975,
      "ither": 3976,
      "Ġrespect": 3977,
      "wards": 3978,
      "Ġprovide": 3979,
      "æ¶²": 3980,
      "ternal": 3981,
      "Val": 3982,
      "Ġshort": 3983,
      "æŁĵ": 3984,
      "Ġpossible": 3985,
      "img": 3986,
      "æĬĹ": 3987,
      "Ġcover": 3988,
      "ç²ī": 3989,
      "posed": 3990,
      "ograph": 3991,
      "è¾ĳ": 3992,
      "å¦Ī": 3993,
      "Event": 3994,
      "tau": 3995,
      ".add": 3996,
      "Ġfri": 3997,
      "ably": 3998,
      "oogle": 3999,
      "oud": 4000,
      "ĠGr": 4001,
      "åĽº": 4002,
      "ç§¯æŀģ": 4003,
      "ament": 4004,
      "ride": 4005,
      "æĸĩä»¶": 4006,
      "å©ļ": 4007,
      "isk": 4008,
      "ĠAss": 4009,
      "Ġaccount": 4010,
      "ĠCan": 4011,
      "TR": 4012,
      "ponent": 4013,
      "aterial": 4014,
      "/p": 4015,
      "_g": 4016,
      "ä¹ħ": 4017,
      "å·¥ä¸ļ": 4018,
      "list": 4019,
      "èģļ": 4020,
      "æķĪæŀľ": 4021,
      "escription": 4022,
      "Ġpract": 4023,
      "Node": 4024,
      "leq": 4025,
      "object": 4026,
      "éĢĢ": 4027,
      "ober": 4028,
      "Ġgeneral": 4029,
      "Ġworking": 4030,
      "æ´Ĺ": 4031,
      "æĭį": 4032,
      "è¯į": 4033,
      "æ´²": 4034,
      "Ġcontrol": 4035,
      "aus": 4036,
      "amed": 4037,
      "Ġgre": 4038,
      "åºĶè¯¥": 4039,
      "ĠTo": 4040,
      "ply": 4041,
      "Ġmembers": 4042,
      "All": 4043,
      "ä¸ĵå®¶": 4044,
      "Add": 4045,
      "Ġthrow": 4046,
      "ING": 4047,
      "Out": 4048,
      "ä½ľåĵģ": 4049,
      "ball": 4050,
      "Ġstudy": 4051,
      "èĥľ": 4052,
      "link": 4053,
      "ĠStates": 4054,
      "æĸ°çļĦ": 4055,
      "Ġaction": 4056,
      "leg": 4057,
      "èģĺ": 4058,
      "(c": 4059,
      "_k": 4060,
      "Ġredu": 4061,
      "ä»ª": 4062,
      "è¡£": 4063,
      "Response": 4064,
      "][": 4065,
      "aged": 4066,
      "åİĨåı²": 4067,
      "rt": 4068,
      "èįī": 4069,
      "Ġfree": 4070,
      "Ġpolit": 4071,
      "Ġhard": 4072,
      "åªĴä½ĵ": 4073,
      "èĳĹ": 4074,
      "Ġprint": 4075,
      "with": 4076,
      "alf": 4077,
      "åķĬ": 4078,
      "oney": 4079,
      "ä¸ºäºĨ": 4080,
      "Ġcode": 4081,
      "è¯Ħè®º": 4082,
      "ĠĠĠĠĠĠĠĠĠĠĠĠĠĠĠĠĠ": 4083,
      "Ġobt": 4084,
      "$-": 4085,
      "////////": 4086,
      "ä½³": 4087,
      "æ°´å¹³": 4088,
      "Ġfont": 4089,
      "onse": 4090,
      "é½": 4091,
      "éĤ®": 4092,
      "Ġblock": 4093,
      "åŃĺåľ¨": 4094,
      "åĨ²": 4095,
      "ison": 4096,
      "Ġeduc": 4097,
      "æĲľ": 4098,
      "å¤ľ": 4099,
      "ĠSp": 4100,
      "arri": 4101,
      "è´´": 4102,
      "Ġbig": 4103,
      "ç§Ł": 4104,
      "âĢ¦âĢ¦": 4105,
      "plit": 4106,
      "ĠMan": 4107,
      "ç¬Ķ": 4108,
      "Ġresearch": 4109,
      "Ġnetwork": 4110,
      "å®Ī": 4111,
      "ql": 4112,
      "Ġ[Ċ": 4113,
      "Ġtotal": 4114,
      "Ġmusic": 4115,
      "Ġgot": 4116,
      "Ġoffer": 4117,
      "å°ļ": 4118,
      "arning": 4119,
      "ides": 4120,
      "Ġresponse": 4121,
      "Ġlot": 4122,
      "lient": 4123,
      "åĩĢ": 4124,
      "tribution": 4125,
      "Ġjob": 4126,
      "Ġservices": 4127,
      "åĪ©çĶ¨": 4128,
      "Ġoriginal": 4129,
      "Ġindiv": 4130,
      "cer": 4131,
      ",å°Ĩ": 4132,
      "é¡¾": 4133,
      "è¯¦": 4134,
      "èĮ¶": 4135,
      "æĤ¨çļĦ": 4136,
      "à¸": 4137,
      "Ġseries": 4138,
      "gress": 4139,
      "UN": 4140,
      "æĭ¥æľī": 4141,
      "ilt": 4142,
      "Ġlarg": 4143,
      "éĩįçĤ¹": 4144,
      "Ġversion": 4145,
      "ç¼º": 4146,
      "èįĲ": 4147,
      "Ġsocial": 4148,
      "osp": 4149,
      "erver": 4150,
      "çĽŁ": 4151,
      "çĶ³è¯·": 4152,
      "Ġmillion": 4153,
      "ung": 4154,
      "å¥¥": 4155,
      "Ġenergy": 4156,
      "request": 4157,
      "-r": 4158,
      "Ġperiod": 4159,
      "Ġenc": 4160,
      "ours": 4161,
      "Ġclos": 4162,
      "Ġhold": 4163,
      "evel": 4164,
      "Log": 4165,
      "from": 4166,
      "ä¼¼": 4167,
      "æ¨¡å¼ı": 4168,
      "Ġcomplet": 4169,
      "nbsp": 4170,
      "Ġearly": 4171,
      "æ°¸": 4172,
      "Ġbecome": 4173,
      "Ġauthor": 4174,
      "aper": 4175,
      "Ġinvol": 4176,
      "Ġimpro": 4177,
      "äº¤éĢļ": 4178,
      "side": 4179,
      "çľĭåĪ°": 4180,
      "ero": 4181,
      "(),": 4182,
      ",ä½Ĩæĺ¯": 4183,
      "pression": 4184,
      "imate": 4185,
      "çĽ®æłĩ": 4186,
      "roid": 4187,
      "check": 4188,
      "Array": 4189,
      "Ġproblem": 4190,
      "Ġunderstand": 4191,
      "ional": 4192,
      ".pro": 4193,
      "æĬ¥åĳĬ": 4194,
      "Ġfocus": 4195,
      "ieve": 4196,
      ".N": 4197,
      "Ġclear": 4198,
      "Ġpo": 4199,
      "Ġhig": 4200,
      "Ġinteg": 4201,
      "ä»į": 4202,
      "quad": 4203,
      "å¤ı": 4204,
      "ideo": 4205,
      "Ġcount": 4206,
      "å®ŀéĻħ": 4207,
      "Index": 4208,
      "Ġsec": 4209,
      "Ġmargin": 4210,
      "èĩªçĦ¶": 4211,
      "Ġcommunity": 4212,
      "Ġdiv": 4213,
      "Ġabove": 4214,
      "sw": 4215,
      "Ġinitial": 4216,
      "åħ³æ³¨": 4217,
      "ĠEn": 4218,
      "Ġcustom": 4219,
      "func": 4220,
      "times": 4221,
      "Ġbecame": 4222,
      "Ġelect": 4223,
      "ML": 4224,
      "ATE": 4225,
      "!--": 4226,
      "æ±ĩ": 4227,
      "Ġbody": 4228,
      "èĭ¥": 4229,
      "}(\\": 4230,
      "Ġdeter": 4231,
      "ales": 4232,
      "ĠWhen": 4233,
      "æĳĦ": 4234,
      "åľ°æĸ¹": 4235,
      "Ġbound": 4236,
      "Ġkeep": 4237,
      "Ġdat": 4238,
      "tes": 4239,
      "ç¤¼": 4240,
      "å¸ĸ": 4241,
      "ĠJohn": 4242,
      "é¥°": 4243,
      "èĻ½çĦ¶": 4244,
      "tra": 4245,
      "ĠEuro": 4246,
      "ĠPl": 4247,
      "èĢģå¸Ī": 4248,
      "());Ċ": 4249,
      "Ġalready": 4250,
      "ä¸ĢèĪ¬": 4251,
      "ising": 4252,
      "Code": 4253,
      "Ġrole": 4254,
      "å¸®åĬ©": 4255,
      "include": 4256,
      "æī§è¡Į": 4257,
      "Ġobserv": 4258,
      "èµĦéĩĳ": 4259,
      "valid": 4260,
      "éĽ¶": 4261,
      "éĿł": 4262,
      "OS": 4263,
      "Ġlittle": 4264,
      "gt": 4265,
      "Ġfund": 4266,
      "Ref": 4267,
      "éĽ¨": 4268,
      "ilter": 4269,
      "down": 4270,
      "æŀ¶": 4271,
      ",æīĢä»¥": 4272,
      "ibility": 4273,
      "å°¼": 4274,
      "ĠBr": 4275,
      "Ġeconom": 4276,
      "æĿ¡ä»¶": 4277,
      "igned": 4278,
      "eqref": 4279,
      "æĶ»": 4280,
      "åĴ¨": 4281,
      "åľ¨çº¿": 4282,
      "Ġdays": 4283,
      "çīĽ": 4284,
      "çĨŁ": 4285,
      "Up": 4286,
      "Ġwater": 4287,
      "æ£ĢæŁ¥": 4288,
      "å°Ħ": 4289,
      "åı¶": 4290,
      "Ġindividual": 4291,
      "ä¸įæĸŃ": 4292,
      "çĹĩ": 4293,
      "ourn": 4294,
      "Ġparent": 4295,
      "Ġdevelopment": 4296,
      "ç©ºéĹ´": 4297,
      "Ġcontext": 4298,
      "Ġspecial": 4299,
      "image": 4300,
      "iff": 4301,
      "è¾¾åĪ°": 4302,
      "And": 4303,
      "Ġprob": 4304,
      "Ġexperience": 4305,
      "åĪ¸": 4306,
      "xi": 4307,
      "tings": 4308,
      "æ¯Ľ": 4309,
      "åħ¨éĿ¢": 4310,
      "Ġ''Ċ": 4311,
      "å°ıæĹ¶": 4312,
      "lin": 4313,
      "Ġwomen": 4314,
      "CE": 4315,
      "Ġgive": 4316,
      "ney": 4317,
      "Ġpot": 4318,
      "Ġdisplay": 4319,
      "èĤī": 4320,
      "Ġsource": 4321,
      "åĬłå¼º": 4322,
      "èīºæľ¯": 4323,
      "å®ŀæĸ½": 4324,
      "Ġben": 4325,
      "æ¢¦": 4326,
      "center": 4327,
      ".B": 4328,
      "Ġmeet": 4329,
      "rodu": 4330,
      "ĠMar": 4331,
      "respon": 4332,
      "Ġcur": 4333,
      "Equ": 4334,
      "è®¡ç®Ĺ": 4335,
      "my": 4336,
      "CH": 4337,
      "Ġhaving": 4338,
      "soft": 4339,
      "eral": 4340,
      "Ġrequired": 4341,
      "Ġ($": 4342,
      "field": 4343,
      "åĴ¨è¯¢": 4344,
      "Result": 4345,
      "ĠNational": 4346,
      "éĢı": 4347,
      "æİ¢": 4348,
      "SP": 4349,
      "abled": 4350,
      "Ġprevious": 4351,
      "andom": 4352,
      "Ġindust": 4353,
      "ports": 4354,
      "ĠThat": 4355,
      "æ¤į": 4356,
      "py": 4357,
      "ä¸Ģæ¬¡": 4358,
      "eturn": 4359,
      ",åı¯ä»¥": 4360,
      "çĶ°": 4361,
      "Ġindex": 4362,
      "Ġcrit": 4363,
      "ians": 4364,
      "Ġproperty": 4365,
      "ogn": 4366,
      "/b": 4367,
      "comp": 4368,
      "åĢŁ": 4369,
      "ixed": 4370,
      "èĩªåĬ¨": 4371,
      "ç»ĵæŀľ": 4372,
      "place": 4373,
      "Ġ)Ċ": 4374,
      "Ġmass": 4375,
      "Ġdeb": 4376,
      "AME": 4377,
      "Ġcharacter": 4378,
      "ĠNo": 4379,
      "Ġmeans": 4380,
      "é¡¶": 4381,
      "lete": 4382,
      "uly": 4383,
      "Not": 4384,
      "no": 4385,
      ".in": 4386,
      "Ġdiscuss": 4387,
      "atter": 4388,
      "partial": 4389,
      "Size": 4390,
      "uation": 4391,
      "è¡Įä¸º": 4392,
      "ĠNULL": 4393,
      "å»ºè®®": 4394,
      "Ġland": 4395,
      "OL": 4396,
      "ocation": 4397,
      "Ġmag": 4398,
      "Ġdom": 4399,
      "}$,": 4400,
      "ä¸Ģèµ·": 4401,
      "æĸ¹æ¡Ī": 4402,
      "çĿ£": 4403,
      ",å¦Ĥæŀľ": 4404,
      "æľ¬ç«Ļ": 4405,
      "é¥®": 4406,
      "Ġcommon": 4407,
      "æİ¨èįĲ": 4408,
      "sk": 4409,
      "fty": 4410,
      "Ġlove": 4411,
      "Ġdone": 4412,
      "indows": 4413,
      "Ġwin": 4414,
      "OD": 4415,
      "Ġlow": 4416,
      "uilder": 4417,
      "è¿Ľä¸ĢæŃ¥": 4418,
      "Ġimage": 4419,
      "äº¿åħĥ": 4420,
      "annel": 4421,
      "web": 4422,
      "ç»§ç»Ń": 4423,
      "Ġleast": 4424,
      "éĿĻ": 4425,
      "Ġheight": 4426,
      "äºĪ": 4427,
      "Ġsimilar": 4428,
      "ĠState": 4429,
      "ĠĠĠĠĠĠĠĠĠĠĠĠĠĠ": 4430,
      "Ġtable": 4431,
      "Ġvol": 4432,
      "imal": 4433,
      "Ġaddress": 4434,
      ".T": 4435,
      "etails": 4436,
      "ensure": 4437,
      "å»ºç«ĭ": 4438,
      "eh": 4439,
      "aken": 4440,
      "å¤®": 4441,
      "acc": 4442,
      "Ġstrong": 4443,
      "å¸Ń": 4444,
      "ä½įç½®": 4445,
      "ĠBl": 4446,
      "èµĦæĸĻ": 4447,
      "Ġ|Ċ": 4448,
      "ĠâĢĺ": 4449,
      "åĽ°": 4450,
      "èį£": 4451,
      "å½¢æĪĲ": 4452,
      "å¹ħ": 4453,
      "éľ²": 4454,
      "Message": 4455,
      "ç¬¦": 4456,
      "ĠWorld": 4457,
      "idence": 4458,
      "Mode": 4459,
      "é¢ĨåŁŁ": 4460,
      "#define": 4461,
      "function": 4462,
      "ui": 4463,
      "Ġside": 4464,
      "ä»Ĭå¤©": 4465,
      "though": 4466,
      "Ġhouse": 4467,
      "é±": 4468,
      "Ġpubl": 4469,
      "Ġrelations": 4470,
      "(b": 4471,
      "åŁºéĩĳ": 4472,
      "Ġlik": 4473,
      "ped": 4474,
      "Ġlabel": 4475,
      "ĉc": 4476,
      "éĺ¶": 4477,
      "ç©¿": 4478,
      ".æĪĳ": 4479,
      "Ġassoci": 4480,
      "ilit": 4481,
      "æ¯ĶèµĽ": 4482,
      "éĻĨ": 4483,
      "æĥł": 4484,
      ",å¤§": 4485,
      ")čĊ": 4486,
      "è´¸": 4487,
      "ĠEurope": 4488,
      "æ¶¨": 4489,
      "ä¿Ŀè¯ģ": 4490,
      "\"]": 4491,
      "PI": 4492,
      "Ġstory": 4493,
      "From": 4494,
      "Ġhistory": 4495,
      "æķĻå¸Ī": 4496,
      "å°ģ": 4497,
      "omega": 4498,
      "Ġmaking": 4499,
      "point": 4500,
      "Ġlight": 4501,
      "å·Ŀ": 4502,
      "{t": 4503,
      "åħ¨çĲĥ": 4504,
      "igr": 4505,
      "à¤": 4506,
      "æĻºèĥ½": 4507,
      "ä¹ĭéĹ´": 4508,
      "roups": 4509,
      "path": 4510,
      "æĮ¥": 4511,
      "oman": 4512,
      "é±¼": 4513,
      "Ġsuper": 4514,
      "Ġhuman": 4515,
      "true": 4516,
      "Ġmessage": 4517,
      "Ġ()": 4518,
      "ĠæĪĳ": 4519,
      "Ġlink": 4520,
      "Pl": 4521,
      "Ġpast": 4522,
      "Ġ/>Ċ": 4523,
      "ä¸Ŀ": 4524,
      "lege": 4525,
      ")(": 4526,
      "æĺ¯åĲ¦": 4527,
      "ç«¥": 4528,
      "ä»·åĢ¼": 4529,
      "ä¸Ģæł·": 4530,
      "Ġconc": 4531,
      "ĠMin": 4532,
      "ĠYork": 4533,
      ".e": 4534,
      "Ġcomput": 4535,
      "Color": 4536,
      "Ġtook": 4537,
      "|\\": 4538,
      "Ġothers": 4539,
      "åĨł": 4540,
      "Ġfar": 4541,
      "áī": 4542,
      "istic": 4543,
      "Ġä¸Ń": 4544,
      "åĿĽ": 4545,
      "Over": 4546,
      "åħ¶ä¸Ń": 4547,
      "éħ¸": 4548,
      "ä¸¤ä¸ª": 4549,
      "ç¡¬": 4550,
      "uments": 4551,
      "reate": 4552,
      "format": 4553,
      "gether": 4554,
      "áĬ": 4555,
      "èĢĥè¯ķ": 4556,
      ">>": 4557,
      "Ġtogether": 4558,
      "Ġbase": 4559,
      "nect": 4560,
      "è·Ŀ": 4561,
      "Element": 4562,
      "={": 4563,
      "struction": 4564,
      "---": 4565,
      "çĶļ": 4566,
      "ĊĊĊĊ": 4567,
      "çİ°åľº": 4568,
      "Ġphys": 4569,
      "Ġdiff": 4570,
      "Ġkind": 4571,
      "ica": 4572,
      "åłĤ": 4573,
      "lim": 4574,
      "Ġcertain": 4575,
      "æĿĤ": 4576,
      "Ġcompet": 4577,
      "çĸĳ": 4578,
      "çļĦå¤§": 4579,
      "Ġcenter": 4580,
      "Ġnode": 4581,
      "System": 4582,
      "Ġcourse": 4583,
      "Ġ$(": 4584,
      "ĠGet": 4585,
      "çĪ¶": 4586,
      "cell": 4587,
      "FO": 4588,
      "aa": 4589,
      "ĠThese": 4590,
      "ze": 4591,
      "Hand": 4592,
      "åħįè´¹": 4593,
      "æĿ¥è¯´": 4594,
      "see": 4595,
      "æıĲåĩº": 4596,
      "æķĳ": 4597,
      "å²Ľ": 4598,
      "mat": 4599,
      "Ġsure": 4600,
      "æĸĹ": 4601,
      "Ġlearn": 4602,
      "è¿Ļç§į": 4603,
      "çĽĸ": 4604,
      "ecess": 4605,
      "map": 4606,
      "ä»¥ä¸ĭ": 4607,
      "Ġ<<": 4608,
      "Ġtrad": 4609,
      "-y": 4610,
      "è¿ĺæľī": 4611,
      "<td": 4612,
      "åºĬ": 4613,
      "eff": 4614,
      "ä¸ĢçĽ´": 4615,
      "Ġmember": 4616,
      "èĮĥåĽ´": 4617,
      "çĮ®": 4618,
      "Ġimp": 4619,
      "è¿ĲåĬ¨": 4620,
      "$Ċ": 4621,
      "inary": 4622,
      "|Ċ": 4623,
      "ĠBy": 4624,
      "<div": 4625,
      "Ġyoung": 4626,
      "ç»ĵåĲĪ": 4627,
      "Ġstd": 4628,
      "éĢĲ": 4629,
      "oll": 4630,
      "éĩĳèŀį": 4631,
      "tilde": 4632,
      "pen": 4633,
      "GG": 4634,
      "db": 4635,
      "Trans": 4636,
      "Fr": 4637,
      "most": 4638,
      "Is": 4639,
      "erman": 4640,
      "è¿Ŀ": 4641,
      "æ¶¦": 4642,
      "body": 4643,
      "raft": 4644,
      ",æ¯ı": 4645,
      ".ä½Ĩ": 4646,
      "ION": 4647,
      "åİŁåĽł": 4648,
      "æĿĢ": 4649,
      "Ad": 4650,
      "ä¼ĳ": 4651,
      "ategory": 4652,
      "AM": 4653,
      "oken": 4654,
      "Ġamong": 4655,
      "Ġinc": 4656,
      "Ð»": 4657,
      "Ġexec": 4658,
      "Ġ(!": 4659,
      "ĠCont": 4660,
      "ij": 4661,
      "è¿Ļä¸Ģ": 4662,
      "adata": 4663,
      "é¹": 4664,
      "Ġfuture": 4665,
      "Ġwhether": 4666,
      "}[": 4667,
      "Ġden": 4668,
      "imum": 4669,
      "{R": 4670,
      "Cl": 4671,
      "uid": 4672,
      "ĉĉĉĉĉĉ": 4673,
      "Ġinstance": 4674,
      "rior": 4675,
      "ä¹İ": 4676,
      "Ġpred": 4677,
      "ĠHis": 4678,
      "ä¸»é¢ĺ": 4679,
      "æ´¾": 4680,
      "Ġsignific": 4681,
      "_L": 4682,
      "bum": 4683,
      "å»¶": 4684,
      "Delta": 4685,
      "é²ľ": 4686,
      "äººæīį": 4687,
      "Ġclaim": 4688,
      "height": 4689,
      "Ġjava": 4690,
      "Inter": 4691,
      "æ¦Ĥ": 4692,
      "title": 4693,
      "äº§çĶŁ": 4694,
      "Group": 4695,
      "çĹĽ": 4696,
      "çĤ¹åĩ»": 4697,
      "è§ĦåĪĴ": 4698,
      "ä¼łç»Ł": 4699,
      "ude": 4700,
      "OP": 4701,
      "ffff": 4702,
      "ada": 4703,
      ",å¦Ĥ": 4704,
      ".is": 4705,
      ",å½ĵ": 4706,
      "js": 4707,
      "iple": 4708,
      "Ġaway": 4709,
      "Ġoutput": 4710,
      "lt": 4711,
      "fe": 4712,
      "Ġacross": 4713,
      "Ġterms": 4714,
      "çģ¯": 4715,
      "Ġage": 4716,
      "_R": 4717,
      "irm": 4718,
      "áĭ": 4719,
      "ĠCar": 4720,
      "Ġmap": 4721,
      "ynam": 4722,
      "æķ£": 4723,
      "ones": 4724,
      "Ġarr": 4725,
      "è¶£": 4726,
      "amples": 4727,
      "Ġdocument": 4728,
      "åīĤ": 4729,
      "æŃ£åľ¨": 4730,
      "Ġtalk": 4731,
      "Ġpoints": 4732,
      "ering": 4733,
      "çİī": 4734,
      "ama": 4735,
      "å®£ä¼ł": 4736,
      "ysis": 4737,
      "assert": 4738,
      "Ġlo": 4739,
      "Ġcomb": 4740,
      "çº¸": 4741,
      "èª": 4742,
      "åį±": 4743,
      "æ¡¥": 4744,
      "sg": 4745,
      "Ġsat": 4746,
      "amespace": 4747,
      "icult": 4748,
      "/**Ċ": 4749,
      "Ġreason": 4750,
      "Ġestabl": 4751,
      "Ġabs": 4752,
      "uk": 4753,
      "æħ¢": 4754,
      "ĠAust": 4755,
      "åıĤä¸İ": 4756,
      "ĠDr": 4757,
      "Ġbegin": 4758,
      "sequ": 4759,
      ",è¦ģ": 4760,
      "æĶ¶åħ¥": 4761,
      "åĽ¾çīĩ": 4762,
      "stit": 4763,
      "âĢĻve": 4764,
      "Ġnum": 4765,
      "refore": 4766,
      "ony": 4767,
      "çİ°ä»£": 4768,
      "aring": 4769,
      "respond": 4770,
      "éģ¿": 4771,
      "verage": 4772,
      "æİª": 4773,
      "æľĿ": 4774,
      "Ġsong": 4775,
      "refer": 4776,
      "Ã³": 4777,
      "abase": 4778,
      ".php": 4779,
      "ä¹ĭä¸Ģ": 4780,
      "åĪ¶éĢł": 4781,
      "éĽª": 4782,
      "ĠInt": 4783,
      "irt": 4784,
      "pg": 4785,
      "inition": 4786,
      "æĮģç»Ń": 4787,
      "No": 4788,
      "Ġë": 4789,
      "Ġ\"\"": 4790,
      "_H": 4791,
      ".png": 4792,
      "ĠJan": 4793,
      "query": 4794,
      "EL": 4795,
      "äº¤æµģ": 4796,
      "ided": 4797,
      "{figure": 4798,
      "ayer": 4799,
      "åľ°åĿĢ": 4800,
      "Ġfive": 4801,
      "é£İéĻ©": 4802,
      "Ġcell": 4803,
      "light": 4804,
      "æĮīçħ§": 4805,
      "iment": 4806,
      "è¸": 4807,
      "å®ľ": 4808,
      "èĭ¦": 4809,
      "çĶµè§Ĩ": 4810,
      "top": 4811,
      "-color": 4812,
      "æ¡£": 4813,
      "ĠFe": 4814,
      "Ġcult": 4815,
      "æī©": 4816,
      "IR": 4817,
      "ĠSouth": 4818,
      "Ġund": 4819,
      "ills": 4820,
      "åĤ¨": 4821,
      "Ġwhy": 4822,
      "çĶ¨äºİ": 4823,
      "åı«": 4824,
      "Ġdet": 4825,
      "Ġmom": 4826,
      "cher": 4827,
      ".</": 4828,
      "æĬĵ": 4829,
      "è¯ļ": 4830,
      "abor": 4831,
      "ague": 4832,
      "rect": 4833,
      "æĤ£èĢħ": 4834,
      "Ġmatch": 4835,
      "orage": 4836,
      "åıĬæĹ¶": 4837,
      "Ġloss": 4838,
      "Ġfurther": 4839,
      "ä¿Ŀéļľ": 4840,
      "Ġra": 4841,
      "ĠBe": 4842,
      "Ġtoday": 4843,
      "ÃŃ": 4844,
      "Ġcame": 4845,
      "åĬŀåħ¬": 4846,
      "éĿ¢ç§¯": 4847,
      "infty": 4848,
      "è¾Ĩ": 4849,
      "Ġ[]": 4850,
      "Ġ;Ċ": 4851,
      "Ġmoney": 4852,
      "çªĹ": 4853,
      "çĥŁ": 4854,
      "creen": 4855,
      "ifier": 4856,
      ".r": 4857,
      "now": 4858,
      "æ¾": 4859,
      "å½Ĵ": 4860,
      "ĠOb": 4861,
      "ĠSchool": 4862,
      "aced": 4863,
      "Ġcamp": 4864,
      "éĺħè¯»": 4865,
      "Ġgrad": 4866,
      "[\"": 4867,
      "orem": 4868,
      "èģĮä¸ļ": 4869,
      "/l": 4870,
      "çĶµå½±": 4871,
      "icrosoft": 4872,
      "IM": 4873,
      "è§Ĩé¢ĳ": 4874,
      "Ġcompon": 4875,
      "Ġactiv": 4876,
      "Ġfun": 4877,
      "Ġsite": 4878,
      "Pr": 4879,
      "åĪ¶åº¦": 4880,
      "æľ¬ç½ĳ": 4881,
      "æ¶Īæģ¯": 4882,
      "Ġtreat": 4883,
      "çĶ²": 4884,
      "gor": 4885,
      "åħ³éĶ®": 4886,
      "ilities": 4887,
      "ĠTe": 4888,
      "chema": 4889,
      "./": 4890,
      ",æľĢ": 4891,
      "éĽ·": 4892,
      "åħ·ä½ĵ": 4893,
      "size": 4894,
      "Ġpotential": 4895,
      "iddle": 4896,
      "æĿ¨": 4897,
      "è¶ħè¿ĩ": 4898,
      "èĤ¤": 4899,
      "ĠPol": 4900,
      "Ġsection": 4901,
      "itted": 4902,
      "Ġpage": 4903,
      "ls": 4904,
      "cy": 4905,
      "æĹ¥æľ¬": 4906,
      "ged": 4907,
      "Ġstarted": 4908,
      "Ġport": 4909,
      "\".Ċ": 4910,
      "è¡¨çİ°": 4911,
      "ae": 4912,
      "æ¢°": 4913,
      "çĦ¶åĲİ": 4914,
      "å§Ķåĳĺ": 4915,
      "Ġnational": 4916,
      "mark": 4917,
      "();ĊĊ": 4918,
      "Ġdeg": 4919,
      "Ġexpected": 4920,
      "Ġbuilding": 4921,
      ",åĽłä¸º": 4922,
      "ä¸Ģä¸ĭ": 4923,
      "å¹ķ": 4924,
      "Ġthought": 4925,
      "åķĨåĵģ": 4926,
      "å¯¼èĩ´": 4927,
      "è®¨": 4928,
      "Ġsent": 4929,
      "éļıçĿĢ": 4930,
      "ä¼ļåĳĺ": 4931,
      "Ġhost": 4932,
      "ç¨¿": 4933,
      "\\sub": 4934,
      "font": 4935,
      "çĤİ": 4936,
      "Ġdeath": 4937,
      "Ġder": 4938,
      "Ġmen": 4939,
      "amework": 4940,
      "earch": 4941,
      "è¯´æĺİ": 4942,
      "ĠCal": 4943,
      ",ä½¿": 4944,
      "éĢłæĪĲ": 4945,
      "ä¿ĿæĮģ": 4946,
      "è¿ĻéĩĮ": 4947,
      "æľŁéĹ´": 4948,
      "imary": 4949,
      "asing": 4950,
      "MM": 4951,
      "Ġcreated": 4952,
      "Ġenough": 4953,
      "Status": 4954,
      "Ġ);Ċ": 4955,
      "Ġtraining": 4956,
      "èĪŀ": 4957,
      "åĿĲ": 4958,
      "è¯¯": 4959,
      "åĲī": 4960,
      "Ġoptions": 4961,
      "ìĿ": 4962,
      "çĸ¾": 4963,
      "output": 4964,
      ".js": 4965,
      "Comm": 4966,
      "ĠAct": 4967,
      "Ġthough": 4968,
      "iam": 4969,
      "Ġphot": 4970,
      "ĠMed": 4971,
      "Client": 4972,
      "åĬª": 4973,
      "éŁ©": 4974,
      "nu": 4975,
      "Ġåıĳè¡¨äºİ": 4976,
      "ĠGe": 4977,
      "å®īè£ħ": 4978,
      "era": 4979,
      "sembly": 4980,
      "Ġthird": 4981,
      "start": 4982,
      "ĠBo": 4983,
      "å¾ĹåĪ°": 4984,
      "sm": 4985,
      "Ġenvironment": 4986,
      "Ġseen": 4987,
      "ayout": 4988,
      "Ġreceived": 4989,
      "ä»ĸçļĦ": 4990,
      ".ex": 4991,
      "éĹŃ": 4992,
      "ç»ıè¿ĩ": 4993,
      "Ġeither": 4994,
      "ç¤¾åĮº": 4995,
      "Input": 4996,
      "å²Ĺ": 4997,
      "ĠAfter": 4998,
      "clus": 4999,
      "Ġneg": 5000,
      "ptions": 5001,
      "INT": 5002,
      "_V": 5003,
      "Ġtre": 5004,
      "Ġrespons": 5005,
      "Ġlive": 5006,
      "YPE": 5007,
      ".F": 5008,
      "${": 5009,
      "lease": 5010,
      "æĹłæ³ķ": 5011,
      "åħµ": 5012,
      "æĹ¶ä»£": 5013,
      "sl": 5014,
      "âĶ": 5015,
      "lem": 5016,
      "éŁ³ä¹Ĳ": 5017,
      "Ġthing": 5018,
      "æ±¡": 5019,
      "erm": 5020,
      "åı¥": 5021,
      "ements": 5022,
      "å®½": 5023,
      "Ġ+=": 5024,
      "{eqn": 5025,
      "Ġheld": 5026,
      "Ġche": 5027,
      "cul": 5028,
      "\\right": 5029,
      "Ġant": 5030,
      "ç¨ĭåºı": 5031,
      "ĠCity": 5032,
      "Ġair": 5033,
      ".L": 5034,
      "avel": 5035,
      "static": 5036,
      "Ġcareer": 5037,
      "po": 5038,
      "èĵĿ": 5039,
      "ication": 5040,
      "Ġcou": 5041,
      "Ġsuff": 5042,
      "Ġq": 5043,
      "anel": 5044,
      "å·¨": 5045,
      "cdot": 5046,
      "Ġmot": 5047,
      "ging": 5048,
      "èĶ": 5049,
      ".èĢĮ": 5050,
      "{pro": 5051,
      "ĠIntern": 5052,
      "open": 5053,
      "Ġbenef": 5054,
      "Ġ});Ċ": 5055,
      "æľªæĿ¥": 5056,
      "ĠSup": 5057,
      "iol": 5058,
      "è¯Ĭ": 5059,
      "ĠWith": 5060,
      "Ġtell": 5061,
      "ĠBrit": 5062,
      "Ġstop": 5063,
      ",,": 5064,
      "igure": 5065,
      "Ġvarious": 5066,
      "ãģ®": 5067,
      "ĠCo": 5068,
      "é£Łåĵģ": 5069,
      "utions": 5070,
      "èľ": 5071,
      "go": 5072,
      "å¹¸": 5073,
      "Ġsignificant": 5074,
      "Ġrate": 5075,
      "omet": 5076,
      "Ġload": 5077,
      "elete": 5078,
      "args": 5079,
      "æĢĢ": 5080,
      "åıĳè¡¨": 5081,
      "ĠMarch": 5082,
      "âĢĻm": 5083,
      "{S": 5084,
      "''": 5085,
      "èĦ±": 5086,
      "åĨ³å®ļ": 5087,
      "Ġtask": 5088,
      "Ġvalid": 5089,
      "_w": 5090,
      "na": 5091,
      "ä¿ĿéĻ©": 5092,
      "Ġamount": 5093,
      "ĠNov": 5094,
      ".x": 5095,
      "æĽ´åĬł": 5096,
      "Ġtax": 5097,
      "æ¶ī": 5098,
      "sim": 5099,
      "Ġinfl": 5100,
      "å¹¿åĳĬ": 5101,
      "ges": 5102,
      "ç±»åŀĭ": 5103,
      "é½Ĳ": 5104,
      "_pro": 5105,
      "ä½ĵç³»": 5106,
      "}}\\": 5107,
      "è´Ńä¹°": 5108,
      "begin": 5109,
      "Ġformer": 5110,
      "Ġonce": 5111,
      "æ±ł": 5112,
      "gorith": 5113,
      "Ġregion": 5114,
      "anch": 5115,
      "çīĪæĿĥ": 5116,
      "ibrary": 5117,
      "active": 5118,
      "Ġpercent": 5119,
      "Ġneeds": 5120,
      "ä¼ĺåĬ¿": 5121,
      "Ġsy": 5122,
      "ĠOne": 5123,
      "Ġshows": 5124,
      "Ġdefined": 5125,
      "ç®Ģåįķ": 5126,
      "åĪĨéĴŁ": 5127,
      "èĻĳ": 5128,
      "portun": 5129,
      "append": 5130,
      "ĠCount": 5131,
      "FA": 5132,
      "kn": 5133,
      "æĪĲæľ¬": 5134,
      "umb": 5135,
      "ä¸Ģç§į": 5136,
      "mt": 5137,
      "å®¹æĺĵ": 5138,
      "Ġsix": 5139,
      "efore": 5140,
      "ç¦ģ": 5141,
      "å¼¹": 5142,
      "Ġ{ĊĊ": 5143,
      "æµª": 5144,
      "thon": 5145,
      "ĠReg": 5146,
      "Ġdeal": 5147,
      "è°ģ": 5148,
      "_to": 5149,
      ",èĢĮä¸Ķ": 5150,
      "Ġprofession": 5151,
      "çŁ¿": 5152,
      "å³°": 5153,
      "lean": 5154,
      "çĶļèĩ³": 5155,
      "ached": 5156,
      "Table": 5157,
      ".âĢĿ": 5158,
      "Ġsaf": 5159,
      "ĠPar": 5160,
      "Ġcases": 5161,
      "å½ĵåīį": 5162,
      "CA": 5163,
      "æ´ģ": 5164,
      "_re": 5165,
      "ĠÃ": 5166,
      "åı¬": 5167,
      "ç¨³å®ļ": 5168,
      "(this": 5169,
      "CD": 5170,
      "åľ³": 5171,
      "æ¯ķä¸ļ": 5172,
      "åķĨä¸ļ": 5173,
      "atform": 5174,
      "åĨľä¸ļ": 5175,
      "ä»»åĬ¡": 5176,
      "å±ı": 5177,
      "TION": 5178,
      "ä¼´": 5179,
      "åĪ¶ä½ľ": 5180,
      "åħ¨éĥ¨": 5181,
      "Ġbit": 5182,
      "è§īå¾Ĺ": 5183,
      "çļĦäºĭ": 5184,
      "=\"#": 5185,
      "ĠNone": 5186,
      "çĽĽ": 5187,
      "åĿļæĮģ": 5188,
      "æĦŁè§ī": 5189,
      "åİļ": 5190,
      "Ġwent": 5191,
      "åį«çĶŁ": 5192,
      "tries": 5193,
      "Ġimplement": 5194,
      "æĩ": 5195,
      "ĠID": 5196,
      "æ·±åľ³": 5197,
      "ief": 5198,
      "åıĸå¾Ĺ": 5199,
      "åĬªåĬĽ": 5200,
      "äººä»¬": 5201,
      "Ġintrodu": 5202,
      "åĢĴ": 5203,
      "uster": 5204,
      "ä¸įè¦ģ": 5205,
      "Ġpadding": 5206,
      "aption": 5207,
      "æĺ¯åľ¨": 5208,
      "Ġaw": 5209,
      "å®¶åºŃ": 5210,
      "Ġprovided": 5211,
      "empt": 5212,
      "Ġå¤§": 5213,
      "Ġvisit": 5214,
      "ĉpublic": 5215,
      "Ġred": 5216,
      "Ġver": 5217,
      "sq": 5218,
      "Ġalbum": 5219,
      "æ¹¾": 5220,
      "LA": 5221,
      "åĮ»çĸĹ": 5222,
      "åĩĨå¤ĩ": 5223,
      "ĠÂ": 5224,
      "è´·": 5225,
      "Ġdate": 5226,
      "II": 5227,
      "æĮĩå¯¼": 5228,
      ",čĊ": 5229,
      "Ġevents": 5230,
      "Ġtrack": 5231,
      "inate": 5232,
      "_data": 5233,
      "big": 5234,
      "éĽħ": 5235,
      "\\\\Ċ": 5236,
      "Dis": 5237,
      "æİ¨è¿Ľ": 5238,
      "èģĶç½ĳ": 5239,
      "è°ĥæķ´": 5240,
      "æĪĲç«ĭ": 5241,
      "###": 5242,
      "åĬ±": 5243,
      "PS": 5244,
      "Ġperformance": 5245,
      "Ġbegan": 5246,
      "Ġstates": 5247,
      "*}Ċ": 5248,
      "Ġ\"\\": 5249,
      "Ġ===": 5250,
      "client": 5251,
      "æĺ¯ä¸Ģä¸ª": 5252,
      "\\,": 5253,
      "éª¨": 5254,
      ",å¥¹": 5255,
      "Ġplayed": 5256,
      "Reg": 5257,
      "ĠCO": 5258,
      "ĠNorth": 5259,
      "reed": 5260,
      "ĠPres": 5261,
      "æĿ¥èĩª": 5262,
      "æľĢæĸ°": 5263,
      "æĿŁ": 5264,
      "åħ±åĲĮ": 5265,
      "Ġcorrespond": 5266,
      "çĥĪ": 5267,
      "Ġnecess": 5268,
      "eed": 5269,
      "ĠAdd": 5270,
      "ips": 5271,
      "è§Ħæ¨¡": 5272,
      "ks": 5273,
      "Ġworks": 5274,
      "ba": 5275,
      "èĦļ": 5276,
      "åĳ¼": 5277,
      "-size": 5278,
      "Ġhowever": 5279,
      "å±ĭ": 5280,
      "icient": 5281,
      "ç¼©": 5282,
      "æĢ§çļĦ": 5283,
      "æĶ¹éĿ©": 5284,
      "event": 5285,
      "pril": 5286,
      "è®¸å¤ļ": 5287,
      "init": 5288,
      "Ġstre": 5289,
      "Ġcompan": 5290,
      "ram": 5291,
      "æİĮ": 5292,
      "æı¡": 5293,
      ".v": 5294,
      "raphics": 5295,
      "Ġcoll": 5296,
      "\\c": 5297,
      "ä»¥æĿ¥": 5298,
      "There": 5299,
      "Property": 5300,
      "Ġmaterial": 5301,
      "è¯º": 5302,
      "Ġclose": 5303,
      "iven": 5304,
      "Ġglobal": 5305,
      "illed": 5306,
      "Ġparticip": 5307,
      "ĠĠĠĠĠĠĠĠĠĠĠĠĠĠĠĠĠĠĠĠĠĠĠĠĠĠĠĠĠĠĠĠĠĠĠ": 5308,
      "oute": 5309,
      "Str": 5310,
      "ä¸°å¯Į": 5311,
      "ç§ģ": 5312,
      "hern": 5313,
      "md": 5314,
      "èĤ¥": 5315,
      "ii": 5316,
      "Ġterm": 5317,
      "ĠSet": 5318,
      "Ġlength": 5319,
      "Ġquestion": 5320,
      "<?": 5321,
      "è§¦": 5322,
      "book": 5323,
      "åĨ°": 5324,
      "ministr": 5325,
      "ĠWar": 5326,
      "èµĦäº§": 5327,
      "æİ¥åıĹ": 5328,
      "Ġaddition": 5329,
      "Ġstep": 5330,
      "Ġdidn": 5331,
      "Ġsays": 5332,
      "otal": 5333,
      "Ġfinanc": 5334,
      "Date": 5335,
      "Om": 5336,
      "Ġcirc": 5337,
      "Ġfa": 5338,
      "Ġpur": 5339,
      "Ġopportun": 5340,
      "bsite": 5341,
      "å·¦åı³": 5342,
      "éĢļçŁ¥": 5343,
      "è®ºåĿĽ": 5344,
      "ĠĠĠĠĠĠĠĠĊ": 5345,
      "çº·": 5346,
      "dit": 5347,
      "epsilon": 5348,
      "istry": 5349,
      "flow": 5350,
      "ike": 5351,
      "Ġurl": 5352,
      "ĠAug": 5353,
      "æ´ĭ": 5354,
      "eader": 5355,
      "-to": 5356,
      "Ġreleased": 5357,
      "TH": 5358,
      "åĮºåŁŁ": 5359,
      "æ¬¢è¿İ": 5360,
      ",å®ĥ": 5361,
      "lor": 5362,
      "çĪĨ": 5363,
      "ãĥ¼": 5364,
      "æŁ¥çľĭ": 5365,
      "Ġever": 5366,
      "rl": 5367,
      "layer": 5368,
      "Manager": 5369,
      "éĤ£ä¹Ī": 5370,
      "âĳ": 5371,
      "Ġelement": 5372,
      "æīįèĥ½": 5373,
      "Ġchall": 5374,
      "Ġmodels": 5375,
      "ĠOct": 5376,
      "ĠDep": 5377,
      "Sub": 5378,
      "ç¾¤ä¼Ĺ": 5379,
      "________": 5380,
      "ĠJune": 5381,
      "æ··": 5382,
      "Ġdoing": 5383,
      "Ġpersonal": 5384,
      "±ä¹Ĳ": 5385,
      "èĤ¡ä»½": 5386,
      "è¡ĮæĶ¿": 5387,
      "Ġfeature": 5388,
      "æĲŃ": 5389,
      "textbf": 5390,
      "ula": 5391,
      "æĬĺ": 5392,
      "Ġrisk": 5393,
      "}$.": 5394,
      "lope": 5395,
      "mod": 5396,
      "Ġbool": 5397,
      "Ġtaken": 5398,
      "header": 5399,
      "ership": 5400,
      "Ġfoot": 5401,
      "}.Ċ": 5402,
      "ns": 5403,
      "ç§ĺ": 5404,
      "select": 5405,
      "èĥ¶": 5406,
      "ias": 5407,
      "Ġmakes": 5408,
      "........": 5409,
      "ç´¯": 5410,
      "model": 5411,
      "Des": 5412,
      "ĠCor": 5413,
      "rest": 5414,
      "atural": 5415,
      "åģļå¥½": 5416,
      "Ġå°ı": 5417,
      "å¿«éĢŁ": 5418,
      "ä½ĵèĤ²": 5419,
      "Ġhappen": 5420,
      "ana": 5421,
      "åıĺåĮĸ": 5422,
      "ceed": 5423,
      "ä¼°": 5424,
      "éĩĬ": 5425,
      "json": 5426,
      "Rec": 5427,
      ".to": 5428,
      "Ġreview": 5429,
      "ĠPart": 5430,
      "èĢĲ": 5431,
      "irection": 5432,
      "çļĦè¯Ŀ": 5433,
      "ĠThen": 5434,
      "using": 5435,
      "çĬ¯": 5436,
      "ops": 5437,
      "You": 5438,
      "Ġactually": 5439,
      "ä½Ľ": 5440,
      ",ä»ĸä»¬": 5441,
      "ĠAp": 5442,
      "ĠList": 5443,
      "åĩºäºĨ": 5444,
      "Ġach": 5445,
      "evice": 5446,
      "æĪĳä»¬çļĦ": 5447,
      "éķľ": 5448,
      "èĦ¸": 5449,
      "eneral": 5450,
      "ä¾ĽåºĶ": 5451,
      "ĉĉĉĉĉĉĉĉ": 5452,
      ",ä¸İ": 5453,
      "ids": 5454,
      "Ġsubject": 5455,
      "æ³°": 5456,
      "å®Įåħ¨": 5457,
      "Wh": 5458,
      "éħĴåºĹ": 5459,
      "çĺ": 5460,
      ",æĽ´": 5461,
      "MS": 5462,
      "ĠMe": 5463,
      "DB": 5464,
      "ĠSept": 5465,
      "ological": 5466,
      "Ġlimit": 5467,
      "å¡ĳ": 5468,
      "export": 5469,
      "ç§ĭ": 5470,
      "option": 5471,
      "yd": 5472,
      "åĲįç§°": 5473,
      "Ġspecific": 5474,
      "ç«ŀäºī": 5475,
      "aging": 5476,
      "åĽ¢éĺŁ": 5477,
      "cil": 5478,
      "}_{\\": 5479,
      "Ġstatus": 5480,
      "Ġapproach": 5481,
      "éĢĶ": 5482,
      "(&": 5483,
      "è¿ĩç¨ĭä¸Ń": 5484,
      "idden": 5485,
      "çī¹èī²": 5486,
      "æľºæ¢°": 5487,
      "åĵ¥": 5488,
      ",åĲĮæĹ¶": 5489,
      "Ġsugg": 5490,
      "Ġindic": 5491,
      "Ġhom": 5492,
      "è½¬è½½": 5493,
      "æĭŁ": 5494,
      "Ġtown": 5495,
      "Ġsuggest": 5496,
      "cast": 5497,
      "èĽĭ": 5498,
      "ä¹¦è®°": 5499,
      "Image": 5500,
      "å®«": 5501,
      "çĬ¶æĢģ": 5502,
      "ĠApril": 5503,
      "!!": 5504,
      "æĹ¢": 5505,
      "ights": 5506,
      "TE": 5507,
      "Ġshown": 5508,
      "board": 5509,
      "åľĨ": 5510,
      "åĲĪåĲĮ": 5511,
      "Ġmedia": 5512,
      "Ġcontinue": 5513,
      "{C": 5514,
      "Ġpopulation": 5515,
      "Ġfood": 5516,
      "ises": 5517,
      "Ġaccept": 5518,
      "Ġrelationship": 5519,
      "å´": 5520,
      "Ġdoesn": 5521,
      "å¹¿å·ŀ": 5522,
      "ä¼ĺç§Ģ": 5523,
      "è·µ": 5524,
      "ç¼ĸè¾ĳ": 5525,
      "ĠRep": 5526,
      "bit": 5527,
      "è®¾ç½®": 5528,
      "å¯»": 5529,
      "Ġcommand": 5530,
      "ensor": 5531,
      "æķ°åŃĹ": 5532,
      "ĠIm": 5533,
      "ç½ĳä¸Ĭ": 5534,
      "æ»ĳ": 5535,
      "ç¾İåħĥ": 5536,
      "elves": 5537,
      "Ġhigher": 5538,
      "Ġmonths": 5539,
      "Ġcaus": 5540,
      "mber": 5541,
      "^*": 5542,
      "é©¾": 5543,
      "æĻ®éĢļ": 5544,
      "åĪĨåĪ«": 5545,
      "è¿·": 5546,
      "Ġannoun": 5547,
      "éļĲ": 5548,
      "ĠMy": 5549,
      "æŃ£å¸¸": 5550,
      "æ¸Ĳ": 5551,
      "Ġchanges": 5552,
      "ĉm": 5553,
      "Ġrow": 5554,
      "_RE": 5555,
      "ĠGerman": 5556,
      "hel": 5557,
      "çļĦéĹ®é¢ĺ": 5558,
      "çīĻ": 5559,
      ".util": 5560,
      "åıªæľī": 5561,
      "çº¯": 5562,
      "Ġsystems": 5563,
      "\\\"": 5564,
      "Ġdouble": 5565,
      "gle": 5566,
      "Ñĥ": 5567,
      "Ġissues": 5568,
      "æī¬": 5569,
      "èĳ£": 5570,
      "ference": 5571,
      "Ġstructure": 5572,
      "psi": 5573,
      "sole": 5574,
      "ino": 5575,
      "ĠQu": 5576,
      "Controller": 5577,
      "æĤī": 5578,
      "è¿Ĳè¡Į": 5579,
      "è°ĥæŁ¥": 5580,
      "summary": 5581,
      "igation": 5582,
      "æł¸å¿ĥ": 5583,
      "ä¸įè¿ĩ": 5584,
      "nav": 5585,
      "å½¢å¼ı": 5586,
      "Ġfloat": 5587,
      "package": 5588,
      "éĩİ": 5589,
      "ĠIN": 5590,
      "IB": 5591,
      "è·ĳ": 5592,
      "à®": 5593,
      "gs": 5594,
      "Ġ;": 5595,
      "Acc": 5596,
      "ledge": 5597,
      "Omega": 5598,
      "oms": 5599,
      "Ð°Ð": 5600,
      "åĢº": 5601,
      "Ġcannot": 5602,
      "Ġeducation": 5603,
      "çļĦå°ı": 5604,
      "Ġpress": 5605,
      "Ġlower": 5606,
      "TC": 5607,
      "åħħåĪĨ": 5608,
      "change": 5609,
      "Ġ\\\\": 5610,
      "Call": 5611,
      "Line": 5612,
      "åĳĺå·¥": 5613,
      "Count": 5614,
      "æıı": 5615,
      "ado": 5616,
      "{d": 5617,
      "ires": 5618,
      "Ġhalf": 5619,
      "([": 5620,
      "{s": 5621,
      "Act": 5622,
      "ä¸»ä»»": 5623,
      "å¦ĩ": 5624,
      ".čĊ": 5625,
      "ä¿ĥè¿Ľ": 5626,
      "æĢĿæĥ³": 5627,
      "medi": 5628,
      "Query": 5629,
      "pecially": 5630,
      "ĠJanuary": 5631,
      "adem": 5632,
      "è¯Ĺ": 5633,
      "ĠNot": 5634,
      "Ġpolicy": 5635,
      "Ã¼": 5636,
      "ĠçļĦ": 5637,
      "ĠClass": 5638,
      "æĹ§": 5639,
      "'re": 5640,
      "ĉb": 5641,
      "Ġincluded": 5642,
      "Ġindustry": 5643,
      "æ¶Īè´¹èĢħ": 5644,
      "åħĪçĶŁ": 5645,
      "ä¸ªæľĪ": 5646,
      "Ġconsidered": 5647,
      "Ġenter": 5648,
      ".log": 5649,
      "alt": 5650,
      "psilon": 5651,
      "App": 5652,
      "æĭĽèģĺ": 5653,
      "Ġwrite": 5654,
      "-S": 5655,
      "çĽ®çļĦ": 5656,
      "ĠJuly": 5657,
      "èģĶåĲĪ": 5658,
      "Ġtw": 5659,
      "Ġconditions": 5660,
      "acity": 5661,
      "æĮĳ": 5662,
      ".re": 5663,
      "æİ¨åĬ¨": 5664,
      "ä¸Ńå¤®": 5665,
      "ĠComp": 5666,
      "è¯¾ç¨ĭ": 5667,
      "Ġinstall": 5668,
      "Ġaccording": 5669,
      "é¢ľ": 5670,
      "æ£Ģæµĭ": 5671,
      "izing": 5672,
      "Ġbelow": 5673,
      "Ġblack": 5674,
      "imension": 5675,
      "Ġbuilt": 5676,
      "Ġinternational": 5677,
      "æľºä¼ļ": 5678,
      "æĪĺçķ¥": 5679,
      "ä½ĵéªĮ": 5680,
      "éĺ¶æ®µ": 5681,
      "åį·": 5682,
      "};Ċ": 5683,
      "ä¹ĭåīį": 5684,
      "ocs": 5685,
      "Ġsearch": 5686,
      ".W": 5687,
      "-pro": 5688,
      "å°¤": 5689,
      "source": 5690,
      "ĠWhat": 5691,
      "ociety": 5692,
      "æĸ½å·¥": 5693,
      "Ġarch": 5694,
      "å®Ĺ": 5695,
      "Ġattack": 5696,
      "çļĦé«ĺ": 5697,
      "oved": 5698,
      "yl": 5699,
      "ypes": 5700,
      "å±ŀäºİ": 5701,
      "Ġcomplex": 5702,
      "Ġsepar": 5703,
      "æĪª": 5704,
      "éģĹ": 5705,
      "åĬłå·¥": 5706,
      "Ġcompanies": 5707,
      "ĠCounty": 5708,
      "æľ«": 5709,
      "char": 5710,
      "uccess": 5711,
      "ĠâĶ": 5712,
      "plied": 5713,
      "Ġnormal": 5714,
      "bor": 5715,
      "Ġonline": 5716,
      "ebug": 5717,
      "artment": 5718,
      "Ġsuccessful": 5719,
      "Ġaverage": 5720,
      "é¦Ļæ¸¯": 5721,
      "è´¦": 5722,
      "å«": 5723,
      "Ġmer": 5724,
      "Ġwar": 5725,
      "è¯¦ç»Ĩ": 5726,
      "Ġcomes": 5727,
      "/Ċ": 5728,
      "button": 5729,
      "Ġdifficult": 5730,
      "Ġrather": 5731,
      "Ġlocated": 5732,
      "åĶ±": 5733,
      "åıĹåĪ°": 5734,
      "urb": 5735,
      "åľĪ": 5736,
      "ä¸Ĭå¸Ĥ": 5737,
      "æ´¥": 5738,
      "æĿ¯": 5739,
      "%.": 5740,
      "Ġfeatures": 5741,
      "ĠEd": 5742,
      "ĠSeptember": 5743,
      "Ġadded": 5744,
      "éĽĦ": 5745,
      "isf": 5746,
      "itory": 5747,
      "Ġitem": 5748,
      "Ġmind": 5749,
      "æĢ§èĥ½": 5750,
      "ols": 5751,
      "augh": 5752,
      "ĠAugust": 5753,
      "Ġband": 5754,
      "èĻļ": 5755,
      "çĶµèĦĳ": 5756,
      "=\"-": 5757,
      "éĻ¤äºĨ": 5758,
      "çĶŁæĢģ": 5759,
      "Ġlearning": 5760,
      "è´¹çĶ¨": 5761,
      "Ġĉ": 5762,
      "ĠGu": 5763,
      "ĠAustral": 5764,
      "Gamma": 5765,
      "æ²Ł": 5766,
      "sqrt": 5767,
      "Ġclient": 5768,
      "Sc": 5769,
      "åĿı": 5770,
      "imation": 5771,
      "èĪ¹": 5772,
      "ĠApp": 5773,
      "Ġparameters": 5774,
      "ç«Ł": 5775,
      "Ġsym": 5776,
      "å¥¶": 5777,
      "De": 5778,
      "ependent": 5779,
      "åĩºçīĪ": 5780,
      "Us": 5781,
      "æļĸ": 5782,
      "foot": 5783,
      "ĠCoun": 5784,
      "Ġyet": 5785,
      "Ġwritten": 5786,
      "Ġfall": 5787,
      "Ġ>>": 5788,
      "å·¥åħ·": 5789,
      "éĢĴ": 5790,
      "Ġç¬¬": 5791,
      "aries": 5792,
      ",è¯¥": 5793,
      "Ġtaking": 5794,
      "æİªæĸ½": 5795,
      "ç¿»": 5796,
      ":ĊĊ": 5797,
      "Ġpolitical": 5798,
      "Ġrecogn": 5799,
      "å¹²éĥ¨": 5800,
      "éĺµ": 5801,
      "lish": 5802,
      "Ġentire": 5803,
      ".jpg": 5804,
      "éķ¿æľŁ": 5805,
      "ç½ĳåıĭ": 5806,
      "cember": 5807,
      "æĸ¹åĲĳ": 5808,
      "_A": 5809,
      "Ġoption": 5810,
      "witch": 5811,
      "Ġrights": 5812,
      "{eqnarray": 5813,
      "idge": 5814,
      "cle": 5815,
      "vec": 5816,
      "Ġserial": 5817,
      "ä¸ľè¥¿": 5818,
      "éĴĪå¯¹": 5819,
      "åĩºæĿ¥": 5820,
      "æİī": 5821,
      "çĻ»å½ķ": 5822,
      "èĲ½å®ŀ": 5823,
      "å§Ĳ": 5824,
      "èº«ä½ĵ": 5825,
      "utes": 5826,
      "_ex": 5827,
      "ades": 5828,
      "æĥĬ": 5829,
      "Ġinf": 5830,
      "Token": 5831,
      "ĠTest": 5832,
      "ä¸įå¾Ĺ": 5833,
      "_W": 5834,
      ".sh": 5835,
      "æĺİæĺ¾": 5836,
      "è¿Ķ": 5837,
      "Ġdraw": 5838,
      "æĮĤ": 5839,
      "ensity": 5840,
      "ĠDis": 5841,
      "ster": 5842,
      "ç¡®å®ļ": 5843,
      "ping": 5844,
      "ç½ª": 5845,
      "åĬłåħ¥": 5846,
      ",æĹł": 5847,
      "UE": 5848,
      "å¹´æĿ¥": 5849,
      "æĦıè§ģ": 5850,
      "æĪĳåĽ½": 5851,
      "New": 5852,
      "åĩ¡": 5853,
      "ä¸Ńåįİ": 5854,
      "Ġapplication": 5855,
      "End": 5856,
      "abs": 5857,
      "Ġquant": 5858,
      "æŃ£å¼ı": 5859,
      "ä¾§": 5860,
      "éĺ´": 5861,
      "ĠOctober": 5862,
      "åĨ¬": 5863,
      "ĠAfr": 5864,
      "hib": 5865,
      "known": 5866,
      "#include": 5867,
      "aul": 5868,
      "Ġgen": 5869,
      "æĬ¥éģĵ": 5870,
      "Ġimpact": 5871,
      "Ġlanguage": 5872,
      "arser": 5873,
      "Ġareas": 5874,
      "`Ċ": 5875,
      "Ġcolumn": 5876,
      "é¥Ń": 5877,
      "\\left": 5878,
      "adius": 5879,
      "çĴ": 5880,
      "æĺ¨": 5881,
      "Ġshare": 5882,
      "ĠSome": 5883,
      "Slope": 5884,
      "ä¸ĭä¸Ģ": 5885,
      "Ġlooking": 5886,
      "Ġmove": 5887,
      "æ¼«": 5888,
      "åĪ·": 5889,
      "pc": 5890,
      "ries": 5891,
      "_G": 5892,
      "ites": 5893,
      "Ġissue": 5894,
      "xt": 5895,
      "PC": 5896,
      "Ġalmost": 5897,
      "Ġep": 5898,
      "iet": 5899,
      "eline": 5900,
      "éŃĶ": 5901,
      "else": 5902,
      "Ġmeasure": 5903,
      "æĹĹ": 5904,
      "íķ": 5905,
      "Ġpaper": 5906,
      "ĠMc": 5907,
      "strong": 5908,
      "Ø§": 5909,
      "ĠWill": 5910,
      "å¸¦æĿ¥": 5911,
      "åŁ¹åħ»": 5912,
      ",æľ¬": 5913,
      "åĨľæĿĳ": 5914,
      "Ġcontract": 5915,
      "Ġauto": 5916,
      "admin": 5917,
      "åĩºçļĦ": 5918,
      "IF": 5919,
      "çľŁå®ŀ": 5920,
      "actory": 5921,
      "ĠãĢĳ": 5922,
      "context": 5923,
      ".length": 5924,
      "å¹¼": 5925,
      "Content": 5926,
      "åİĭåĬĽ": 5927,
      "Ġflow": 5928,
      "ection": 5929,
      "assword": 5930,
      "vare": 5931,
      "æĸ¹ä¾¿": 5932,
      "/g": 5933,
      "æĪĲç»©": 5934,
      "erial": 5935,
      "Ġcountries": 5936,
      "å¹¿ä¸ľ": 5937,
      "æµĻ": 5938,
      "çļĦåıĳå±ķ": 5939,
      "Ġdecl": 5940,
      "ç»ıçĲĨ": 5941,
      "Ġbecom": 5942,
      "When": 5943,
      ",ä¸ŃåĽ½": 5944,
      "ham": 5945,
      "è´¥": 5946,
      "è®¾æĸ½": 5947,
      ".å¦Ĥæŀľ": 5948,
      "åħĪè¿Ľ": 5949,
      "æĢķ": 5950,
      "åĩıå°ĳ": 5951,
      "äºĭä¸ļ": 5952,
      "Ġbelieve": 5953,
      "Ġlikely": 5954,
      "è·Į": 5955,
      ".md": 5956,
      "Ap": 5957,
      "Ġappear": 5958,
      "è§ĦèĮĥ": 5959,
      "èĨľ": 5960,
      "Ä±": 5961,
      "oph": 5962,
      "Ġgroups": 5963,
      "æīĵéĢł": 5964,
      "Ġ((": 5965,
      "çī¹çĤ¹": 5966,
      "Ġill": 5967,
      "æ½®": 5968,
      "¹ģ": 5969,
      "Ġaud": 5970,
      "Ġ::": 5971,
      "Ġextends": 5972,
      "control": 5973,
      "ç¡®ä¿Ŀ": 5974,
      "ç¼ĵ": 5975,
      "XX": 5976,
      "SC": 5977,
      "Ġge": 5978,
      "){Ċ": 5979,
      "ocr": 5980,
      "æ£®": 5981,
      "ĠSec": 5982,
      "äºĴèģĶç½ĳ": 5983,
      "Ġgl": 5984,
      "/t": 5985,
      "IV": 5986,
      "Ġpublished": 5987,
      "$.Ċ": 5988,
      "aching": 5989,
      "åºĦ": 5990,
      "eger": 5991,
      "ä¸įä»ħ": 5992,
      "éļĶ": 5993,
      "âĸĪ": 5994,
      "çĳŀ": 5995,
      "Ġsequ": 5996,
      "}}Ċ": 5997,
      "aly": 5998,
      "ring": 5999,
      "Ġsimple": 6000,
      "çŀ": 6001,
      "å§ĵ": 6002,
      "Ġproduction": 6003,
      "Ġeffort": 6004,
      "Ġwhole": 6005,
      "chi": 6006,
      "izer": 6007,
      "state": 6008,
      "æł·çļĦ": 6009,
      "Ġæľ¬": 6010,
      "adio": 6011,
      "update": 6012,
      ".\\": 6013,
      "{B": 6014,
      "å¡Ķ": 6015,
      "éĢŁåº¦": 6016,
      "æķħäºĭ": 6017,
      ";&": 6018,
      "ĠCON": 6019,
      "aph": 6020,
      "æµĭè¯ķ": 6021,
      "Ġmor": 6022,
      "éĨĴ": 6023,
      "åĲĮåŃ¦": 6024,
      "ĠDecember": 6025,
      "node": 6026,
      "Ġnamed": 6027,
      "Ġcross": 6028,
      "bold": 6029,
      "One": 6030,
      "Ġincrease": 6031,
      "Gr": 6032,
      "èĢĥèĻĳ": 6033,
      "ä¼Ļ": 6034,
      "INFO": 6035,
      "Ġvideo": 6036,
      "çıł": 6037,
      "Ġdepend": 6038,
      ")=": 6039,
      "{A": 6040,
      "uit": 6041,
      "bm": 6042,
      "apter": 6043,
      "varepsilon": 6044,
      "ili": 6045,
      "level": 6046,
      "ees": 6047,
      "Ġtypes": 6048,
      "^{(": 6049,
      "Ġliving": 6050,
      "ĠDo": 6051,
      "idget": 6052,
      "uint": 6053,
      "ãĢģãĢĬ": 6054,
      "{M": 6055,
      "','": 6056,
      "Ġstandard": 6057,
      "std": 6058,
      "ington": 6059,
      "Ġmarri": 6060,
      "obj": 6061,
      "æĲľç´¢": 6062,
      "å¾Ħ": 6063,
      "Ġheart": 6064,
      "ä¸»ä¹ī": 6065,
      "Ġuint": 6066,
      "Ġidea": 6067,
      "{c": 6068,
      "istory": 6069,
      "wise": 6070,
      "Ġdetermin": 6071,
      "acing": 6072,
      "ĠNovember": 6073,
      "çļĦæĸ°": 6074,
      "ĠCent": 6075,
      "Ġupdate": 6076,
      "Ġsw": 6077,
      "Ġrelated": 6078,
      "å®ŀéªĮ": 6079,
      "åĪº": 6080,
      "å·§": 6081,
      "Instance": 6082,
      "oo": 6083,
      "encies": 6084,
      "ĠAb": 6085,
      "éĥ½æľī": 6086,
      "ĠST": 6087,
      "acher": 6088,
      "æ·»": 6089,
      "BC": 6090,
      "reen": 6091,
      "å¡«": 6092,
      "Ġ...": 6093,
      "Ġbehav": 6094,
      "ä¹Łä¸į": 6095,
      "å®ŀè·µ": 6096,
      "Ġemb": 6097,
      "ĠAcc": 6098,
      "Ġmiss": 6099,
      "unk": 6100,
      "Ġspect": 6101,
      "Ġcondition": 6102,
      "æ»¡è¶³": 6103,
      "ä¼Ĭ": 6104,
      "çĲĨè®º": 6105,
      "ä¸¥éĩį": 6106,
      "hood": 6107,
      "ounds": 6108,
      "/v": 6109,
      "çĶŁçī©": 6110,
      "})$": 6111,
      "ename": 6112,
      "Builder": 6113,
      "ä¼Ł": 6114,
      "æĶ¿æ²»": 6115,
      ",åį³": 6116,
      "Ġtransl": 6117,
      "åĲİçļĦ": 6118,
      "-based": 6119,
      "Ġvert": 6120,
      "Be": 6121,
      "Ġviol": 6122,
      "Ġinit": 6123,
      "Ġmoment": 6124,
      "Ġground": 6125,
      "ournal": 6126,
      "Ġwords": 6127,
      "Ġåľ¨": 6128,
      "atory": 6129,
      "Ġregard": 6130,
      "Ġåıª": 6131,
      "Ġespecially": 6132,
      "Ġinstead": 6133,
      "ĠWest": 6134,
      "å¢Ļ": 6135,
      "æ²ī": 6136,
      "egraphics": 6137,
      "èĲ¥éĶĢ": 6138,
      "includegraphics": 6139,
      "å®īæİĴ": 6140,
      "Ġpers": 6141,
      "æľīçļĦ": 6142,
      "åĳĬè¯ī": 6143,
      "Ġnight": 6144,
      "amily": 6145,
      "Ġworked": 6146,
      "çļĩ": 6147,
      "ttps": 6148,
      "Ġproducts": 6149,
      "Ġmatter": 6150,
      "Ġbank": 6151,
      "æķ´ä¸ª": 6152,
      "Ġfinancial": 6153,
      "-year": 6154,
      "è¦": 6155,
      "SON": 6156,
      "Ġincludes": 6157,
      "do": 6158,
      "\").": 6159,
      "Ġprior": 6160,
      "æī¿æĭħ": 6161,
      "åĲ´": 6162,
      "())": 6163,
      "æ³Ľ": 6164,
      "Ġnone": 6165,
      "').": 6166,
      "True": 6167,
      "Ġanalysis": 6168,
      "gorithm": 6169,
      "{P": 6170,
      "Ġgraph": 6171,
      "ervices": 6172,
      "ĠRuss": 6173,
      "Ġregular": 6174,
      "Ġfav": 6175,
      "non": 6176,
      "<li": 6177,
      "child": 6178,
      "è¯ģåĪ¸": 6179,
      "default": 6180,
      "Ġpositive": 6181,
      "Ġsoft": 6182,
      "Ġenj": 6183,
      "çĽĳçĿ£": 6184,
      "å®ĮåĸĦ": 6185,
      "icense": 6186,
      "Component": 6187,
      "åĲ¨": 6188,
      "Ġconstruct": 6189,
      "Ġapply": 6190,
      "åķĨåĬ¡": 6191,
      "Ġneeded": 6192,
      "çļĦæĥħåĨµ": 6193,
      "è¡ĮåĬ¨": 6194,
      "åĪĽä¸ļ": 6195,
      "EXT": 6196,
      "EMA": 6197,
      "Ġproblems": 6198,
      "Ġgames": 6199,
      "å¿ĥçĲĨ": 6200,
      "Stream": 6201,
      "Ġgetting": 6202,
      "æķ´ä½ĵ": 6203,
      "post": 6204,
      "ishing": 6205,
      "ialog": 6206,
      "èĥ½æºĲ": 6207,
      "{F": 6208,
      "éľĩ": 6209,
      "ä¹±": 6210,
      "éŀ": 6211,
      "Def": 6212,
      "ç§»åĬ¨": 6213,
      "Ġfunctions": 6214,
      "vision": 6215,
      "Ġled": 6216,
      "ugin": 6217,
      "âĢĻll": 6218,
      "ĠPer": 6219,
      "çĸ«æĥħ": 6220,
      "Ġapplic": 6221,
      "emph": 6222,
      ">(": 6223,
      "}=": 6224,
      "ĠCour": 6225,
      "Util": 6226,
      "èĤ¯": 6227,
      "PP": 6228,
      "BA": 6229,
      "é¸¡": 6230,
      "Ġhttps": 6231,
      "ç³ĸ": 6232,
      "Ġ-->Ċ": 6233,
      "çĩĥ": 6234,
      "{E": 6235,
      "Ġfollows": 6236,
      "lood": 6237,
      "draw": 6238,
      "Ġmethods": 6239,
      "æĽ´æĸ°": 6240,
      "åħ¶å®ŀ": 6241,
      "Ġbring": 6242,
      ",åħ¨": 6243,
      "ĠAmerica": 6244,
      "åľ°äº§": 6245,
      "Ġattempt": 6246,
      ")ãĢģ": 6247,
      "Ġlate": 6248,
      "_size": 6249,
      "Ġtold": 6250,
      "style": 6251,
      "è£ģ": 6252,
      "}čĊčĊ": 6253,
      "unch": 6254,
      "è¶ĬæĿ¥": 6255,
      "åľ£": 6256,
      "Ġbox": 6257,
      "é¦ĸé¡µ": 6258,
      "Pos": 6259,
      "rew": 6260,
      "itte": 6261,
      "Button": 6262,
      "ä»£çĲĨ": 6263,
      "dom": 6264,
      "Ġ~": 6265,
      "Ġconstant": 6266,
      "apan": 6267,
      "Ġsolid": 6268,
      "åĢį": 6269,
      "Ġdistribution": 6270,
      "ND": 6271,
      "elt": 6272,
      "ĠOff": 6273,
      "Ġintegr": 6274,
      "è¶ĬæĿ¥è¶Ĭ": 6275,
      "}^{\\": 6276,
      "'m": 6277,
      "åħ¬éĩĮ": 6278,
      "ä¸¾è¡Į": 6279,
      "author": 6280,
      "Ġecho": 6281,
      "}/": 6282,
      "Ġquality": 6283,
      "sup": 6284,
      "ç¬¦åĲĪ": 6285,
      "Ñı": 6286,
      "Ġparameter": 6287,
      "è·³": 6288,
      "Ġrecent": 6289,
      "block": 6290,
      "unt": 6291,
      "æĶ¯ä»ĺ": 6292,
      ",åĨį": 6293,
      "å¹´åº¦": 6294,
      "Ġcy": 6295,
      "%;Ċ": 6296,
      "!\"": 6297,
      "options": 6298,
      "oke": 6299,
      "Ġhon": 6300,
      "Ġvia": 6301,
      "å½»": 6302,
      "used": 6303,
      "fort": 6304,
      "aves": 6305,
      "ĠPresident": 6306,
      "Ġpopular": 6307,
      "ä½įäºİ": 6308,
      "How": 6309,
      "ĠĠĠĠĠĠĠĠĠĠĠĠĠĠĠĠĠĠĠĠĠ": 6310,
      "Ġborn": 6311,
      "Ġcut": 6312,
      "{x": 6313,
      "æ¹¿": 6314,
      "tributes": 6315,
      "gen": 6316,
      "è´Ŀ": 6317,
      "Method": 6318,
      "_x": 6319,
      "Ġsolution": 6320,
      "bruary": 6321,
      "(r": 6322,
      "aker": 6323,
      "Let": 6324,
      "Options": 6325,
      "ĠKing": 6326,
      "Ġwalk": 6327,
      "ederal": 6328,
      "é¾Ħ": 6329,
      "Ġprovides": 6330,
      "é¼ĵ": 6331,
      "Number": 6332,
      "ä¸įåı¯": 6333,
      "çľŁæŃ£": 6334,
      "Ġconsist": 6335,
      "Ġwebsite": 6336,
      "actions": 6337,
      "Ġassociated": 6338,
      "èĭ±è¯Ń": 6339,
      "Off": 6340,
      "æĺł": 6341,
      "Ġapprox": 6342,
      "rangle": 6343,
      "åįıä¼ļ": 6344,
      "older": 6345,
      "column": 6346,
      "å·¥èīº": 6347,
      "Ġ${\\": 6348,
      "Ġansw": 6349,
      ",åħ¶ä¸Ń": 6350,
      "Ġ(\"": 6351,
      "QL": 6352,
      "å¼±": 6353,
      "_list": 6354,
      "Ã¤": 6355,
      "æ·±åħ¥": 6356,
      "Ġsomeone": 6357,
      "Ġofficial": 6358,
      "mission": 6359,
      "è¯Ńè¨Ģ": 6360,
      "çłĶåıĳ": 6361,
      "æµı": 6362,
      "èĢ³": 6363,
      "Ġboolean": 6364,
      "Ġ.Ċ": 6365,
      "å±±ä¸ľ": 6366,
      "Ðº": 6367,
      "è¿ª": 6368,
      "ario": 6369,
      "Ġexpress": 6370,
      "Output": 6371,
      "Ġserved": 6372,
      "Ġtransform": 6373,
      "éĿ¢çļĦ": 6374,
      "Ġcomplete": 6375,
      "é©¶": 6376,
      "Ġcurrently": 6377,
      "group": 6378,
      "refix": 6379,
      "çķĻè¨Ģ": 6380,
      "Ġhttp": 6381,
      "ensive": 6382,
      "{L": 6383,
      "Ġface": 6384,
      "åħ¬å¼Ģ": 6385,
      "ĠVal": 6386,
      "Ent": 6387,
      "Ġadditional": 6388,
      "è±Ĩ": 6389,
      ".id": 6390,
      "ç½²": 6391,
      "è®°å½ķ": 6392,
      "/f": 6393,
      "èĥ¡": 6394,
      "istance": 6395,
      "What": 6396,
      "å¼ķèµ·": 6397,
      "æĹ¥æľŁ": 6398,
      "vis": 6399,
      "ä¹ĺ": 6400,
      "Ġdescription": 6401,
      "ython": 6402,
      "response": 6403,
      "Ġmanagement": 6404,
      "apping": 6405,
      "ocol": 6406,
      "Ġcontact": 6407,
      "çģ¾": 6408,
      "éĢĤåĲĪ": 6409,
      "æģ¶": 6410,
      "atal": 6411,
      "ship": 6412,
      "èªī": 6413,
      "Ġtechnology": 6414,
      ".æį®": 6415,
      "Ġupon": 6416,
      "åıĳæĮ¥": 6417,
      "Override": 6418,
      "Ġeval": 6419,
      "ãĢģ\"": 6420,
      "_E": 6421,
      "Ġsem": 6422,
      "-M": 6423,
      "Source": 6424,
      "resh": 6425,
      "atives": 6426,
      "æĳ©": 6427,
      "elling": 6428,
      "airs": 6429,
      "gment": 6430,
      "_ST": 6431,
      "æļ´": 6432,
      "ĠPark": 6433,
      ".ä»ĸ": 6434,
      "ille": 6435,
      "Ġdescribed": 6436,
      "urg": 6437,
      ".æŃ¤": 6438,
      "ilitary": 6439,
      "Ġoffice": 6440,
      "symbol": 6441,
      "åĬ³åĬ¨": 6442,
      "Ġwriting": 6443,
      "Ġengine": 6444,
      "çĶŁåĳ½": 6445,
      "cing": 6446,
      "æ©": 6447,
      "ellow": 6448,
      "ĠDes": 6449,
      "çĦ¦": 6450,
      "iqu": 6451,
      "Ġinj": 6452,
      "Ġexc": 6453,
      "Ġinflu": 6454,
      "çĥ§": 6455,
      "uel": 6456,
      "(new": 6457,
      "æľĢé«ĺ": 6458,
      "éĩıçļĦ": 6459,
      "(-": 6460,
      "Ġæĸ°": 6461,
      "aur": 6462,
      "åĽŀå¤į": 6463,
      "Ġfront": 6464,
      "Ġdecision": 6465,
      "åĶĲ": 6466,
      "éº»": 6467,
      "Ġ};Ċ": 6468,
      "verse": 6469,
      "åįģåĪĨ": 6470,
      "len": 6471,
      ",çĶ¨": 6472,
      "Ġsatisf": 6473,
      "ving": 6474,
      "åģı": 6475,
      "ç»´æĬ¤": 6476,
      "Ġ-->": 6477,
      "ctor": 6478,
      "Ġdegree": 6479,
      "ä¸įåĪ°": 6480,
      "çľŁçļĦ": 6481,
      "yles": 6482,
      "Ġpain": 6483,
      "Ġparty": 6484,
      "OM": 6485,
      "-N": 6486,
      "ĠBritish": 6487,
      "Ġassum": 6488,
      ",éĢļè¿ĩ": 6489,
      "Ġseem": 6490,
      "{sec": 6491,
      "Ġproperties": 6492,
      "agn": 6493,
      "èĴĻ": 6494,
      "cret": 6495,
      "])": 6496,
      "After": 6497,
      "ube": 6498,
      "zure": 6499,
      "ç¨ĭåº¦": 6500,
      "å¯¸": 6501,
      "åĬŀæ³ķ": 6502,
      "å°Ĭ": 6503,
      "Ġ=Ċ": 6504,
      "si": 6505,
      "********************************": 6506,
      "undle": 6507,
      ".H": 6508,
      "Ġcopy": 6509,
      "å¹³æĸ¹": 6510,
      "oice": 6511,
      "-P": 6512,
      "æ¢ħ": 6513,
      "endif": 6514,
      ".æľ¬": 6515,
      "pat": 6516,
      "çļĦå·¥ä½ľ": 6517,
      "å§Ķåĳĺä¼ļ": 6518,
      "è¿ĩåİ»": 6519,
      "Ġdig": 6520,
      "important": 6521,
      "è¾ħ": 6522,
      "åħ¶å®ĥ": 6523,
      "Ġnatural": 6524,
      "},\\": 6525,
      "Ġbuy": 6526,
      "æµıè§Ī": 6527,
      "éĥĳ": 6528,
      "ĠEnglish": 6529,
      "Ġson": 6530,
      "ĠAm": 6531,
      "Ġclub": 6532,
      "éĶģ": 6533,
      "-A": 6534,
      "è´¯": 6535,
      "åĽłç´ł": 6536,
      ",åıĪ": 6537,
      "aset": 6538,
      "Ġreported": 6539,
      "So": 6540,
      "Ġconcern": 6541,
      "Ġfunc": 6542,
      "åįıè®®": 6543,
      "arter": 6544,
      "Ġitself": 6545,
      "ivil": 6546,
      "ĠAg": 6547,
      "åĪĬ": 6548,
      "Base": 6549,
      "vider": 6550,
      "çĸ¾çĹħ": 6551,
      "aign": 6552,
      "Start": 6553,
      "Ġlocation": 6554,
      "åı¦å¤ĸ": 6555,
      "Ġmodule": 6556,
      "èĪĴ": 6557,
      "ĠRec": 6558,
      "pected": 6559,
      "?\"": 6560,
      "cr": 6561,
      "Ġfriend": 6562,
      "like": 6563,
      ".å½ĵ": 6564,
      "exp": 6565,
      ",çĶ±": 6566,
      "Ġ``": 6567,
      "ĠData": 6568,
      "Ġexact": 6569,
      "Handler": 6570,
      "Resource": 6571,
      "ampions": 6572,
      "è¿Ľè¡ĮäºĨ": 6573,
      "Ġ(Ċ": 6574,
      "{H": 6575,
      "ç£¨": 6576,
      "cope": 6577,
      "Ġquick": 6578,
      "ĉf": 6579,
      "KE": 6580,
      "ĠFebruary": 6581,
      "æĦıè¯Ĩ": 6582,
      "Format": 6583,
      "Ġfrequ": 6584,
      "ĠHouse": 6585,
      "chan": 6586,
      "å·ŀå¸Ĥ": 6587,
      "åĭĩ": 6588,
      "è¿Ļä¹Ī": 6589,
      "æ¥ļ": 6590,
      "Action": 6591,
      "TD": 6592,
      "Ġess": 6593,
      "weight": 6594,
      "anced": 6595,
      "Ġcentury": 6596,
      "æĬ¥åĲį": 6597,
      "æĮ¯": 6598,
      "Ġfather": 6599,
      "ä¸Ĭä¸Ģ": 6600,
      "Ġä¸Ģ": 6601,
      "åı¬å¼Ģ": 6602,
      "è¿ĲèĲ¥": 6603,
      "ĠBar": 6604,
      "astic": 6605,
      ".y": 6606,
      "andid": 6607,
      "èµµ": 6608,
      "Ġäºº": 6609,
      "anger": 6610,
      "Ġwhite": 6611,
      "_path": 6612,
      "Ġalign": 6613,
      "Ġcourt": 6614,
      "container": 6615,
      "(C": 6616,
      "mon": 6617,
      "éĺ»": 6618,
      "æľīä¸Ģ": 6619,
      "=>": 6620,
      "Ġbad": 6621,
      "Ġinvolved": 6622,
      "Ġsche": 6623,
      "ha": 6624,
      "\\item": 6625,
      "Fl": 6626,
      "åŁºåľ°": 6627,
      "'),Ċ": 6628,
      "è´«": 6629,
      "åĦ¿ç«¥": 6630,
      "Ġconv": 6631,
      "åĺī": 6632,
      "æ¯Ķå¦Ĥ": 6633,
      "æķı": 6634,
      "zz": 6635,
      "ENT": 6636,
      "Â·Â·": 6637,
      "EMAIL": 6638,
      "ĠInternational": 6639,
      "Ġsecurity": 6640,
      "Ġenjoy": 6641,
      "å¸Ŀ": 6642,
      "ores": 6643,
      "ondon": 6644,
      "enced": 6645,
      "åıĳå±ķçļĦ": 6646,
      "è¢«åĳĬ": 6647,
      "Page": 6648,
      "-top": 6649,
      "Ġscale": 6650,
      "/j": 6651,
      "åĮĸçļĦ": 6652,
      "oted": 6653,
      "env": 6654,
      "Ġunit": 6655,
      "Ġtele": 6656,
      "åģ¿": 6657,
      "icip": 6658,
      "Ġelements": 6659,
      "Ġlines": 6660,
      "geq": 6661,
      "Ġrandom": 6662,
      "ç»Łè®¡": 6663,
      "Ġasset": 6664,
      "é»ĺ": 6665,
      "Ã¶": 6666,
      "èµŀ": 6667,
      "Ġcatch": 6668,
      "Ġ\\Ċ": 6669,
      "itude": 6670,
      "æľºåħ³": 6671,
      "Ġdam": 6672,
      "æ°§": 6673,
      "{D": 6674,
      "cf": 6675,
      "å¤ļå°ĳ": 6676,
      "-re": 6677,
      "des": 6678,
      "çİ¯ä¿Ŀ": 6679,
      "ĠChina": 6680,
      "ç¹ģ": 6681,
      "Per": 6682,
      "ĠMr": 6683,
      "ç¼ĺ": 6684,
      "ctx": 6685,
      "Ġforward": 6686,
      "Ġunique": 6687,
      "Big": 6688,
      "(v": 6689,
      "é²ģ": 6690,
      "ç»Łä¸Ģ": 6691,
      "Ġhours": 6692,
      "Ġtakes": 6693,
      ".io": 6694,
      "æµĻæ±Ł": 6695,
      "ĉs": 6696,
      "Ġsense": 6697,
      "ç»ĦæĪĲ": 6698,
      "çİ©å®¶": 6699,
      "æ³ī": 6700,
      ",éĥ½": 6701,
      "wide": 6702,
      "pri": 6703,
      "Ġways": 6704,
      "Ġoutside": 6705,
      "Ġgrowth": 6706,
      "Ġactive": 6707,
      "RA": 6708,
      "éĻįä½İ": 6709,
      "Ġ}čĊ": 6710,
      "rown": 6711,
      "Ñĭ": 6712,
      "-left": 6713,
      "Ġmultiple": 6714,
      "ography": 6715,
      "ç»ĵæĿŁ": 6716,
      "obile": 6717,
      "å£°æĺİ": 6718,
      "çħ¤": 6719,
      "è¶ĭ": 6720,
      "éĩĩè´Ń": 6721,
      "Ġformat": 6722,
      "riter": 6723,
      "Ã§": 6724,
      "Ġbi": 6725,
      "åŃķ": 6726,
      "æļĤ": 6727,
      "Ġselect": 6728,
      "Box": 6729,
      "ĠTrans": 6730,
      "Ġ${": 6731,
      "But": 6732,
      "atabase": 6733,
      "Ġexperi": 6734,
      "ĠTH": 6735,
      "-C": 6736,
      "Ġwr": 6737,
      "ç§¯åĪĨ": 6738,
      "ä¾µ": 6739,
      "Ġroad": 6740,
      "Ġresource": 6741,
      "arse": 6742,
      "ĠStud": 6743,
      "Ġplayer": 6744,
      "Ġrunning": 6745,
      "çĿ¡": 6746,
      "Ġlen": 6747,
      "åŃĻ": 6748,
      "eries": 6749,
      "æģ©": 6750,
      "Ġliter": 6751,
      ".~\\": 6752,
      "Sup": 6753,
      "Ġstay": 6754,
      "æĶ¹åıĺ": 6755,
      "é¦ĸåħĪ": 6756,
      "ĠEl": 6757,
      "åħ¬åĳĬ": 6758,
      "-sh": 6759,
      "ĠLet": 6760,
      "uate": 6761,
      "è¿ħ": 6762,
      "è¡¡": 6763,
      "èıĮ": 6764,
      "Ġshall": 6765,
      "ĠHer": 6766,
      "Ġ['": 6767,
      "ese": 6768,
      "ï¼Ĳ": 6769,
      "èļ": 6770,
      "IO": 6771,
      "istics": 6772,
      "è°·": 6773,
      "Ġbroad": 6774,
      "aches": 6775,
      "Ġful": 6776,
      "å¼ĢæĶ¾": 6777,
      "den": 6778,
      "æ®Ĭ": 6779,
      "aven": 6780,
      "itect": 6781,
      "HT": 6782,
      "è±ª": 6783,
      "hing": 6784,
      "Ġ]Ċ": 6785,
      "ï¼Ł": 6786,
      "Ġlives": 6787,
      "å±ķç¤º": 6788,
      "(i": 6789,
      "Ġestim": 6790,
      "Ġ\\,": 6791,
      "æłı": 6792,
      "åŃĶ": 6793,
      "Attribute": 6794,
      ".G": 6795,
      "éĹ²": 6796,
      "plies": 6797,
      "Ġcontains": 6798,
      "åıĤèĢĥ": 6799,
      "Point": 6800,
      "å¾Ĳ": 6801,
      "ĠPe": 6802,
      "å°¾": 6803,
      "roy": 6804,
      "PO": 6805,
      "æĬĢèĥ½": 6806,
      "æĸĩæĺİ": 6807,
      "áĥ": 6808,
      "è§ĤçĤ¹": 6809,
      "åĪĨäº«": 6810,
      "å¼Ł": 6811,
      "iting": 6812,
      "Ġleading": 6813,
      "ico": 6814,
      "å¡ŀ": 6815,
      "icles": 6816,
      "Ġhistor": 6817,
      "åįĩçº§": 6818,
      "Ġcapt": 6819,
      "-B": 6820,
      "å¥ĭ": 6821,
      "omb": 6822,
      "ä¼¦": 6823,
      "estern": 6824,
      "_a": 6825,
      "Ġrelease": 6826,
      "private": 6827,
      "imately": 6828,
      "Ġ}}": 6829,
      "Ġlost": 6830,
      "Ġåıªçľĭ": 6831,
      "éĩįå¤§": 6832,
      "ĠSm": 6833,
      "æĺİç¡®": 6834,
      "only": 6835,
      "æħ§": 6836,
      "varphi": 6837,
      "å¹¿å¤§": 6838,
      "è·Ŀç¦»": 6839,
      ";</": 6840,
      "-item": 6841,
      "Ġimm": 6842,
      "åĲĪçĲĨ": 6843,
      "ĠWhile": 6844,
      "Ġconduct": 6845,
      "ĠHigh": 6846,
      "åĪĢ": 6847,
      "Ġknowledge": 6848,
      "attle": 6849,
      "DA": 6850,
      "æļĹ": 6851,
      ",åĽłæŃ¤": 6852,
      "ĠèģĶç³»": 6853,
      "åĪĽéĢł": 6854,
      "Ġjud": 6855,
      "åĩºåı£": 6856,
      "ä¸ĭçļĦ": 6857,
      "æľºåĪ¶": 6858,
      "quare": 6859,
      "mar": 6860,
      "mult": 6861,
      "ĠJapan": 6862,
      "Ġdied": 6863,
      "\\section": 6864,
      "ĠValue": 6865,
      "Ġprofessional": 6866,
      "åĬĽéĩı": 6867,
      "Ġsimply": 6868,
      "_IN": 6869,
      "æķ°éĩı": 6870,
      ",çĦ¶åĲİ": 6871,
      "has": 6872,
      "<p": 6873,
      "Ġvill": 6874,
      "kit": 6875,
      "åħ¼": 6876,
      "TA": 6877,
      "æ¾³": 6878,
      "Ġroom": 6879,
      "Ġautom": 6880,
      "æľĢå¤§": 6881,
      "éģį": 6882,
      "uns": 6883,
      "ĠAssoci": 6884,
      "Ġstation": 6885,
      "èµĦæł¼": 6886,
      "etch": 6887,
      "Ġquite": 6888,
      "rench": 6889,
      "ĠCenter": 6890,
      "éĩįåºĨ": 6891,
      "ĠãĢĲ": 6892,
      ".cl": 6893,
      "irtual": 6894,
      "Ġsort": 6895,
      "'ve": 6896,
      "åĳĪ": 6897,
      "ĉp": 6898,
      "æ°ĳæĹı": 6899,
      "Ġwor": 6900,
      "Ġprotected": 6901,
      "Ġcalcul": 6902,
      "Ġnumer": 6903,
      "Label": 6904,
      "Equal": 6905,
      "Ġnecessary": 6906,
      "ç¬¬åĽĽ": 6907,
      "EE": 6908,
      "æİĪæĿĥ": 6909,
      "èĦĤ": 6910,
      "Ġque": 6911,
      "ä¼ļæľī": 6912,
      "Ġfriends": 6913,
      "Ġeverything": 6914,
      "åıªæĺ¯": 6915,
      "æĿ¥çľĭ": 6916,
      ",æĬĬ": 6917,
      "Ġmedical": 6918,
      "æĬ½": 6919,
      "ĠDav": 6920,
      "images": 6921,
      ".append": 6922,
      "å¤ļçļĦ": 6923,
      ".data": 6924,
      "çĲĨå¿µ": 6925,
      "æĻĵ": 6926,
      "Valid": 6927,
      "Block": 6928,
      "èĳ£äºĭ": 6929,
      "\\subsection": 6930,
      "èµ¢": 6931,
      ",åĬł": 6932,
      "è£ħä¿®": 6933,
      "Ġanything": 6934,
      "ï¿": 6935,
      "æĭĵ": 6936,
      "ĠĠĠĠĠĠĠĠĠĠĠĠĠĠĠĠĠĠĠĠĠĠĠĠĠĠĠĠĠĠĠĠĠĠĠĠĠĠĠ": 6937,
      "Ġneigh": 6938,
      "æ½ľ": 6939,
      "åºŁ": 6940,
      "Ġmatrix": 6941,
      "CL": 6942,
      "æĻ¶": 6943,
      "ITE": 6944,
      "è¯¥ä½ľèĢħ": 6945,
      "Ġeasy": 6946,
      "ouch": 6947,
      "å¿ĺ": 6948,
      "ming": 6949,
      "æĿ°": 6950,
      "ERR": 6951,
      "Em": 6952,
      "_set": 6953,
      "åħ¬åı¸çļĦ": 6954,
      "(_": 6955,
      "Ġlonger": 6956,
      "ç¥Ŀ": 6957,
      ".ä¸Ģ": 6958,
      "ëĭ": 6959,
      "Ġtheory": 6960,
      "DF": 6961,
      "ani": 6962,
      "erc": 6963,
      "ords": 6964,
      "achine": 6965,
      "-L": 6966,
      "BU": 6967,
      "Assembly": 6968,
      "æ³ķéĻ¢": 6969,
      "âĸĪâĸĪ": 6970,
      "ĠArt": 6971,
      "Ġweb": 6972,
      "ĠCollege": 6973,
      "iers": 6974,
      "ulations": 6975,
      "ä¸įéĶĻ": 6976,
      "ĠSim": 6977,
      "æį·": 6978,
      "GL": 6979,
      "Ġprinc": 6980,
      "(a": 6981,
      "hline": 6982,
      "ãģĻ": 6983,
      "Ġnews": 6984,
      "ĉP": 6985,
      "ä¸¹": 6986,
      "adow": 6987,
      "ãĢĭ,": 6988,
      "ĠãĢģ": 6989,
      "æ¢ģ": 6990,
      "arily": 6991,
      "ä¸ĭæĿ¥": 6992,
      "[\\": 6993,
      "Ġmoved": 6994,
      "ospital": 6995,
      "Rep": 6996,
      "IST": 6997,
      "asons": 6998,
      "road": 6999,
      "éģ¿åħį": 7000,
      "ensions": 7001,
      "ĠAc": 7002,
      "}}$": 7003,
      "ittee": 7004,
      "sf": 7005,
      "(S": 7006,
      "å°ıåŃ¦": 7007,
      "Ġthroughout": 7008,
      "-md": 7009,
      "mselves": 7010,
      "éĵº": 7011,
      "oding": 7012,
      "éĽĨä¸Ń": 7013,
      "],Ċ": 7014,
      "æİ¨å¹¿": 7015,
      "Member": 7016,
      "ĠLondon": 7017,
      "Ġsold": 7018,
      "ilies": 7019,
      "&\\": 7020,
      "åĬŀçĲĨ": 7021,
      "å®ĩ": 7022,
      "{tab": 7023,
      "éī": 7024,
      "reet": 7025,
      "ĠChar": 7026,
      "Ġtrying": 7027,
      "Ġlegal": 7028,
      "Ġgoal": 7029,
      "éħįç½®": 7030,
      "ĉvar": 7031,
      "ä¸ºä¸»": 7032,
      ".Get": 7033,
      "Ġhope": 7034,
      "ä¸įå°ĳ": 7035,
      "nov": 7036,
      "è®¤çľŁ": 7037,
      "Column": 7038,
      "Ġtravel": 7039,
      "Ġdeveloped": 7040,
      "Ġthemselves": 7041,
      "è¯Ħä»·": 7042,
      "Ġwhose": 7043,
      "({": 7044,
      "Ġqual": 7045,
      "izes": 7046,
      "Ġdistr": 7047,
      "å°±ä¸ļ": 7048,
      "dt": 7049,
      "Ġreturned": 7050,
      "Ġfields": 7051,
      "Ġusually": 7052,
      "Ġprote": 7053,
      "æ¶Ĥ": 7054,
      "Ġcontr": 7055,
      "emp": 7056,
      "Ġscal": 7057,
      "Ġrepl": 7058,
      "nected": 7059,
      "ÂłĠ": 7060,
      "Ġchurch": 7061,
      "efined": 7062,
      "ãĢģé«ĺ": 7063,
      "çī©æµģ": 7064,
      "fa": 7065,
      "ĠAng": 7066,
      "Ġflex": 7067,
      "Ġfit": 7068,
      "Ġprogress": 7069,
      "Ġago": 7070,
      "Ġfire": 7071,
      "åİ»å¹´": 7072,
      "Ġir": 7073,
      "Ġstore": 7074,
      "DD": 7075,
      "%Ċ": 7076,
      "ĠGover": 7077,
      "ABLE": 7078,
      "Ġtemper": 7079,
      "éĿ¢å¯¹": 7080,
      "atrix": 7081,
      "lick": 7082,
      ":(": 7083,
      "Ġwait": 7084,
      "Ġpractice": 7085,
      "oring": 7086,
      "_count": 7087,
      "ä¹³": 7088,
      "pite": 7089,
      "ĠMark": 7090,
      "oly": 7091,
      "Ġannounced": 7092,
      "Ġtreatment": 7093,
      "ä¸įåĲĮçļĦ": 7094,
      "oz": 7095,
      "é¡¿": 7096,
      "Ġcontinu": 7097,
      "Default": 7098,
      "ä¸¥æł¼": 7099,
      "Ġwanted": 7100,
      "cel": 7101,
      "ĠDepartment": 7102,
      "################": 7103,
      "Ġuns": 7104,
      "æĬ¢": 7105,
      "éī´": 7106,
      "Return": 7107,
      ")$,": 7108,
      "Ġmaint": 7109,
      "Ġcause": 7110,
      "Ġåıªçľĭè¯¥ä½ľèĢħ": 7111,
      "ÃĹ": 7112,
      "å¤§ä¼ļ": 7113,
      "ln": 7114,
      "å®¾": 7115,
      "ĠObject": 7116,
      "stant": 7117,
      "èĤ¡ç¥¨": 7118,
      "ä¸¾åĬŀ": 7119,
      "Ġnov": 7120,
      "Ġsex": 7121,
      "èĥŀ": 7122,
      "Oper": 7123,
      "}ĊĊĊ": 7124,
      "Ġcorrect": 7125,
      "Ġcompos": 7126,
      "Ġserver": 7127,
      "term": 7128,
      "ara": 7129,
      "Ġdise": 7130,
      "Ġdetails": 7131,
      "æĺĮ": 7132,
      "ç»ıå¸¸": 7133,
      "-right": 7134,
      "ĠStr": 7135,
      "Ġprobably": 7136,
      "lib": 7137,
      "ĠEuropean": 7138,
      "çĮª": 7139,
      "Ġround": 7140,
      "åħ¬åħ±": 7141,
      "å°º": 7142,
      "Load": 7143,
      "Ġmother": 7144,
      "Ġthus": 7145,
      "\\u": 7146,
      "ĠSw": 7147,
      "å¦ĤæŃ¤": 7148,
      "xx": 7149,
      "pload": 7150,
      "base": 7151,
      "ä¼į": 7152,
      "Ġresources": 7153,
      "åĮħè£ħ": 7154,
      "ny": 7155,
      "Ġcomponent": 7156,
      "frak": 7157,
      "è®¤è¯Ĩ": 7158,
      "inding": 7159,
      "çļĦéĩįè¦ģ": 7160,
      "ERT": 7161,
      "OK": 7162,
      "Ġbehind": 7163,
      "root": 7164,
      "irit": 7165,
      "ç»ķ": 7166,
      "Ġey": 7167,
      "overline": 7168,
      "email": 7169,
      "fect": 7170,
      "éĿĴå¹´": 7171,
      "isions": 7172,
      "åĶ¯": 7173,
      "ocket": 7174,
      "host": 7175,
      "grad": 7176,
      "GB": 7177,
      "ULT": 7178,
      "onal": 7179,
      "ford": 7180,
      "Ġobtained": 7181,
      "æĪĲéķ¿": 7182,
      "ria": 7183,
      "ä¸ĢçĤ¹": 7184,
      "())Ċ": 7185,
      "Ġeconomic": 7186,
      "vey": 7187,
      "IZ": 7188,
      "ategy": 7189,
      "èĢĹ": 7190,
      "Ġstaff": 7191,
      "æ³¡": 7192,
      ".create": 7193,
      "OC": 7194,
      "URL": 7195,
      "Ġ[]Ċ": 7196,
      "ç»¿èī²": 7197,
      "Ġvict": 7198,
      "Ġfiles": 7199,
      "è´¡": 7200,
      "ãĢĭãĢģãĢĬ": 7201,
      "å¹¶ä¸į": 7202,
      "Ġtour": 7203,
      "/w": 7204,
      "ï¼ĳ": 7205,
      "Ġcoming": 7206,
      "_DE": 7207,
      "Null": 7208,
      "Update": 7209,
      "è·¨": 7210,
      "æ¯«": 7211,
      "Ġten": 7212,
      "Ġ<!--": 7213,
      "uge": 7214,
      "Ġpurch": 7215,
      "Ġensure": 7216,
      "æĦıä¹ī": 7217,
      "ao": 7218,
      "ä»ĵ": 7219,
      "å¢ŀå¼º": 7220,
      "just": 7221,
      "-align": 7222,
      "å°¤åħ¶": 7223,
      "Ġregister": 7224,
      "Sp": 7225,
      "Ġä¸ŃåĽ½": 7226,
      "æ·¡": 7227,
      "åĬĽçļĦ": 7228,
      "{p": 7229,
      "çļ®èĤ¤": 7230,
      "Ġä¸į": 7231,
      "ĠRE": 7232,
      "æģ¢": 7233,
      "èĩªèº«": 7234,
      "Entity": 7235,
      "ĠJes": 7236,
      ")^": 7237,
      "Ġadministr": 7238,
      ";čĊčĊ": 7239,
      "Ġphysical": 7240,
      "æľīäºĽ": 7241,
      "ican": 7242,
      "asc": 7243,
      "avy": 7244,
      "-bottom": 7245,
      "ç®Ģä»ĭ": 7246,
      "Ġhot": 7247,
      "Check": 7248,
      "Ġ[[": 7249,
      "ĉfor": 7250,
      "Ġcollection": 7251,
      "evelop": 7252,
      ")]": 7253,
      "Ġpick": 7254,
      ".ap": 7255,
      "vant": 7256,
      "ners": 7257,
      "é«ĺçļĦ": 7258,
      "èĭĹ": 7259,
      "ĠCourt": 7260,
      "æķĻæİĪ": 7261,
      "ĠIr": 7262,
      "Ġestablished": 7263,
      "ĠHar": 7264,
      "ĠUp": 7265,
      "æ´Ľ": 7266,
      "èµ¶": 7267,
      "è¯ģæĺİ": 7268,
      "ãĤĴ": 7269,
      "Ġlat": 7270,
      "Ġprice": 7271,
      "æīĵåį°": 7272,
      "Ġquestions": 7273,
      "hi": 7274,
      "Ġhor": 7275,
      "Ġallowed": 7276,
      "Ġasked": 7277,
      "Ġow": 7278,
      "ĠArm": 7279,
      "ĉN": 7280,
      "Ġeffective": 7281,
      "æıĴ": 7282,
      "ÐµÐ": 7283,
      "rows": 7284,
      "Ġstudent": 7285,
      "çĭ¬ç«ĭ": 7286,
      ",å°ı": 7287,
      "çĽ¸ä¿¡": 7288,
      "æīĭæľ¯": 7289,
      "ä»¥åĲİ": 7290,
      "Link": 7291,
      "åĸĿ": 7292,
      "Ġnothing": 7293,
      "ä¸ģ": 7294,
      "urance": 7295,
      "Ġpack": 7296,
      "olic": 7297,
      "èī¯å¥½çļĦ": 7298,
      "åĵģè´¨": 7299,
      "-up": 7300,
      "Ġmulti": 7301,
      "ka": 7302,
      "Url": 7303,
      "è´¸æĺĵ": 7304,
      "CP": 7305,
      "æķ¬": 7306,
      "Ġforce": 7307,
      "Command": 7308,
      "////////////////": 7309,
      "ĠSan": 7310,
      "{N": 7311,
      ".name": 7312,
      "FT": 7313,
      "Ġseems": 7314,
      "Ġresid": 7315,
      "ros": 7316,
      "reement": 7317,
      "ponents": 7318,
      "-v": 7319,
      ",éĤ£ä¹Ī": 7320,
      "UI": 7321,
      "Ġbooks": 7322,
      "iforn": 7323,
      "Ġrecomm": 7324,
      "Ġdeep": 7325,
      "```ĊĊ": 7326,
      "Ġserialized": 7327,
      "Ġhit": 7328,
      "Ġ\"\"\"Ċ": 7329,
      "oub": 7330,
      "Ġquery": 7331,
      "å¨±ä¹Ĳ": 7332,
      "çĶ¨çļĦ": 7333,
      "Ġtim": 7334,
      "ĠAir": 7335,
      "Ġawait": 7336,
      "éļĨ": 7337,
      "è¿Ļæł·çļĦ": 7338,
      "rote": 7339,
      "æ±Łèĭı": 7340,
      "utive": 7341,
      "dated": 7342,
      "erve": 7343,
      "å¥³æĢ§": 7344,
      "SA": 7345,
      "atur": 7346,
      "(int": 7347,
      "{proof": 7348,
      "tributed": 7349,
      ".con": 7350,
      "æŁ¥è¯¢": 7351,
      "Ġbasis": 7352,
      "{G": 7353,
      "âĹ": 7354,
      "ï¼ģ": 7355,
      "Ġ\"\"ĊĊ": 7356,
      "æī¶": 7357,
      "Ġarticle": 7358,
      "ĠSince": 7359,
      "Ġprevent": 7360,
      "è½¦è¾Ĩ": 7361,
      "Ġstage": 7362,
      "æ®ĭ": 7363,
      "Weight": 7364,
      "æĥ¯": 7365,
      "Ġaward": 7366,
      "maz": 7367,
      "duc": 7368,
      "Ġprec": 7369,
      "éĩĮçļĦ": 7370,
      "================================": 7371,
      ",çĽ®åīį": 7372,
      "-group": 7373,
      "status": 7374,
      "My": 7375,
      "Ġevidence": 7376,
      "ĠDE": 7377,
      "Ġargs": 7378,
      "Ġdistrict": 7379,
      "Ġ\"Ċ": 7380,
      "æµĵ": 7381,
      "èº«ä»½": 7382,
      "Ġparts": 7383,
      "å¼ĥ": 7384,
      "èµı": 7385,
      "{lem": 7386,
      "-a": 7387,
      "rypt": 7388,
      "plicit": 7389,
      "Ġdynam": 7390,
      "ĠReturn": 7391,
      "more": 7392,
      "%%": 7393,
      "miss": 7394,
      "Ġmilitary": 7395,
      "Hel": 7396,
      "ç½ļ": 7397,
      "æīĢåľ¨": 7398,
      "ares": 7399,
      "æĢª": 7400,
      "ä¸ĭåįĪ": 7401,
      "{T": 7402,
      "çĪ¸": 7403,
      "\\text": 7404,
      "Ġchalleng": 7405,
      "éĩĩåıĸ": 7406,
      "ĠMore": 7407,
      "âĶĢ": 7408,
      "Ġinterface": 7409,
      "Back": 7410,
      "icture": 7411,
      "Ġconstruction": 7412,
      "Ġemer": 7413,
      "Ġrank": 7414,
      "ĠFrom": 7415,
      "Sign": 7416,
      "Ġspecies": 7417,
      "parent": 7418,
      "åĪĳ": 7419,
      "è¿Ĳè¾ĵ": 7420,
      "æī£": 7421,
      "æ²¿": 7422,
      "ĠIndia": 7423,
      "è¿ŀæİ¥": 7424,
      "æľĹ": 7425,
      "ä¹Łæľī": 7426,
      "Web": 7427,
      "ä¸ºä»Ģä¹Ī": 7428,
      "Ġmention": 7429,
      "æĪĲæŀľ": 7430,
      "Ġscreen": 7431,
      "ĠFirst": 7432,
      "Ġsoon": 7433,
      "èĩªçĶ±": 7434,
      "AND": 7435,
      "edd": 7436,
      "Ġrelig": 7437,
      "unit": 7438,
      "ĠMon": 7439,
      "éº¦": 7440,
      "ios": 7441,
      "ĠII": 7442,
      "æī¾åĪ°": 7443,
      "Ġobtain": 7444,
      "åīĳ": 7445,
      "Ġpredict": 7446,
      "essages": 7447,
      "Ġavoid": 7448,
      "inated": 7449,
      "ĠUs": 7450,
      "ĠSch": 7451,
      "Ass": 7452,
      "ifornia": 7453,
      "æ³½": 7454,
      "anged": 7455,
      "Ġrev": 7456,
      "Ġparents": 7457,
      "Ġactivities": 7458,
      "();": 7459,
      "null": 7460,
      "å·¥ä½ľçļĦ": 7461,
      "stitute": 7462,
      "Ġrecently": 7463,
      "Ġeffects": 7464,
      "åĩĿ": 7465,
      "ä»Ļ": 7466,
      "la": 7467,
      ":\\": 7468,
      "ä»İäºĭ": 7469,
      "çŃ¹": 7470,
      "æĪĲäºĨ": 7471,
      "Ġexcept": 7472,
      "ä¸ĭéĻį": 7473,
      "å¹¿æ³Ľ": 7474,
      "atio": 7475,
      "åĩŃ": 7476,
      "Ġdirectly": 7477,
      "attr": 7478,
      "FI": 7479,
      "å¿Ļ": 7480,
      "stract": 7481,
      "Ġimmedi": 7482,
      "ĠDirect": 7483,
      "iation": 7484,
      "Ġusers": 7485,
      "èħĲ": 7486,
      "ĠInter": 7487,
      "ĠUK": 7488,
      "ĠChurch": 7489,
      "æģ¢å¤į": 7490,
      "Ġboard": 7491,
      "which": 7492,
      "Mod": 7493,
      "è¿ŀç»Ń": 7494,
      "Ġconnection": 7495,
      "è´·æ¬¾": 7496,
      "åĵªäºĽ": 7497,
      "èĻİ": 7498,
      "Ġstream": 7499,
      "ds": 7500,
      "rief": 7501,
      "Ġ},": 7502,
      "è¿¹": 7503,
      "ental": 7504,
      "Ġcapital": 7505,
      "ieved": 7506,
      "åİŁåĪĻ": 7507,
      "Ġmodern": 7508,
      "åĪĨç±»": 7509,
      "åĨħéĥ¨": 7510,
      "alle": 7511,
      "çī¹æ®Ĭ": 7512,
      "Ġsaw": 7513,
      "Ġinternal": 7514,
      "lier": 7515,
      "Ġinstit": 7516,
      "âĺ": 7517,
      "æķ¢": 7518,
      "èĤĮ": 7519,
      "Ġselected": 7520,
      "åĬłçĽŁ": 7521,
      "Ġsus": 7522,
      "boldsymbol": 7523,
      "å°±ä¼ļ": 7524,
      "è²": 7525,
      "FC": 7526,
      "èĲ¨": 7527,
      "ä¸Ģä½ĵ": 7528,
      "ĠSub": 7529,
      "è®¡ç®Ĺæľº": 7530,
      "Ġmid": 7531,
      "ried": 7532,
      "under": 7533,
      "ĠCH": 7534,
      "display": 7535,
      "ä¼ĺåĮĸ": 7536,
      "å¥½åıĭ": 7537,
      "edia": 7538,
      "çĲĨè§£": 7539,
      "mitted": 7540,
      "appa": 7541,
      "Ġsituation": 7542,
      "Ġisn": 7543,
      "TG": 7544,
      "PL": 7545,
      "å¹´è½»": 7546,
      "Ġjo": 7547,
      "Part": 7548,
      "Ġexists": 7549,
      "ining": 7550,
      "åĭ¤": 7551,
      "è½´": 7552,
      "æĿŃ": 7553,
      "ampionship": 7554,
      "äº¡": 7555,
      "dr": 7556,
      "(l": 7557,
      "Ġallows": 7558,
      "éĵ¾æİ¥": 7559,
      "Ġentry": 7560,
      "gl": 7561,
      "Ġhimself": 7562,
      "Buffer": 7563,
      "NS": 7564,
      "mathfrak": 7565,
      "æ¸©åº¦": 7566,
      "Ġpret": 7567,
      "Ġplatform": 7568,
      "ĠType": 7569,
      "å²Ĺä½į": 7570,
      "åĪ¶å®ļ": 7571,
      "ici": 7572,
      "olute": 7573,
      "æ´ŀ": 7574,
      "Ġdevice": 7575,
      ",å¹¶ä¸Ķ": 7576,
      "can": 7577,
      "è¾ĵåħ¥": 7578,
      "-width": 7579,
      ",åºĶ": 7580,
      "å¯Ĵ": 7581,
      "gn": 7582,
      "(M": 7583,
      "Ġoperation": 7584,
      "irth": 7585,
      "untime": 7586,
      "æĬķåħ¥": 7587,
      "åħļåĳĺ": 7588,
      "Ġgives": 7589,
      "Ġemail": 7590,
      "ĠCouncil": 7591,
      "buf": 7592,
      "åĲĦé¡¹": 7593,
      "langle": 7594,
      "RL": 7595,
      "ç´«": 7596,
      "cap": 7597,
      "è´Łè´£äºº": 7598,
      "æ³¥": 7599,
      "Ġandroid": 7600,
      "æĹ¶å°ļ": 7601,
      "ufact": 7602,
      "è°ĵ": 7603,
      "Ġsound": 7604,
      "oder": 7605,
      "éĶĭ": 7606,
      "ĠRef": 7607,
      "ä¸Ĭè¿°": 7608,
      "çĶŁçļĦ": 7609,
      "leep": 7610,
      "rought": 7611,
      "Ġincreasing": 7612,
      "Ġdesigned": 7613,
      "Ġuses": 7614,
      "ÉĻ": 7615,
      "olid": 7616,
      "ä¸ĸçºª": 7617,
      "èħ¾": 7618,
      "Ġeveryone": 7619,
      "abla": 7620,
      "åľŁåľ°": 7621,
      "};ĊĊ": 7622,
      "useum": 7623,
      "Ġpolice": 7624,
      "æĺ¯ä¸Ģç§į": 7625,
      "rics": 7626,
      "åĲĦç±»": 7627,
      "é£İæł¼": 7628,
      "ĠAPI": 7629,
      "å¸ĸåŃĲ": 7630,
      "ä¹Į": 7631,
      "æĸĩåŃĹ": 7632,
      "åĨħçļĦ": 7633,
      "stall": 7634,
      "Ġmode": 7635,
      "æĶ¶èĹı": 7636,
      "ç¥ĸ": 7637,
      "Ġprograms": 7638,
      "ATION": 7639,
      "ATA": 7640,
      "ldots": 7641,
      "ĉthis": 7642,
      "info": 7643,
      "Ġtherefore": 7644,
      "<a": 7645,
      "Ġnote": 7646,
      "Ġstar": 7647,
      "Ġdepart": 7648,
      "Ext": 7649,
      "Ġnp": 7650,
      "åĽ°éļ¾": 7651,
      "empty": 7652,
      "ĠFrench": 7653,
      "olve": 7654,
      "rep": 7655,
      "ĠJust": 7656,
      "åĬ¨åĬĽ": 7657,
      "ĠMich": 7658,
      "æĮĩåĩº": 7659,
      "Ġproposed": 7660,
      "ĉĉĉĉĉĉĉ": 7661,
      "notation": 7662,
      "äº«åıĹ": 7663,
      "èİ«": 7664,
      "Ġstudies": 7665,
      "/h": 7666,
      "ä¼ĺè´¨": 7667,
      "_file": 7668,
      "æī«": 7669,
      "CG": 7670,
      "isl": 7671,
      "çĶĺ": 7672,
      "ãĥ³": 7673,
      "Ġphase": 7674,
      "æĬµ": 7675,
      "ä½łä»¬": 7676,
      "æŃ£ç¡®": 7677,
      "urren": 7678,
      "é©±": 7679,
      "UP": 7680,
      "Ġlevels": 7681,
      "[width": 7682,
      "äºĭä»¶": 7683,
      "éģµ": 7684,
      "Ġtransfer": 7685,
      "æľĢè¿ĳ": 7686,
      "äºĮåįģ": 7687,
      "è¿Ļæĺ¯": 7688,
      "ĠserializedVersion": 7689,
      "Ġcampaign": 7690,
      "ĠHealth": 7691,
      "å½ĵåľ°": 7692,
      "izations": 7693,
      "ĠGroup": 7694,
      "å±ħæ°ĳ": 7695,
      "Ġdefine": 7696,
      "lying": 7697,
      "ĠFig": 7698,
      "sv": 7699,
      "äº©": 7700,
      ",çľĭ": 7701,
      "Ġlib": 7702,
      "Spec": 7703,
      "Ġproduced": 7704,
      "éĤ£äºĽ": 7705,
      "ota": 7706,
      "rapper": 7707,
      "Lambda": 7708,
      ".py": 7709,
      "Ġopportunity": 7710,
      "graph": 7711,
      "ä¿Ħ": 7712,
      "Ġbre": 7713,
      "Ġreturns": 7714,
      "Ġchanged": 7715,
      "ORT": 7716,
      "åĲ¯åĬ¨": 7717,
      "ariant": 7718,
      "å²¸": 7719,
      "het": 7720,
      "namespace": 7721,
      "ĠEast": 7722,
      "Ġlinear": 7723,
      "æ§": 7724,
      "è´¢åĬ¡": 7725,
      ",ä»¥åıĬ": 7726,
      "çĭĹ": 7727,
      "å¹¸ç¦ı": 7728,
      "rael": 7729,
      "èĤ¡ä¸ľ": 7730,
      "merc": 7731,
      "She": 7732,
      "åıĮæĸ¹": 7733,
      "Ġutil": 7734,
      "çĽ¸å¯¹": 7735,
      "Ġwatch": 7736,
      "=\\\"": 7737,
      ",ä¸Ń": 7738,
      "oto": 7739,
      "éĶħ": 7740,
      "æ³¨æĺİ": 7741,
      "Ġaccur": 7742,
      "è¦Ĩ": 7743,
      "Ġprojects": 7744,
      "erved": 7745,
      "Ġconcept": 7746,
      "ĠLeague": 7747,
      "-sm": 7748,
      "otes": 7749,
      "ĉd": 7750,
      "ĠCalifornia": 7751,
      "CS": 7752,
      "Ġdistance": 7753,
      "äººå£«": 7754,
      "acters": 7755,
      "ç±į": 7756,
      "])Ċ": 7757,
      "band": 7758,
      "Ġplaying": 7759,
      "stream": 7760,
      "ustr": 7761,
      "values": 7762,
      "æĽ¿": 7763,
      "onstr": 7764,
      "çİ°è±¡": 7765,
      "çĤ¼": 7766,
      "UB": 7767,
      "æķĪçİĩ": 7768,
      "éĩįè¦ģçļĦ": 7769,
      "mine": 7770,
      "Ge": 7771,
      "Ġvector": 7772,
      "atively": 7773,
      "-time": 7774,
      "Ġdifference": 7775,
      "Ġitems": 7776,
      "istrict": 7777,
      ".$": 7778,
      "èİ±": 7779,
      "mbox": 7780,
      "å¯¿": 7781,
      "ä¼ļè®¡": 7782,
      "Ġindependent": 7783,
      "-x": 7784,
      "strict": 7785,
      "Ġrelative": 7786,
      "Ġbeaut": 7787,
      "éģĵè·¯": 7788,
      "Dr": 7789,
      "Äģ": 7790,
      "éĩĳå±ŀ": 7791,
      "ests": 7792,
      "ĠService": 7793,
      "Ġattention": 7794,
      "page": 7795,
      "ĠPhil": 7796,
      "Ġbar": 7797,
      "olar": 7798,
      "è®Ńç»ĥ": 7799,
      "ĠRed": 7800,
      "æĥ³è¦ģ": 7801,
      "å¯¹è±¡": 7802,
      "Ġgir": 7803,
      ",çİ°åľ¨": 7804,
      "~~~~": 7805,
      "Ġcandid": 7806,
      "å¤ļç§į": 7807,
      "Factory": 7808,
      ",æĸ°": 7809,
      "Ġlarger": 7810,
      "Row": 7811,
      "hent": 7812,
      "Ġsens": 7813,
      "Ġnumbers": 7814,
      "Ġorganization": 7815,
      "ean": 7816,
      "Phi": 7817,
      "Ġlargest": 7818,
      "Ġnature": 7819,
      ".æĪĳä»¬": 7820,
      "å°¿": 7821,
      "ensuremath": 7822,
      "åĪĽå»º": 7823,
      "Ġchoose": 7824,
      "çļĦæĹ¶éĹ´": 7825,
      "Ġnorth": 7826,
      "Ġseek": 7827,
      "Ġacqu": 7828,
      "æı´": 7829,
      "ä¸īä¸ª": 7830,
      "æ³ķè§Ħ": 7831,
      "Ġleave": 7832,
      "Ġdrug": 7833,
      ".J": 7834,
      "å®ı": 7835,
      "åı°æ¹¾": 7836,
      "å®¿": 7837,
      "core": 7838,
      "Ġpatients": 7839,
      "-Ċ": 7840,
      "Ġalthough": 7841,
      "citep": 7842,
      "orge": 7843,
      "Ġimages": 7844,
      "alls": 7845,
      "æģĴ": 7846,
      "illing": 7847,
      "Ġdetail": 7848,
      "Ġwrote": 7849,
      "Ġreceive": 7850,
      "Ġconnect": 7851,
      "Ġrot": 7852,
      "command": 7853,
      "ĠCons": 7854,
      "å¦Īå¦Ī": 7855,
      "Ġplayers": 7856,
      "ĠJesus": 7857,
      "frame": 7858,
      "åĪ©æ¶¦": 7859,
      "fully": 7860,
      "å¹³åĿĩ": 7861,
      "Ġteacher": 7862,
      "room": 7863,
      "Ġfixed": 7864,
      "Ġappoint": 7865,
      "Ġscript": 7866,
      "ky": 7867,
      "ÑĮ": 7868,
      "Ġanswer": 7869,
      "æľ±": 7870,
      "Ġpattern": 7871,
      ",æŃ¤": 7872,
      "Ġrespectively": 7873,
      "Ġtowards": 7874,
      "çİ»": 7875,
      "Ġability": 7876,
      "Ġsample": 7877,
      "è®¿éĹ®": 7878,
      "å°ĺ": 7879,
      "Ġrule": 7880,
      "ĠCanada": 7881,
      "èµĦæľ¬": 7882,
      "çĽĲ": 7883,
      "Ġsomet": 7884,
      "åĨľæ°ĳ": 7885,
      "Function": 7886,
      "ĠSen": 7887,
      "ĠLog": 7888,
      "Ġbal": 7889,
      "Ġjoin": 7890,
      "åĽĽå·Ŀ": 7891,
      "PR": 7892,
      "Server": 7893,
      "Ġgas": 7894,
      "äº¦": 7895,
      "Ġfem": 7896,
      "çıį": 7897,
      "ĉcase": 7898,
      "åĪł": 7899,
      "Http": 7900,
      "æ²ŁéĢļ": 7901,
      "æĩĤ": 7902,
      ",æ²¡æľī": 7903,
      "()->": 7904,
      "åĸ·": 7905,
      "Ġveh": 7906,
      "å¤ļä¸ª": 7907,
      "<T": 7908,
      "Ġetc": 7909,
      ".google": 7910,
      "Ġwindow": 7911,
      "çĽĳç®¡": 7912,
      ",å°±æĺ¯": 7913,
      "å®¶éķ¿": 7914,
      "åĩłä¸ª": 7915,
      "OW": 7916,
      "Ġreference": 7917,
      "Ġschools": 7918,
      ",èĥ½": 7919,
      "ç¯®": 7920,
      "tx": 7921,
      "()ĊĊ": 7922,
      "aints": 7923,
      "Ed": 7924,
      "Comp": 7925,
      "Ġfilter": 7926,
      "Ġhous": 7927,
      "åİ¦": 7928,
      "ĠLaw": 7929,
      "ĠWilliam": 7930,
      "å¾ª": 7931,
      "ç¾Ĭ": 7932,
      "hest": 7933,
      "é«ĺçº§": 7934,
      "ĠRepublic": 7935,
      "exec": 7936,
      "Ġchoice": 7937,
      ":h": 7938,
      "Ġmeeting": 7939,
      "æ¯ıå¤©": 7940,
      "å¿Ĩ": 7941,
      "ĉĠ": 7942,
      "Ġcomment": 7943,
      "Ġgave": 7944,
      "Ġos": 7945,
      "ĠRev": 7946,
      "Ġcompared": 7947,
      "Ġcorresponding": 7948,
      "Ġfight": 7949,
      "force": 7950,
      "ãģĹ": 7951,
      "ĠEm": 7952,
      "Ġlack": 7953,
      "çģ°": 7954,
      "å¦Ĥä¸ĭ": 7955,
      ".ä»İ": 7956,
      "ecause": 7957,
      "<!--": 7958,
      "offset": 7959,
      "Create": 7960,
      "Ġ{{": 7961,
      "ï¼Įåľ¨": 7962,
      "Ġprep": 7963,
      "elebr": 7964,
      "ĠGeneral": 7965,
      "NA": 7966,
      "åĬŀåħ¬å®¤": 7967,
      "rightarrow": 7968,
      "yper": 7969,
      "Bl": 7970,
      "Ġdirection": 7971,
      "æİĮæı¡": 7972,
      "ech": 7973,
      "Ġzero": 7974,
      "Ġcentral": 7975,
      "Address": 7976,
      "åĩĨç¡®": 7977,
      "æĳĺ": 7978,
      "åĮĸåŃ¦": 7979,
      "Ġdirector": 7980,
      "Ġdensity": 7981,
      "åħ¬å¸ĥ": 7982,
      "æīİ": 7983,
      "btn": 7984,
      "ĠNOT": 7985,
      "({Ċ": 7986,
      "ael": 7987,
      "ĠÐ¿": 7988,
      "\",\"\",\"": 7989,
      "å½¢è±¡": 7990,
      "æ¸ł": 7991,
      "Ġpassed": 7992,
      "Ġextrem": 7993,
      "Ġwoman": 7994,
      "main": 7995,
      "Ġcard": 7996,
      "nes": 7997,
      "ĠDem": 7998,
      "æĪ´": 7999,
      "èģĮå·¥": 8000,
      "Ġreli": 8001,
      "æ¦ľ": 8002,
      "æģĲ": 8003,
      "ĠFile": 8004,
      "eto": 8005,
      "Ġweeks": 8006,
      "<span": 8007,
      "çķħ": 8008,
      "æľĢå¤§çļĦ": 8009,
      "çĻ»è®°": 8010,
      "Ġcam": 8011,
      ".class": 8012,
      "Ġer": 8013,
      "Ġwife": 8014,
      "Ġinside": 8015,
      "æģĭ": 8016,
      "ĠFl": 8017,
      "Arg": 8018,
      "(),Ċ": 8019,
      "ç»ıåİĨ": 8020,
      "Ġcoord": 8021,
      "Ġrules": 8022,
      "ĠNe": 8023,
      "\\|": 8024,
      "å¤©æ´¥": 8025,
      "ãģ«": 8026,
      "Ġsetting": 8027,
      "{b": 8028,
      "pret": 8029,
      "})Ċ": 8030,
      "æııè¿°": 8031,
      "å¹³æĸ¹ç±³": 8032,
      "ĠOur": 8033,
      "aily": 8034,
      "Ġdecided": 8035,
      "Ġpresident": 8036,
      "kg": 8037,
      "ä¸»åĬ¨": 8038,
      "false": 8039,
      "Ġpark": 8040,
      "Ġmemory": 8041,
      "çĮ«": 8042,
      "å£ģ": 8043,
      "Ġfactor": 8044,
      "èĤ¯å®ļ": 8045,
      "éŀĭ": 8046,
      "èĦī": 8047,
      "{čĊ": 8048,
      "å¿«ä¹Ĳ": 8049,
      "è´¡çĮ®": 8050,
      "æĻ¨": 8051,
      "Ġsoftware": 8052,
      "LL": 8053,
      "äºĨä¸Ģä¸ª": 8054,
      "ams": 8055,
      "Ġprop": 8056,
      "&gt": 8057,
      "èĭ±åĽ½": 8058,
      "ä¾Ŀæ³ķ": 8059,
      "è¯ĳ": 8060,
      "éģŃ": 8061,
      "cons": 8062,
      "æĸ°åįİ": 8063,
      "åĲ¸å¼ķ": 8064,
      "Ġmsg": 8065,
      "æľĪä»½": 8066,
      "æĪ¿åľ°äº§": 8067,
      "ounter": 8068,
      "Char": 8069,
      "Ġsurface": 8070,
      "çº¹": 8071,
      "Ġfamilies": 8072,
      ";\\": 8073,
      "Ġobj": 8074,
      "å¦»": 8075,
      "åħ·å¤ĩ": 8076,
      "Ġnames": 8077,
      "æµģç¨ĭ": 8078,
      "oon": 8079,
      "è¿ĳæĹ¥": 8080,
      "ĠĠĠĠĠĠĠĠĠĠĠĠĠĠĠĠĠĠĠĠ": 8081,
      "èģĮä½į": 8082,
      "Order": 8083,
      "Ġvers": 8084,
      "é¢ľèī²": 8085,
      "-D": 8086,
      "åħ³éĹŃ": 8087,
      "orph": 8088,
      "CR": 8089,
      "æ¨ª": 8090,
      "ÐµÐ½": 8091,
      "Ġtang": 8092,
      "åģļåĪ°": 8093,
      "Ġhandle": 8094,
      "erence": 8095,
      "rupt": 8096,
      "Ġcollect": 8097,
      "Ġfootball": 8098,
      "aughter": 8099,
      "req": 8100,
      "iform": 8101,
      "ç¬¬åįģ": 8102,
      "oundation": 8103,
      "æ²³åįĹ": 8104,
      "ashington": 8105,
      "éĤĢ": 8106,
      "textit": 8107,
      "Ġprimary": 8108,
      "æİ¨åĩº": 8109,
      "-T": 8110,
      "æ¶īåıĬ": 8111,
      "ĠIndian": 8112,
      ">&": 8113,
      "Ġsett": 8114,
      "iece": 8115,
      "åĬ¨æĢģ": 8116,
      "zer": 8117,
      "Ġbeginning": 8118,
      "çĴĥ": 8119,
      "lands": 8120,
      "æĽ¼": 8121,
      "Ġdemonstr": 8122,
      "entry": 8123,
      "igger": 8124,
      "åĲĽ": 8125,
      "Met": 8126,
      "çĬ¶åĨµ": 8127,
      "Ġanaly": 8128,
      "çĵ¦": 8129,
      "Ġcontinued": 8130,
      "Ġlimited": 8131,
      "_key": 8132,
      "Control": 8133,
      "ãĢĤĊĊ": 8134,
      ".)": 8135,
      "åįĹäº¬": 8136,
      "remove": 8137,
      "cp": 8138,
      "SD": 8139,
      ",æĢ»": 8140,
      "ç©ºæ°Ķ": 8141,
      "ĉt": 8142,
      "ously": 8143,
      "resource": 8144,
      ":b": 8145,
      "Ġones": 8146,
      "ida": 8147,
      "Select": 8148,
      "Listener": 8149,
      "-content": 8150,
      "å¤§åŀĭ": 8151,
      "éĩįæĸ°": 8152,
      "kappa": 8153,
      "Ġå¹´": 8154,
      "ĠPort": 8155,
      "éĥ½ä¼ļ": 8156,
      "Ġoperator": 8157,
      "Vis": 8158,
      "èģĬ": 8159,
      "Ġroot": 8160,
      ",å¤ļ": 8161,
      "å¹¼åĦ¿": 8162,
      "Ġstri": 8163,
      "{-": 8164,
      "/\\": 8165,
      "_add": 8166,
      "Ġtransition": 8167,
      "Ġprotect": 8168,
      "WR": 8169,
      "ims": 8170,
      "æľĢç»Ī": 8171,
      "ca": 8172,
      "]]": 8173,
      "Ġstarting": 8174,
      "ĠStreet": 8175,
      "èĸĦ": 8176,
      "Provider": 8177,
      "Ġdiscover": 8178,
      "then": 8179,
      "eration": 8180,
      "Ġstreng": 8181,
      "aught": 8182,
      "Ġsouth": 8183,
      "ĉĠĠĠ": 8184,
      "Ġexisting": 8185,
      "Ġworth": 8186,
      "product": 8187,
      "VE": 8188,
      "ĠNow": 8189,
      "ä¸Ģå¹´": 8190,
      ",åĲĮ": 8191,
      "æ®ĸ": 8192,
      "åĴĮåĽ½": 8193,
      "æĹ¥å¸¸": 8194,
      "Ġsend": 8195,
      "æĳĨ": 8196,
      "Ġê": 8197,
      "'ll": 8198,
      "Ġclean": 8199,
      "Ġminutes": 8200,
      "irus": 8201,
      "num": 8202,
      "-se": 8203,
      ".åĲĮæĹ¶": 8204,
      "æľºåĻ¨": 8205,
      "Ġoperations": 8206,
      "ččĊ": 8207,
      "quot": 8208,
      "Ġded": 8209,
      "ç»Ĩèĥŀ": 8210,
      "loor": 8211,
      "Ġtag": 8212,
      "Ġmovie": 8213,
      "åħ´è¶£": 8214,
      "è¾ī": 8215,
      "isation": 8216,
      "æĪĲéĥ½": 8217,
      "Ġsupported": 8218,
      "æ·»åĬł": 8219,
      "message": 8220,
      "Ġreading": 8221,
      "Ġsave": 8222,
      ",é«ĺ": 8223,
      "\"ãĢģ\"": 8224,
      "æ²Ī": 8225,
      "(String": 8226,
      "æŁĶ": 8227,
      "Ġpresented": 8228,
      "ĠIsrael": 8229,
      "///": 8230,
      "äº§åĵģçļĦ": 8231,
      "å®ĭ": 8232,
      "ĠCompany": 8233,
      "ĠSection": 8234,
      ")$.": 8235,
      "Ġedge": 8236,
      "åİŁåĳĬ": 8237,
      "æıĲç¤º": 8238,
      "ields": 8239,
      "lections": 8240,
      "è°¢è°¢": 8241,
      "element": 8242,
      "make": 8243,
      "çĽ¸å½ĵ": 8244,
      "æĭ¼": 8245,
      "Ġproper": 8246,
      "Ġhel": 8247,
      "æ±¤": 8248,
      "ä¼ģä¸ļçļĦ": 8249,
      "Ġspecified": 8250,
      "Ġwrong": 8251,
      ".assert": 8252,
      "åħ¬å®ī": 8253,
      "ä¼ĺæĥł": 8254,
      "æĶ¹åĸĦ": 8255,
      "æ±¡æŁĵ": 8256,
      "Ã£": 8257,
      "(P": 8258,
      "ALL": 8259,
      "æ¬²": 8260,
      "ĠAssociation": 8261,
      "ĠInitial": 8262,
      "éĶ¦": 8263,
      "ĠPal": 8264,
      "Ġinteresting": 8265,
      "oe": 8266,
      "_time": 8267,
      "mercial": 8268,
      "Ġmiddle": 8269,
      "æĬķèµĦèĢħ": 8270,
      "Ġmut": 8271,
      "FL": 8272,
      "Ġaltern": 8273,
      "Ġsubs": 8274,
      "Ġchannel": 8275,
      "åĢ¼å¾Ĺ": 8276,
      "entity": 8277,
      "Ġexpand": 8278,
      ",åį´": 8279,
      "Ġjson": 8280,
      "Ġ>=": 8281,
      "(data": 8282,
      "chedul": 8283,
      "Ġunc": 8284,
      "èĬ¯": 8285,
      "åıĳè¡Į": 8286,
      "æĪĲåĳĺ": 8287,
      "etime": 8288,
      "Ġthrows": 8289,
      "ãĤĭ": 8290,
      "æŁľ": 8291,
      "Ġsometimes": 8292,
      "method": 8293,
      "ĠOut": 8294,
      "Ġæ³¨åĨĮ": 8295,
      "å®ħ": 8296,
      "ç§ĳçłĶ": 8297,
      "Ġreve": 8298,
      "Ġmar": 8299,
      "æĹ¦": 8300,
      "\\x": 8301,
      "Ġgovern": 8302,
      "enge": 8303,
      "Ġequal": 8304,
      "Ġculture": 8305,
      "Ġign": 8306,
      "ç¢³": 8307,
      "eft": 8308,
      "ĠName": 8309,
      "(T": 8310,
      "è¢ĭ": 8311,
      "ĠHam": 8312,
      "Ġmechan": 8313,
      "Ġsurv": 8314,
      "é©¾é©¶": 8315,
      "Ġfollowed": 8316,
      "Ġcompl": 8317,
      "^^": 8318,
      "ĠPat": 8319,
      "Ġincreased": 8320,
      "Bar": 8321,
      "Ġcharg": 8322,
      "æ¬£": 8323,
      "Ġactivity": 8324,
      "ACE": 8325,
      "ĠUser": 8326,
      "Ġalt": 8327,
      "Style": 8328,
      "transform": 8329,
      "ĠTrue": 8330,
      "Ġfailed": 8331,
      "ç¢İ": 8332,
      "Ð²": 8333,
      "æ¼ı": 8334,
      "otion": 8335,
      "æŃ¦æ±ī": 8336,
      "card": 8337,
      "æ¯Ķä¾ĭ": 8338,
      "rial": 8339,
      "Ġbrought": 8340,
      "ulated": 8341,
      "None": 8342,
      "Ġremain": 8343,
      "ĠPaul": 8344,
      "DC": 8345,
      "è´¢æĶ¿": 8346,
      "Ġindividuals": 8347,
      ",æĪĸ": 8348,
      "That": 8349,
      "Ġearn": 8350,
      "Ġclosed": 8351,
      "çĦ¶èĢĮ": 8352,
      "æĹ¶æľŁ": 8353,
      "Ġcharacters": 8354,
      "å¢¨": 8355,
      "å¾½": 8356,
      "Ġproced": 8357,
      "Ġproof": 8358,
      "Ġmeaning": 8359,
      "AGE": 8360,
      "è®¤è¯ģ": 8361,
      "\";": 8362,
      "Ġspeed": 8363,
      "Ġserious": 8364,
      "æĬ±": 8365,
      "otimes": 8366,
      "Ġscient": 8367,
      "Ġstatement": 8368,
      "typ": 8369,
      ",ä¹Łæĺ¯": 8370,
      "Ġencour": 8371,
      "èĢĥçĶŁ": 8372,
      "ĠCommun": 8373,
      "ua": 8374,
      "ĠWork": 8375,
      "fin": 8376,
      "éħįåĲĪ": 8377,
      "Ġperfect": 8378,
      "Filter": 8379,
      "\\caption": 8380,
      "\\frac": 8381,
      "å¿ħè¦ģ": 8382,
      "æľ¬æ¬¡": 8383,
      "QQ": 8384,
      "_value": 8385,
      "ago": 8386,
      "Read": 8387,
      "Ġremember": 8388,
      "ç²®": 8389,
      "Ġåıĳå¸ĥ": 8390,
      "\\%": 8391,
      "haps": 8392,
      "Ġtree": 8393,
      "ya": 8394,
      "éĵľ": 8395,
      "å°±åı¯ä»¥": 8396,
      "eck": 8397,
      "local": 8398,
      ",å¾Ī": 8399,
      "åı¦ä¸Ģ": 8400,
      "Ġfast": 8401,
      "Types": 8402,
      "æ·ĺ": 8403,
      "ACK": 8404,
      "ä»ģ": 8405,
      "æĹĭ": 8406,
      "å§Ķä¼ļ": 8407,
      "usiness": 8408,
      "aud": 8409,
      "æľīäºº": 8410,
      "Layout": 8411,
      "Ġcompar": 8412,
      "æľĢä½³": 8413,
      "LS": 8414,
      "clude": 8415,
      "small": 8416,
      "Ġ*/ĊĊ": 8417,
      "å¦¹": 8418,
      "çĶµæ±ł": 8419,
      "ÑģÑĤ": 8420,
      "itiz": 8421,
      "å®ļçļĦ": 8422,
      "è¯¸": 8423,
      "Ġperformed": 8424,
      "ening": 8425,
      "olicy": 8426,
      "æīĵå¼Ģ": 8427,
      "java": 8428,
      "ĠEngland": 8429,
      "Ġtrust": 8430,
      "é¢Ħè®¡": 8431,
      "Ġsets": 8432,
      "omain": 8433,
      "hs": 8434,
      "Ġfavor": 8435,
      "ç»´ä¿®": 8436,
      "API": 8437,
      "ćĈ": 8438,
      ".å¦Ĥ": 8439,
      "é©»": 8440,
      "ĠCr": 8441,
      "count": 8442,
      "_url": 8443,
      "è¶ĭåĬ¿": 8444,
      ".net": 8445,
      "Ġtrain": 8446,
      "çªģçł´": 8447,
      "éĩįè§Ĩ": 8448,
      "åĮ»çĶŁ": 8449,
      "tributions": 8450,
      "Ġcelebr": 8451,
      "andle": 8452,
      ".model": 8453,
      "æĹ¶çļĦ": 8454,
      "æĿĨ": 8455,
      "Ġexperiment": 8456,
      "current": 8457,
      "çĭĤ": 8458,
      "ĠAustralia": 8459,
      "Ġparticularly": 8460,
      "åĨįæ¬¡": 8461,
      "MO": 8462,
      "Ġtoken": 8463,
      "inally": 8464,
      "Ġclasses": 8465,
      "Ġoverride": 8466,
      "Ġimprove": 8467,
      "Ġax": 8468,
      "Ġsn": 8469,
      "ç§Ĵ": 8470,
      "ERS": 8471,
      "Ġjoined": 8472,
      "ursor": 8473,
      "Ġmis": 8474,
      "å§Ĩ": 8475,
      "Ġextra": 8476,
      "itation": 8477,
      "çħ§çīĩ": 8478,
      "Ġconsole": 8479,
      "åıįåºĶ": 8480,
      "Ġord": 8481,
      "ailed": 8482,
      "Ġslow": 8483,
      "operator": 8484,
      "ï¼Įå¹¶": 8485,
      "Ġgenerated": 8486,
      "Ġtrade": 8487,
      "(R": 8488,
      "Ġsession": 8489,
      "äººæ°ĳå¸ģ": 8490,
      "dk": 8491,
      "æĺ¯ä»Ģä¹Ī": 8492,
      "_get": 8493,
      "æĹ¥æĬ¥": 8494,
      "show": 8495,
      "_e": 8496,
      "éĤ£ä¸ª": 8497,
      "uated": 8498,
      "Ġbrother": 8499,
      ",ä»İèĢĮ": 8500,
      "\\[": 8501,
      "ç£ģ": 8502,
      "iding": 8503,
      "edge": 8504,
      "çİ»çĴĥ": 8505,
      "ä¹łæĥ¯": 8506,
      "æĲŀ": 8507,
      "Module": 8508,
      "Ġsequence": 8509,
      "âĢĻd": 8510,
      "Ġinvestig": 8511,
      "èĸª": 8512,
      "Ġequip": 8513,
      "BS": 8514,
      "ĠOR": 8515,
      "ĠĠĠĠĠĠĠĠĠĠĠĠĊ": 8516,
      "Ġnav": 8517,
      "MT": 8518,
      "Ġscen": 8519,
      "Ġmys": 8520,
      "Ġste": 8521,
      "(w": 8522,
      ",åĮħæĭ¬": 8523,
      "iring": 8524,
      "first": 8525,
      "æķĮ": 8526,
      "èĩªè¡Į": 8527,
      "åĩ¯": 8528,
      "èĤĿ": 8529,
      "Ġcompleted": 8530,
      "_O": 8531,
      "build": 8532,
      "èµĦè®¯": 8533,
      "Ġinform": 8534,
      "rd": 8535,
      ",ä¸Ĭ": 8536,
      "ernel": 8537,
      "Ġcollege": 8538,
      "ĠDistrict": 8539,
      "Ġsociety": 8540,
      "Ġactual": 8541,
      "ipe": 8542,
      "Ġalgorithm": 8543,
      "Gener": 8544,
      "essor": 8545,
      "Ġequation": 8546,
      "ĠWashington": 8547,
      "èĻ«": 8548,
      "fill": 8549,
      "æ»¡æĦı": 8550,
      "èĪį": 8551,
      "ĠForm": 8552,
      "åį³åı¯": 8553,
      "Ġ(:": 8554,
      "Ġtransport": 8555,
      "Ġdu": 8556,
      "æ¬§æ´²": 8557,
      "project": 8558,
      "ĠEnd": 8559,
      "Ġelection": 8560,
      "è¿ħéĢŁ": 8561,
      "çļĦäº§åĵģ": 8562,
      "Net": 8563,
      "Ġsources": 8564,
      "Ġspent": 8565,
      "ĠEar": 8566,
      "Ġraise": 8567,
      "Ġsen": 8568,
      "Ġrock": 8569,
      "pring": 8570,
      "Ġconstr": 8571,
      "wood": 8572,
      "<tr": 8573,
      "Ġcore": 8574,
      "First": 8575,
      "Ġoptim": 8576,
      "ste": 8577,
      "Ġwonder": 8578,
      "last": 8579,
      "DP": 8580,
      ".E": 8581,
      "igen": 8582,
      "èĲ¥åħ»": 8583,
      "Ġcouple": 8584,
      "æ´ª": 8585,
      "èĿ": 8586,
      "raz": 8587,
      "çŃīçŃī": 8588,
      "ĠDef": 8589,
      "(e": 8590,
      "Ġremove": 8591,
      "?:": 8592,
      "iful": 8593,
      "ingle": 8594,
      "{m": 8595,
      "åģ¶": 8596,
      "äºĭæķħ": 8597,
      "åıªèĥ½": 8598,
      ",åĲĦ": 8599,
      "Ġessential": 8600,
      "Ġbehavior": 8601,
      "||||": 8602,
      "çĪ¶æ¯į": 8603,
      "Ġcosts": 8604,
      "è¿ģ": 8605,
      "Ġepis": 8606,
      "å¤§å°ı": 8607,
      "Ġdoc": 8608,
      "å±¥": 8609,
      "èī²çļĦ": 8610,
      "çĽ¸åºĶ": 8611,
      "(const": 8612,
      "åĪ©çĽĬ": 8613,
      "åĵ¦": 8614,
      "Ġsil": 8615,
      "é«ĺéĢŁ": 8616,
      "Ġobjects": 8617,
      "}-": 8618,
      "æĸ¹éĿ¢çļĦ": 8619,
      "Ġarchitect": 8620,
      "Ġæľī": 8621,
      "æł¹æľ¬": 8622,
      "udget": 8623,
      "-H": 8624,
      "ci": 8625,
      "Ġcritical": 8626,
      "Ġlaws": 8627,
      "è·ĥ": 8628,
      "icate": 8629,
      "%çļĦ": 8630,
      "ĠãĢĬ": 8631,
      "ĠChristian": 8632,
      "åŃĲçļĦ": 8633,
      "Ġscience": 8634,
      "_info": 8635,
      "och": 8636,
      "çĵ¶": 8637,
      "appro": 8638,
      "æ»¤": 8639,
      ",äºº": 8640,
      "Ġsolutions": 8641,
      "å¹»": 8642,
      "----------------------------------------------------------------": 8643,
      "ĠIll": 8644,
      "Var": 8645,
      "';ĊĊ": 8646,
      "åıĬåħ¶": 8647,
      "çīĪæľ¬": 8648,
      "æµ®": 8649,
      "Ġspeak": 8650,
      "cs": 8651,
      "è¹": 8652,
      "Ġcast": 8653,
      "Ġthreat": 8654,
      "Ġinsp": 8655,
      "holder": 8656,
      "Ġpurpose": 8657,
      "âĦ": 8658,
      "#endif": 8659,
      "Ã£o": 8660,
      "æĢ§åĴĮ": 8661,
      "Ġnet": 8662,
      "Aut": 8663,
      "Ġassist": 8664,
      ".apache": 8665,
      "å®Ŀå®Ŀ": 8666,
      "ç«ĭåį³": 8667,
      "property": 8668,
      "Ġeight": 8669,
      "ifying": 8670,
      "apped": 8671,
      "ĠRiver": 8672,
      "ç²Ĵ": 8673,
      "Ġcivil": 8674,
      "-R": 8675,
      "inese": 8676,
      "Ġmanufact": 8677,
      "UM": 8678,
      "inn": 8679,
      "ancy": 8680,
      "æĽ´å¤ļçļĦ": 8681,
      "Ġfinally": 8682,
      "Ġmus": 8683,
      "Ġbillion": 8684,
      ".value": 8685,
      "è¯ģä¹¦": 8686,
      "Ġsaying": 8687,
      "äºķ": 8688,
      "Ġearlier": 8689,
      "pack": 8690,
      "Ġapplied": 8691,
      "Ġrace": 8692,
      "Ġbottom": 8693,
      "Ġä¸ª": 8694,
      "Ġ],Ċ": 8695,
      "æ¯ıä¸ª": 8696,
      "Ġgoes": 8697,
      "QU": 8698,
      "ĠOther": 8699,
      "mes": 8700,
      "ï½": 8701,
      "ĠTR": 8702,
      "Ġfeed": 8703,
      "emplates": 8704,
      "Sigma": 8705,
      "ĠIS": 8706,
      "çĶľ": 8707,
      "dir": 8708,
      "NN": 8709,
      "æİĴåĲį": 8710,
      "ĠInc": 8711,
      "pling": 8712,
      "}}{": 8713,
      "_y": 8714,
      "éĻĲåĪ¶": 8715,
      "è®¨è®º": 8716,
      "ĠMal": 8717,
      "webkit": 8718,
      "clusion": 8719,
      "è¿Ľåı£": 8720,
      "çĤī": 8721,
      "ä¸įçŁ¥éģĵ": 8722,
      "ä¸ĭéĿ¢": 8723,
      "_con": 8724,
      "dots": 8725,
      "èĥİ": 8726,
      "ĠMor": 8727,
      "ä¸ĬåįĪ": 8728,
      "å¥³äºº": 8729,
      "centering": 8730,
      "Ġexam": 8731,
      "èĤ¿": 8732,
      "ying": 8733,
      "{g": 8734,
      "circ": 8735,
      "ä¿Ĺ": 8736,
      "DS": 8737,
      "Ġplans": 8738,
      "Ġdefinition": 8739,
      "ä¸ŃåŃ¦": 8740,
      "å®ĺæĸ¹": 8741,
      "åĹ": 8742,
      "ç¡®è®¤": 8743,
      "mas": 8744,
      "Ġoffset": 8745,
      "çģŃ": 8746,
      "$$Ċ": 8747,
      "Ġactions": 8748,
      "Option": 8749,
      "Ġ/**": 8750,
      "æĮĳæĪĺ": 8751,
      "media": 8752,
      "Ġgrant": 8753,
      "Ġdark": 8754,
      "ä¼¯": 8755,
      "éŁ©åĽ½": 8756,
      "å®ŀåĬĽ": 8757,
      "Ġship": 8758,
      "Ġreach": 8759,
      "$$": 8760,
      "ä¸įè¶³": 8761,
      "IA": 8762,
      "ĠJew": 8763,
      "è£Ĥ": 8764,
      "çº¤": 8765,
      "åįıè°ĥ": 8766,
      "ĠEX": 8767,
      "}).": 8768,
      "éĺŁä¼į": 8769,
      "Change": 8770,
      "ï¼Ĵ": 8771,
      "account": 8772,
      ",ç»Ļ": 8773,
      "that": 8774,
      "thm": 8775,
      "çļĦåľ°æĸ¹": 8776,
      "Ġdisease": 8777,
      "çļĦå¿ĥ": 8778,
      "çĹĩçĬ¶": 8779,
      "Work": 8780,
      "float": 8781,
      "Ġformula": 8782,
      "å¤ļæķ°": 8783,
      "Ġrender": 8784,
      "Parameter": 8785,
      ",å¯¹äºİ": 8786,
      "Ġdeliver": 8787,
      "<<": 8788,
      "Ġdemand": 8789,
      "bra": 8790,
      "Ġvariety": 8791,
      "åħ¬è·¯": 8792,
      "ç¨¿ä»¶": 8793,
      "rum": 8794,
      "æĮĩæķ°": 8795,
      "dl": 8796,
      ".lang": 8797,
      "Ġteams": 8798,
      "ĠTV": 8799,
      "Ġfully": 8800,
      "Equals": 8801,
      "aws": 8802,
      "Ġexhib": 8803,
      "ä¸Ģå®¶": 8804,
      "gest": 8805,
      "Ġpackage": 8806,
      "Ġincome": 8807,
      "å¤Ħäºİ": 8808,
      ",çĶļèĩ³": 8809,
      "Ġunderstanding": 8810,
      "çĻĮ": 8811,
      "------------": 8812,
      "itable": 8813,
      "ĠCreate": 8814,
      "æĪ¿å±ĭ": 8815,
      "Ġvariable": 8816,
      "heet": 8817,
      "ç¾İä¸½": 8818,
      "ĠDavid": 8819,
      "åĩ¤": 8820,
      ".size": 8821,
      "call": 8822,
      "ç¡ķ": 8823,
      "oul": 8824,
      "nabla": 8825,
      "åŃ¦ä¼ļ": 8826,
      "çī©è´¨": 8827,
      "ä¸ĢåĪĩ": 8828,
      "-the": 8829,
      "ï¼īĊ": 8830,
      "åħ±åĴĮåĽ½": 8831,
      "`,": 8832,
      "Ġappropri": 8833,
      "Ġoffers": 8834,
      "Ġproviding": 8835,
      "oyal": 8836,
      "ĠDay": 8837,
      "ĠInstitute": 8838,
      "åŃ¦åİĨ": 8839,
      "ini": 8840,
      "require": 8841,
      "Ġotherwise": 8842,
      "ĠĠĠĠĠĠĠĠĠĠĠĠĠĠĠĠĠĠ": 8843,
      "å¤§éĩı": 8844,
      "ĠBlack": 8845,
      "åĨĴ": 8846,
      "Ġinterview": 8847,
      "Ġfair": 8848,
      "Ġargument": 8849,
      "Ġaffect": 8850,
      "fs": 8851,
      "Ġ\"\"Ċ": 8852,
      "server": 8853,
      ",è¿Ļæĺ¯": 8854,
      "è¯Ħä¼°": 8855,
      "SET": 8856,
      "å¼ºåĮĸ": 8857,
      "Ġfederal": 8858,
      "åĿ¡": 8859,
      "è®ºæĸĩ": 8860,
      "Ġmaximum": 8861,
      "Ġconsum": 8862,
      "ĠÎ": 8863,
      "Ġpair": 8864,
      "note": 8865,
      "Ġauth": 8866,
      "description": 8867,
      "ä¹Ļ": 8868,
      "èı²": 8869,
      "è¾Ľ": 8870,
      "arp": 8871,
      "åĪłéĻ¤": 8872,
      "æĿ¥äºĨ": 8873,
      "æł¡åĽŃ": 8874,
      "reference": 8875,
      "cos": 8876,
      "/n": 8877,
      "(value": 8878,
      "ĠRem": 8879,
      "ĠTime": 8880,
      "åįģäºĮ": 8881,
      "æĿľ": 8882,
      "æĲº": 8883,
      "Ġcommit": 8884,
      "agram": 8885,
      "ĠCong": 8886,
      "å¯Ĩçłģ": 8887,
      "Ġsigned": 8888,
      "å»ī": 8889,
      "Ġconstit": 8890,
      "ç²¾å½©": 8891,
      ",è¿ĺæľī": 8892,
      "afe": 8893,
      "è¡¨è¾¾": 8894,
      ".çĽ®åīį": 8895,
      "%;": 8896,
      "*/": 8897,
      "Ġvillage": 8898,
      "Params": 8899,
      "äºĭé¡¹": 8900,
      "Ġbecomes": 8901,
      "ä»ĸä»¬çļĦ": 8902,
      "Br": 8903,
      "åĬ¨çī©": 8904,
      "çĽ¸æ¯Ķ": 8905,
      "çĲĥéĺŁ": 8906,
      "Ġoil": 8907,
      "Ġseven": 8908,
      "berg": 8909,
      "inner": 8910,
      "ĠUnion": 8911,
      "ãģ¾": 8912,
      "Ġsymbol": 8913,
      ".String": 8914,
      "å¿ĥçļĦ": 8915,
      "æĹģ": 8916,
      "Ġgreater": 8917,
      "æĴĳ": 8918,
      "Ġemployees": 8919,
      "æĭĨ": 8920,
      "=-": 8921,
      "åĩłä¹İ": 8922,
      ",ä¸»è¦ģ": 8923,
      "Ġbasic": 8924,
      "front": 8925,
      "Ġrespond": 8926,
      "åĿ¦": 8927,
      "prot": 8928,
      "èĥĮæĻ¯": 8929,
      "èĲ¥ä¸ļ": 8930,
      "Ġç§¯åĪĨ": 8931,
      "aled": 8932,
      "è¿ĲçĶ¨": 8933,
      "-e": 8934,
      "èĳĹåĲį": 8935,
      "Ġtangent": 8936,
      "Ġvirtual": 8937,
      "ĠSy": 8938,
      "ĠLa": 8939,
      ",ä¼ļ": 8940,
      ",è¿Ļæł·": 8941,
      "Ġaspect": 8942,
      "icated": 8943,
      "Ġmarried": 8944,
      "-of": 8945,
      "ariable": 8946,
      "Ġworkers": 8947,
      "æ¡Ĩ": 8948,
      "Ġwide": 8949,
      "wid": 8950,
      "ä»Ķ": 8951,
      "Ġempty": 8952,
      ",åĪ°": 8953,
      "urt": 8954,
      "æ¹ĸåįĹ": 8955,
      "actor": 8956,
      "æ¸łéģĵ": 8957,
      "ç«¹": 8958,
      "åº¦çļĦ": 8959,
      "Ġremains": 8960,
      "Ġdead": 8961,
      "bon": 8962,
      "Task": 8963,
      "è£ħé¥°": 8964,
      "èµĶ": 8965,
      "æ¡ĥ": 8966,
      "Width": 8967,
      "{n": 8968,
      "åľ°çĤ¹": 8969,
      "{f": 8970,
      "_ID": 8971,
      ",è¿Ļä¸ª": 8972,
      "aved": 8973,
      "Child": 8974,
      "çºł": 8975,
      "Ġrequires": 8976,
      "Ġfelt": 8977,
      "æĭĶ": 8978,
      "tml": 8979,
      "åįĬå¹´": 8980,
      "ĠPublic": 8981,
      "Ġ})Ċ": 8982,
      "}),": 8983,
      "é¢Ĺ": 8984,
      "metadata": 8985,
      "Ġshape": 8986,
      "ç»ĺ": 8987,
      "Ġhighly": 8988,
      "Ġplant": 8989,
      "çĽĪ": 8990,
      "ä¼łæĴŃ": 8991,
      "ered": 8992,
      "Ġoverall": 8993,
      "-control": 8994,
      ",çĶ±äºİ": 8995,
      "èį·": 8996,
      "æĶ¶çĽĬ": 8997,
      "å¤º": 8998,
      "Ġskills": 8999,
      "æĦŁæŁĵ": 9000,
      "iance": 9001,
      "oration": 9002,
      "Ġyourself": 9003,
      "Ġrg": 9004,
      ",t": 9005,
      "osing": 9006,
      "å°Ĩåľ¨": 9007,
      "Ġbtn": 9008,
      "Ġcert": 9009,
      "åĪĨä¸º": 9010,
      "ä¸Ĭæ¶¨": 9011,
      "ECK": 9012,
      "Ġpretty": 9013,
      ">,": 9014,
      "opyright": 9015,
      "Ġframe": 9016,
      "Ġsales": 9017,
      "Ġeasily": 9018,
      "PA": 9019,
      "poch": 9020,
      "outhern": 9021,
      "Ġ\\\"": 9022,
      "Ġcharge": 9023,
      "IE": 9024,
      "Ġobserved": 9025,
      "prime": 9026,
      "osen": 9027,
      "æ¡Į": 9028,
      "False": 9029,
      "|-": 9030,
      "Ġopened": 9031,
      "åİĤå®¶": 9032,
      "ville": 9033,
      "long": 9034,
      "å·¡": 9035,
      "ĠINT": 9036,
      "\"),": 9037,
      "ĠChe": 9038,
      "Ġnearly": 9039,
      "Ġquickly": 9040,
      "ĠDuring": 9041,
      "ä¿¡çĶ¨": 9042,
      "cribe": 9043,
      "ĠBen": 9044,
      "Ġresponsible": 9045,
      "ÙĦ": 9046,
      "Ġsummer": 9047,
      "Ġ});ĊĊ": 9048,
      "Ġcompletely": 9049,
      "rees": 9050,
      "Ġwasn": 9051,
      "Open": 9052,
      ",åħ¬åı¸": 9053,
      "Ġmount": 9054,
      "ç¼´": 9055,
      "_at": 9056,
      "Ġcontain": 9057,
      "uman": 9058,
      "{k": 9059,
      "çĹħæ¯Ĵ": 9060,
      "ÂłÂł": 9061,
      ".æľī": 9062,
      "egr": 9063,
      ".è¯¥": 9064,
      "å¾®ä¿¡": 9065,
      "Ġanyone": 9066,
      "orthern": 9067,
      "æĽ¾ç»ı": 9068,
      "Access": 9069,
      "Ñĩ": 9070,
      "å¦Ĩ": 9071,
      "ĉĉĊ": 9072,
      "Ġintroduced": 9073,
      "emory": 9074,
      "Ġconfiguration": 9075,
      "roke": 9076,
      "Container": 9077,
      "]);Ċ": 9078,
      "æĮĩæłĩ": 9079,
      "ĠDiv": 9080,
      ",æıĲé«ĺ": 9081,
      "å¼ºçļĦ": 9082,
      "ulate": 9083,
      "ĠLanguage": 9084,
      "é¼»": 9085,
      "ĠĠĠĠĠĠĠĠĠĠĠĠĠĠĠĠĠĠĠĠĠĠĠĠĠ": 9086,
      "Last": 9087,
      "evelopment": 9088,
      "otype": 9089,
      "å¤ªéĺ³": 9090,
      "Ġnovel": 9091,
      "Ġcomponents": 9092,
      "]ĊĊ": 9093,
      "ä¸Ńæĸĩ": 9094,
      "utor": 9095,
      "ä»¿": 9096,
      "module": 9097,
      "åĽ¾ä¹¦": 9098,
      "å¥¹çļĦ": 9099,
      "çŁ¥åĲį": 9100,
      "æĻºæħ§": 9101,
      "Ġscore": 9102,
      ",è¿ĻäºĽ": 9103,
      "Ġ<-": 9104,
      "Max": 9105,
      "æ²»çĲĨ": 9106,
      "æ»¨": 9107,
      "Ġfigure": 9108,
      "Ġrepe": 9109,
      "åĢ¾": 9110,
      "chr": 9111,
      "yond": 9112,
      "èķ": 9113,
      "ä¸»å¸Ń": 9114,
      "Ġsteps": 9115,
      ".push": 9116,
      "å®Įæķ´": 9117,
      "Ð¼": 9118,
      "dot": 9119,
      "ç»ª": 9120,
      "Project": 9121,
      "linear": 9122,
      "ç»ıåħ¸": 9123,
      "Ġaware": 9124,
      ".ĊĊĊ": 9125,
      "ĠArray": 9126,
      "Ġtraditional": 9127,
      "Ġlif": 9128,
      "ibly": 9129,
      "ipp": 9130,
      "åħ¬åĽŃ": 9131,
      "MD": 9132,
      "Ġequival": 9133,
      "å¾·åĽ½": 9134,
      "Ġupper": 9135,
      "äººåı£": 9136,
      "#if": 9137,
      "Ġcustomers": 9138,
      "éĹª": 9139,
      "(h": 9140,
      "lam": 9141,
      "éĻ¶": 9142,
      "ä½Ĩæĺ¯": 9143,
      "Ġgenerally": 9144,
      "!\\": 9145,
      "éĻ·": 9146,
      "ĠBel": 9147,
      "éĵĿ": 9148,
      "GA": 9149,
      "ãĢģå¤§": 9150,
      "ä¿®æĶ¹": 9151,
      "âĨ": 9152,
      "áĮ": 9153,
      "åĪ«äºº": 9154,
      "oom": 9155,
      "(:": 9156,
      ",y": 9157,
      "]\\": 9158,
      "ĉint": 9159,
      "(function": 9160,
      "è¡¨éĿ¢": 9161,
      "ä¹ĭéĹ´çļĦ": 9162,
      "ç´łè´¨": 9163,
      "éªĹ": 9164,
      "(name": 9165,
      "dule": 9166,
      "Ġtemperature": 9167,
      "åĭĴ": 9168,
      "Ã³n": 9169,
      "æī©å¤§": 9170,
      "_tr": 9171,
      "oles": 9172,
      "éĢĲæ¸Ĳ": 9173,
      ",ä¸¤": 9174,
      "Ġgrand": 9175,
      "background": 9176,
      "Ġcredit": 9177,
      "èµļ": 9178,
      "Ġnegative": 9179,
      "Process": 9180,
      "Ġstories": 9181,
      "éĢļå¸¸": 9182,
      "èĥ¸": 9183,
      "å²©": 9184,
      "çļĦæĸ¹å¼ı": 9185,
      "æ°ı": 9186,
      "ĠFrance": 9187,
      "(A": 9188,
      "(k": 9189,
      "ç¬¬äºĶ": 9190,
      "äºİæĺ¯": 9191,
      "æľįè£ħ": 9192,
      "imer": 9193,
      "Ġbur": 9194,
      "onic": 9195,
      ",ä¸Ģä¸ª": 9196,
      "ä¼¸": 9197,
      "Ġpriv": 9198,
      "ç§¦": 9199,
      "\\pi": 9200,
      "Ġblog": 9201,
      "porary": 9202,
      "Ġblood": 9203,
      "æĸĩåŃ¦": 9204,
      "åħļçļĦ": 9205,
      "äººæķ°": 9206,
      "uted": 9207,
      "å¾ĭå¸Ī": 9208,
      "ooth": 9209,
      "Rem": 9210,
      "Ġcreating": 9211,
      "ĠWeb": 9212,
      "ãģĦ": 9213,
      "å£®": 9214,
      "åĩī": 9215,
      "antic": 9216,
      "fc": 9217,
      "Ġcounter": 9218,
      "è¯ķéªĮ": 9219,
      "è®¼": 9220,
      "FAULT": 9221,
      ",åĲİ": 9222,
      "inct": 9223,
      "ucture": 9224,
      "æĦŁè°¢": 9225,
      "ĠPost": 9226,
      "Ġdomain": 9227,
      "Exec": 9228,
      "Ġ\"/": 9229,
      "arks": 9230,
      "DU": 9231,
      "usion": 9232,
      "framework": 9233,
      "Ġexception": 9234,
      "å¿ĹæĦ¿": 9235,
      "ĠJames": 9236,
      "Ġagreement": 9237,
      "Configuration": 9238,
      "Description": 9239,
      "Ġforeign": 9240,
      "èĤł": 9241,
      "èĢħçļĦ": 9242,
      "å¼ºè°ĥ": 9243,
      "inder": 9244,
      "-F": 9245,
      "Ġasync": 9246,
      "Ġbenefits": 9247,
      "å¸Ĥæ°ĳ": 9248,
      "è£ħå¤ĩ": 9249,
      "Ġholds": 9250,
      "isher": 9251,
      "expected": 9252,
      "abilities": 9253,
      "éĶĻè¯¯": 9254,
      "Ġgiving": 9255,
      "ĠText": 9256,
      "Ġexpression": 9257,
      "widet": 9258,
      "äººç±»": 9259,
      "Ġprem": 9260,
      "ä¸»æĮģ": 9261,
      "ĠOpen": 9262,
      "Ġ'/": 9263,
      "EO": 9264,
      "Ġapplications": 9265,
      "iler": 9266,
      "ĠAnt": 9267,
      "æĭľ": 9268,
      "çĥ¦": 9269,
      "anges": 9270,
      "æ¤įçī©": 9271,
      "Ġmovement": 9272,
      "Case": 9273,
      "å¸ĤåľºçļĦ": 9274,
      "ĠBer": 9275,
      ")-": 9276,
      "æľīæīĢ": 9277,
      "å¾Īå¥½": 9278,
      "ĠQue": 9279,
      "ART": 9280,
      "é¸Ł": 9281,
      "å°ĳå¹´": 9282,
      "æĦŁåıĹ": 9283,
      "orig": 9284,
      "Ġpreviously": 9285,
      "åĬ²": 9286,
      "Ġut": 9287,
      "Tag": 9288,
      "igration": 9289,
      "Ġplaces": 9290,
      "Ġang": 9291,
      "èİ·åıĸ": 9292,
      "å°ıåĮº": 9293,
      "Ġreduce": 9294,
      ",è¢«": 9295,
      "MENT": 9296,
      "iverse": 9297,
      "äºĭå®ŀ": 9298,
      "Ġbeyond": 9299,
      "ocker": 9300,
      "çĶµåĬ¨": 9301,
      "iate": 9302,
      "æľºçļĦ": 9303,
      "Ġnation": 9304,
      "ĠDate": 9305,
      "astr": 9306,
      "æ°Ľ": 9307,
      "ĠNote": 9308,
      "auth": 9309,
      "æıĲäº¤": 9310,
      "Ġ&=": 9311,
      "ç¤ºèĮĥ": 9312,
      "ä½ĵçİ°": 9313,
      "åŁºäºİ": 9314,
      "\\times": 9315,
      "Api": 9316,
      "åĲĦåľ°": 9317,
      "edit": 9318,
      "à¦": 9319,
      "ĠĠĠĠĠĠĠĠĠĠĠĠĠĠĠĠĠĠĠĠĠĠĠĠĠĠĠĠĠĠĠĠĠĠĠĠĠĠĠĠĠĠĠĠĠĠĠĠĠĠĠĠĠĠĠĠĠĠĠĠĠĠĠĠ": 9320,
      "Ġexactly": 9321,
      "_se": 9322,
      "++)": 9323,
      "åķ¦": 9324,
      "=\"{{": 9325,
      "æ¢¯": 9326,
      "Ġterr": 9327,
      "è¯īè®¼": 9328,
      "Ġfactors": 9329,
      "ä¹Łä¼ļ": 9330,
      "ĠSee": 9331,
      "çľĭçľĭ": 9332,
      "Ġmoving": 9333,
      "åĪ°çļĦ": 9334,
      "END": 9335,
      "Ġfix": 9336,
      "Ġ\"\"\"": 9337,
      "ĠMet": 9338,
      "Ġstock": 9339,
      "Ġerrors": 9340,
      "å¯¹æĸ¹": 9341,
      "vention": 9342,
      "Ġassess": 9343,
      "Ġforms": 9344,
      "ĠModel": 9345,
      "æĹ¥èµ·": 9346,
      "ĠMinister": 9347,
      "âĶĢâĶĢ": 9348,
      "Ġcommercial": 9349,
      "é»Ħéĩĳ": 9350,
      "Ġdetermine": 9351,
      "é«ĺæł¡": 9352,
      "éĢļè®¯": 9353,
      "ãĢĭçļĦ": 9354,
      "uri": 9355,
      "Ġ<=": 9356,
      "ĠFalse": 9357,
      "æ¸¸å®¢": 9358,
      "ĠDon": 9359,
      "é¬": 9360,
      "Ġsurpr": 9361,
      "Interface": 9362,
      "Ġfirm": 9363,
      "å¼ķå¯¼": 9364,
      "æĶ¹éĢł": 9365,
      "Ġvariables": 9366,
      ".åĽłæŃ¤": 9367,
      "(g": 9368,
      "Ġrates": 9369,
      "çĪ·": 9370,
      "Ġadvant": 9371,
      "number": 9372,
      "çİ°å®ŀ": 9373,
      "åħģ": 9374,
      "access": 9375,
      "ROM": 9376,
      "èĩªæĪĳ": 9377,
      ".ä½Ĩæĺ¯": 9378,
      "ployment": 9379,
      "();čĊ": 9380,
      "Ġsmaller": 9381,
      "_MA": 9382,
      "ris": 9383,
      "Connection": 9384,
      "ç¾İçļĦ": 9385,
      "Ġsafety": 9386,
      "Co": 9387,
      "Ġcomputer": 9388,
      "vest": 9389,
      "åİ¨": 9390,
      "å¤įæĿĤ": 9391,
      "ĠæĹ¥": 9392,
      "_by": 9393,
      "Ġgrowing": 9394,
      "ader": 9395,
      "å¿½": 9396,
      "ronic": 9397,
      "èħ¹": 9398,
      "MC": 9399,
      "Ġtool": 9400,
      "éħįå¥Ĺ": 9401,
      "widetilde": 9402,
      "é£Łçī©": 9403,
      "æ¦Ĥå¿µ": 9404,
      "Ġconnected": 9405,
      "*Ċ": 9406,
      "ĠBoard": 9407,
      "alax": 9408,
      "enty": 9409,
      "Vert": 9410,
      "ç©ºè°ĥ": 9411,
      "Empty": 9412,
      "rowser": 9413,
      "ĠResearch": 9414,
      "å£°éŁ³": 9415,
      "åĽºå®ļ": 9416,
      "ĠChinese": 9417,
      "Ġstrategy": 9418,
      "_cl": 9419,
      "Ġdie": 9420,
      "å°Ŀ": 9421,
      "plete": 9422,
      "äºĭæĥħ": 9423,
      "Ġassume": 9424,
      "RC": 9425,
      "SH": 9426,
      "éĢĤåºĶ": 9427,
      "çļĦå¥½": 9428,
      "å¿ł": 9429,
      "åŃ£åº¦": 9430,
      "History": 9431,
      "Ġsal": 9432,
      "vg": 9433,
      "owl": 9434,
      "æŁ±": 9435,
      "Do": 9436,
      "ĠSpec": 9437,
      "Ġpsy": 9438,
      "iny": 9439,
      "çªģçĦ¶": 9440,
      "è½»æĿ¾": 9441,
      "ãĢģæĸ°": 9442,
      "çĵľ": 9443,
      "è´Ńçī©": 9444,
      "è½¨": 9445,
      "å¸¸è§ģ": 9446,
      "Ġrob": 9447,
      "Ġswitch": 9448,
      "Ġpressure": 9449,
      "Ġè¯·": 9450,
      "è°ĭ": 9451,
      "nother": 9452,
      "çĪ±æĥħ": 9453,
      "Since": 9454,
      "stances": 9455,
      "rs": 9456,
      "acement": 9457,
      "Header": 9458,
      "{}": 9459,
      "æĺ¨å¤©": 9460,
      "åŀĥ": 9461,
      "çļĦä¸Ģä¸ª": 9462,
      "Ptr": 9463,
      "ãĤ¹": 9464,
      ")\"": 9465,
      "ĠAfrica": 9466,
      "Ġanim": 9467,
      "Ġ{@": 9468,
      "xFF": 9469,
      "ayers": 9470,
      "ĠãĢĳãĢĲ": 9471,
      "æŀª": 9472,
      "ç»Īäºİ": 9473,
      "arant": 9474,
      "Ġsecret": 9475,
      "Ġcollabor": 9476,
      "ĠBro": 9477,
      "Ġinsurance": 9478,
      "ĠBank": 9479,
      "Top": 9480,
      "ston": 9481,
      "-con": 9482,
      "LI": 9483,
      "ä¸ĵé¢ĺ": 9484,
      "ĠHall": 9485,
      "ãĢģä¸Ń": 9486,
      "ä¾ĭå¦Ĥ": 9487,
      "åľ¾": 9488,
      "âĺħ": 9489,
      "Ġimag": 9490,
      ".pdf": 9491,
      "BO": 9492,
      "-G": 9493,
      "meta": 9494,
      "Now": 9495,
      "tag": 9496,
      "éĺĢ": 9497,
      "Dir": 9498,
      "æ¡Īä»¶": 9499,
      "ĠIP": 9500,
      "Ġsell": 9501,
      "åĮ»åŃ¦": 9502,
      "åŀĥåľ¾": 9503,
      "å®ŀè¡Į": 9504,
      ")</": 9505,
      "Ġhighest": 9506,
      "allel": 9507,
      "grid": 9508,
      "ONT": 9509,
      "Ġcarry": 9510,
      "ä¹ı": 9511,
      "asic": 9512,
      "æľīäºĨ": 9513,
      "åıĤæķ°": 9514,
      "æĿ¥åĪ°": 9515,
      "Ġfaith": 9516,
      "anned": 9517,
      "èĤ¡ä»½æľīéĻĲåħ¬åı¸": 9518,
      "_param": 9519,
      "Ġä½ľèĢħ": 9520,
      "åįļå£«": 9521,
      "çªĹåı£": 9522,
      "ptr": 9523,
      "process": 9524,
      "Min": 9525,
      "å¤§åĪ©": 9526,
      "è¿½æ±Ĥ": 9527,
      "Ġparams": 9528,
      "Ġfn": 9529,
      "çªģåĩº": 9530,
      "äººæ°ĳåħ±åĴĮåĽ½": 9531,
      "Ġtermin": 9532,
      "å°ĸ": 9533,
      "ĠGovernment": 9534,
      "æ¸ħæ¥ļ": 9535,
      "Ġpull": 9536,
      "èµĸ": 9537,
      "{K": 9538,
      "dev": 9539,
      "Ġpoor": 9540,
      "Ġspirit": 9541,
      "ODE": 9542,
      "while": 9543,
      "ĠHere": 9544,
[...]
