{
  "version": "1.0",
  "truncation": null,
  "padding": null,
  "added_tokens": [
    {
      "id": 0,
      "content": "<s>",
      "single_word": false,
      "lstrip": false,
      "rstrip": false,
      "normalized": false,
      "special": true
    },
    {
      "id": 1,
      "content": "</s>",
      "single_word": false,
      "lstrip": false,
      "rstrip": false,
      "normalized": false,
      "special": true
    },
    {
      "id": 2,
      "content": "<tool_call>",
      "single_word": false,
      "lstrip": false,
      "rstrip": false,
      "normalized": false,
      "special": true
    },
    {
      "id": 3,
      "content": "</tool_call>",
      "single_word": false,
      "lstrip": false,
      "rstrip": false,
      "normalized": false,
      "special": true
    },
    {
      "id": 4,
      "content": "<|im_sep|>",
      "single_word": false,
      "lstrip": false,
      "rstrip": false,
      "normalized": false,
      "special": true
    },
    {
      "id": 5,
      "content": "<|fim_prefix|>",
      "single_word": false,
      "lstrip": false,
      "rstrip": false,
      "normalized": false,
      "special": true
    },
    {
      "id": 6,
      "content": "<|fim_middle|>",
      "single_word": false,
      "lstrip": false,
      "rstrip": false,
      "normalized": false,
      "special": true
    },
    {
      "id": 7,
      "content": "<|fim_suffix|>",
      "single_word": false,
      "lstrip": false,
      "rstrip": false,
      "normalized": false,
      "special": true
    },
    {
      "id": 8,
      "content": "<think>",
      "single_word": false,
      "lstrip": false,
      "rstrip": false,
      "normalized": false,
      "special": false
    },
    {
      "id": 9,
      "content": "</think>",
      "single_word": false,
      "lstrip": false,
      "rstrip": false,
      "normalized": false,
      "special": false
    },
    {
      "id": 10,
      "content": "<tool_response>",
      "single_word": false,
      "lstrip": false,
      "rstrip": false,
      "normalized": false,
      "special": true
    },
    {
      "id": 11,
      "content": "</tool_response>",
      "single_word": false,
      "lstrip": false,
      "rstrip": false,
      "normalized": false,
      "special": true
    },
    {
      "id": 12,
      "content": "<tools>",
      "single_word": false,
      "lstrip": false,
      "rstrip": false,
      "normalized": false,
      "special": true
    },
    {
      "id": 13,
      "content": "</tools>",
      "single_word": false,
      "lstrip": false,
      "rstrip": false,
      "normalized": false,
      "special": true
    },
    {
      "id": 14,
      "content": "<arguments>",
      "single_word": false,
      "lstrip": false,
      "rstrip": false,
      "normalized": false,
      "special": true
    },
    {
      "id": 15,
      "content": "</arguments>",
      "single_word": false,
      "lstrip": false,
      "rstrip": false,
      "normalized": false,
      "special": true
    },
    {
      "id": 16,
      "content": "<parameters>",
      "single_word": false,
      "lstrip": false,
      "rstrip": false,
      "normalized": false,
      "special": true
    },
    {
      "id": 17,
      "content": "</parameters>",
      "single_word": false,
      "lstrip": false,
      "rstrip": false,
      "normalized": false,
      "special": true
    },
    {
      "id": 18,
      "content": "<function",
      "single_word": false,
      "lstrip": false,
      "rstrip": false,
      "normalized": false,
      "special": true
    },
    {
      "id": 19,
      "content": "</function>",
      "single_word": false,
      "lstrip": false,
      "rstrip": false,
      "normalized": false,
      "special": true
    },
    {
      "id": 20,
      "content": "<param",
      "single_word": false,
      "lstrip": false,
      "rstrip": false,
      "normalized": false,
      "special": true
    },
    {
      "id": 21,
      "content": "</param>",
      "single_word": false,
      "lstrip": false,
      "rstrip": false,
      "normalized": false,
      "special": true
    },
    {
      "id": 130072,
      "content": "<|im_start|>",
      "single_word": false,
      "lstrip": false,
      "rstrip": false,
      "normalized": false,
      "special": true
    },
    {
      "id": 130073,
      "content": "<|im_end|>",
      "single_word": false,
      "lstrip": false,
      "rstrip": false,
      "normalized": false,
      "special": true
    },
    {
      "id": 130074,
      "content": "<unk>",
      "single_word": false,
      "lstrip": false,
      "rstrip": false,
      "normalized": false,
      "special": true
    },
    {
      "id": 130075,
      "content": "<|thought_begin|>",
      "single_word": false,
      "lstrip": false,
      "rstrip": false,
      "normalized": false,
      "special": true
    },
    {
      "id": 130076,
      "content": "<|thought_end|>",
      "single_word": false,
      "lstrip": false,
      "rstrip": false,
      "normalized": false,
      "special": true
    },
    {
      "id": 130077,
      "content": "<|tool_call|>",
      "single_word": false,
      "lstrip": false,
      "rstrip": false,
      "normalized": false,
      "special": true
    },
    {
      "id": 130078,
      "content": "<|execute_start|>",
      "single_word": false,
      "lstrip": false,
      "rstrip": false,
      "normalized": false,
      "special": true
    },
    {
      "id": 130079,
      "content": "<|execute_end|>",
      "single_word": false,
      "lstrip": false,
      "rstrip": false,
      "normalized": false,
      "special": true
    },
    {
      "id": 130080,
      "content": "/think",
      "single_word": false,
      "lstrip": false,
      "rstrip": false,
      "normalized": false,
      "special": true
    },
    {
      "id": 130081,
      "content": "/no_think",
      "single_word": false,
      "lstrip": false,
      "rstrip": false,
      "normalized": false,
      "special": true
    },
    {
      "id": 130082,
      "content": "<unused_token_0>",
      "single_word": false,
      "lstrip": false,
      "rstrip": false,
      "normalized": true,
      "special": false
    },
    {
      "id": 130083,
      "content": "<unused_token_1>",
      "single_word": false,
      "lstrip": false,
      "rstrip": false,
      "normalized": true,
      "special": false
    },
    {
      "id": 130084,
      "content": "<unused_token_2>",
      "single_word": false,
      "lstrip": false,
      "rstrip": false,
      "normalized": true,
      "special": false
    },
    {
      "id": 130085,
      "content": "<unused_token_3>",
      "single_word": false,
      "lstrip": false,
      "rstrip": false,
      "normalized": true,
      "special": false
    },
    {
      "id": 130086,
      "content": "<unused_token_4>",
      "single_word": false,
      "lstrip": false,
      "rstrip": false,
      "normalized": true,
      "special": false
    },
    {
      "id": 130087,
      "content": "<unused_token_5>",
      "single_word": false,
      "lstrip": false,
      "rstrip": false,
      "normalized": true,
      "special": false
    },
    {
      "id": 130088,
      "content": "<unused_token_6>",
      "single_word": false,
      "lstrip": false,
      "rstrip": false,
      "normalized": true,
      "special": false
    },
    {
      "id": 130089,
      "content": "<unused_token_7>",
      "single_word": false,
      "lstrip": false,
      "rstrip": false,
      "normalized": true,
      "special": false
    },
    {
      "id": 130090,
      "content": "<unused_token_8>",
      "single_word": false,
      "lstrip": false,
      "rstrip": false,
      "normalized": true,
      "special": false
    },
    {
      "id": 130091,
      "content": "<unused_token_9>",
      "single_word": false,
      "lstrip": false,
      "rstrip": false,
      "normalized": true,
      "special": false
    },
    {
      "id": 130092,
      "content": "<unused_token_10>",
      "single_word": false,
      "lstrip": false,
      "rstrip": false,
      "normalized": true,
      "special": false
    },
    {
      "id": 130093,
      "content": "<unused_token_11>",
      "single_word": false,
      "lstrip": false,
      "rstrip": false,
      "normalized": true,
      "special": false
    },
    {
      "id": 130094,
      "content": "<unused_token_12>",
      "single_word": false,
      "lstrip": false,
      "rstrip": false,
      "normalized": true,
      "special": false
    },
    {
      "id": 130095,
      "content": "<unused_token_13>",
      "single_word": false,
      "lstrip": false,
      "rstrip": false,
      "normalized": true,
      "special": false
    },
    {
      "id": 130096,
      "content": "<unused_token_14>",
      "single_word": false,
      "lstrip": false,
      "rstrip": false,
      "normalized": true,
      "special": false
    },
    {
      "id": 130097,
      "content": "<unused_token_15>",
      "single_word": false,
      "lstrip": false,
      "rstrip": false,
      "normalized": true,
      "special": false
    },
    {
      "id": 130098,
      "content": "<unused_token_16>",
      "single_word": false,
      "lstrip": false,
      "rstrip": false,
      "normalized": true,
      "special": false
    },
    {
      "id": 130099,
      "content": "<unused_token_17>",
      "single_word": false,
      "lstrip": false,
      "rstrip": false,
      "normalized": true,
      "special": false
    },
    {
      "id": 130100,
      "content": "<unused_token_18>",
      "single_word": false,
      "lstrip": false,
      "rstrip": false,
      "normalized": true,
      "special": false
    },
    {
      "id": 130101,
      "content": "<unused_token_19>",
      "single_word": false,
      "lstrip": false,
      "rstrip": false,
      "normalized": true,
      "special": false
    },
    {
      "id": 130102,
      "content": "<unused_token_20>",
      "single_word": false,
      "lstrip": false,
      "rstrip": false,
      "normalized": true,
      "special": false
    },
    {
      "id": 130103,
      "content": "<unused_token_21>",
      "single_word": false,
      "lstrip": false,
      "rstrip": false,
      "normalized": true,
      "special": false
    },
    {
      "id": 130104,
      "content": "<unused_token_22>",
      "single_word": false,
      "lstrip": false,
      "rstrip": false,
      "normalized": true,
      "special": false
    },
    {
      "id": 130105,
      "content": "<unused_token_23>",
      "single_word": false,
      "lstrip": false,
      "rstrip": false,
      "normalized": true,
      "special": false
    },
    {
      "id": 130106,
      "content": "<unused_token_24>",
      "single_word": false,
      "lstrip": false,
      "rstrip": false,
      "normalized": true,
      "special": false
    },
    {
      "id": 130107,
      "content": "<unused_token_25>",
      "single_word": false,
      "lstrip": false,
      "rstrip": false,
      "normalized": true,
      "special": false
    },
    {
      "id": 130108,
      "content": "<unused_token_26>",
      "single_word": false,
      "lstrip": false,
      "rstrip": false,
      "normalized": true,
      "special": false
    },
    {
      "id": 130109,
      "content": "<unused_token_27>",
      "single_word": false,
      "lstrip": false,
      "rstrip": false,
      "normalized": true,
      "special": false
    },
    {
      "id": 130110,
      "content": "<unused_token_28>",
      "single_word": false,
      "lstrip": false,
      "rstrip": false,
      "normalized": true,
      "special": false
    },
    {
      "id": 130111,
      "content": "<unused_token_29>",
      "single_word": false,
      "lstrip": false,
      "rstrip": false,
      "normalized": true,
      "special": false
    },
    {
      "id": 130112,
      "content": "<unused_token_30>",
      "single_word": false,
      "lstrip": false,
      "rstrip": false,
      "normalized": true,
      "special": false
    },
    {
      "id": 130113,
      "content": "<unused_token_31>",
      "single_word": false,
      "lstrip": false,
      "rstrip": false,
      "normalized": true,
      "special": false
    },
    {
      "id": 130114,
      "content": "<unused_token_32>",
      "single_word": false,
      "lstrip": false,
      "rstrip": false,
      "normalized": true,
      "special": false
    },
    {
      "id": 130115,
      "content": "<unused_token_33>",
      "single_word": false,
      "lstrip": false,
      "rstrip": false,
      "normalized": true,
      "special": false
    },
    {
      "id": 130116,
      "content": "<unused_token_34>",
      "single_word": false,
      "lstrip": false,
      "rstrip": false,
      "normalized": true,
      "special": false
    },
    {
      "id": 130117,
      "content": "<unused_token_35>",
      "single_word": false,
      "lstrip": false,
      "rstrip": false,
      "normalized": true,
      "special": false
    },
    {
      "id": 130118,
      "content": "<unused_token_36>",
      "single_word": false,
      "lstrip": false,
      "rstrip": false,
      "normalized": true,
      "special": false
    },
    {
      "id": 130119,
      "content": "<unused_token_37>",
      "single_word": false,
      "lstrip": false,
      "rstrip": false,
      "normalized": true,
      "special": false
    },
    {
      "id": 130120,
      "content": "<unused_token_38>",
      "single_word": false,
      "lstrip": false,
      "rstrip": false,
      "normalized": true,
      "special": false
    },
    {
      "id": 130121,
      "content": "<unused_token_39>",
      "single_word": false,
      "lstrip": false,
      "rstrip": false,
      "normalized": true,
      "special": false
    },
    {
      "id": 130122,
      "content": "<unused_token_40>",
      "single_word": false,
      "lstrip": false,
      "rstrip": false,
      "normalized": true,
      "special": false
    },
    {
      "id": 130123,
      "content": "<unused_token_41>",
      "single_word": false,
      "lstrip": false,
      "rstrip": false,
      "normalized": true,
      "special": false
    },
    {
      "id": 130124,
      "content": "<unused_token_42>",
      "single_word": false,
      "lstrip": false,
      "rstrip": false,
      "normalized": true,
      "special": false
    },
    {
      "id": 130125,
      "content": "<unused_token_43>",
      "single_word": false,
      "lstrip": false,
      "rstrip": false,
      "normalized": true,
      "special": false
    },
    {
      "id": 130126,
      "content": "<unused_token_44>",
      "single_word": false,
      "lstrip": false,
      "rstrip": false,
      "normalized": true,
      "special": false
    },
    {
      "id": 130127,
      "content": "<unused_token_45>",
      "single_word": false,
      "lstrip": false,
      "rstrip": false,
      "normalized": true,
      "special": false
    },
    {
      "id": 130128,
      "content": "<unused_token_46>",
      "single_word": false,
      "lstrip": false,
      "rstrip": false,
      "normalized": true,
      "special": false
    },
    {
      "id": 130129,
      "content": "<unused_token_47>",
      "single_word": false,
      "lstrip": false,
      "rstrip": false,
      "normalized": true,
      "special": false
    },
    {
      "id": 130130,
      "content": "<unused_token_48>",
      "single_word": false,
      "lstrip": false,
      "rstrip": false,
      "normalized": true,
      "special": false
    },
    {
      "id": 130131,
      "content": "<unused_token_49>",
      "single_word": false,
      "lstrip": false,
      "rstrip": false,
      "normalized": true,
      "special": false
    },
    {
      "id": 130132,
      "content": "<unused_token_50>",
      "single_word": false,
      "lstrip": false,
      "rstrip": false,
      "normalized": true,
      "special": false
    },
    {
      "id": 130133,
      "content": "<unused_token_51>",
      "single_word": false,
      "lstrip": false,
      "rstrip": false,
      "normalized": true,
      "special": false
    },
    {
      "id": 130134,
      "content": "<unused_token_52>",
      "single_word": false,
      "lstrip": false,
      "rstrip": false,
      "normalized": true,
      "special": false
    },
    {
      "id": 130135,
      "content": "<unused_token_53>",
      "single_word": false,
      "lstrip": false,
      "rstrip": false,
      "normalized": true,
      "special": false
    },
    {
      "id": 130136,
      "content": "<unused_token_54>",
      "single_word": false,
      "lstrip": false,
      "rstrip": false,
      "normalized": true,
      "special": false
    },
    {
      "id": 130137,
      "content": "<unused_token_55>",
      "single_word": false,
      "lstrip": false,
      "rstrip": false,
      "normalized": true,
      "special": false
    },
    {
      "id": 130138,
      "content": "<unused_token_56>",
      "single_word": false,
      "lstrip": false,
      "rstrip": false,
      "normalized": true,
      "special": false
    },
    {
      "id": 130139,
      "content": "<unused_token_57>",
      "single_word": false,
      "lstrip": false,
      "rstrip": false,
      "normalized": true,
      "special": false
    },
    {
      "id": 130140,
      "content": "<unused_token_58>",
      "single_word": false,
      "lstrip": false,
      "rstrip": false,
      "normalized": true,
      "special": false
    },
    {
      "id": 130141,
      "content": "<unused_token_59>",
      "single_word": false,
      "lstrip": false,
      "rstrip": false,
      "normalized": true,
      "special": false
    },
    {
      "id": 130142,
      "content": "<unused_token_60>",
      "single_word": false,
      "lstrip": false,
      "rstrip": false,
      "normalized": true,
      "special": false
    },
    {
      "id": 130143,
      "content": "<unused_token_61>",
      "single_word": false,
      "lstrip": false,
      "rstrip": false,
      "normalized": true,
      "special": false
    },
    {
      "id": 130144,
      "content": "<unused_token_62>",
      "single_word": false,
      "lstrip": false,
      "rstrip": false,
      "normalized": true,
      "special": false
    },
    {
      "id": 130145,
      "content": "<unused_token_63>",
      "single_word": false,
      "lstrip": false,
      "rstrip": false,
      "normalized": true,
      "special": false
    },
    {
      "id": 130146,
      "content": "<unused_token_64>",
      "single_word": false,
      "lstrip": false,
      "rstrip": false,
      "normalized": true,
      "special": false
    },
    {
      "id": 130147,
      "content": "<unused_token_65>",
      "single_word": false,
      "lstrip": false,
      "rstrip": false,
      "normalized": true,
      "special": false
    },
    {
      "id": 130148,
      "content": "<unused_token_66>",
      "single_word": false,
      "lstrip": false,
      "rstrip": false,
      "normalized": true,
      "special": false
    },
    {
      "id": 130149,
      "content": "<unused_token_67>",
      "single_word": false,
      "lstrip": false,
      "rstrip": false,
      "normalized": true,
      "special": false
    },
    {
      "id": 130150,
      "content": "<unused_token_68>",
      "single_word": false,
      "lstrip": false,
      "rstrip": false,
      "normalized": true,
      "special": false
    },
    {
      "id": 130151,
      "content": "<unused_token_69>",
      "single_word": false,
      "lstrip": false,
      "rstrip": false,
      "normalized": true,
      "special": false
    },
    {
      "id": 130152,
      "content": "<unused_token_70>",
      "single_word": false,
      "lstrip": false,
      "rstrip": false,
      "normalized": true,
      "special": false
    },
    {
      "id": 130153,
      "content": "<unused_token_71>",
      "single_word": false,
      "lstrip": false,
      "rstrip": false,
      "normalized": true,
      "special": false
    },
    {
      "id": 130154,
      "content": "<unused_token_72>",
      "single_word": false,
      "lstrip": false,
      "rstrip": false,
      "normalized": true,
      "special": false
    },
    {
      "id": 130155,
      "content": "<unused_token_73>",
      "single_word": false,
      "lstrip": false,
      "rstrip": false,
      "normalized": true,
      "special": false
    },
    {
      "id": 130156,
      "content": "<unused_token_74>",
      "single_word": false,
      "lstrip": false,
      "rstrip": false,
      "normalized": true,
      "special": false
    },
    {
      "id": 130157,
      "content": "<unused_token_75>",
      "single_word": false,
      "lstrip": false,
      "rstrip": false,
      "normalized": true,
      "special": false
    },
    {
      "id": 130158,
      "content": "<unused_token_76>",
      "single_word": false,
      "lstrip": false,
      "rstrip": false,
      "normalized": true,
      "special": false
    },
    {
      "id": 130159,
      "content": "<unused_token_77>",
      "single_word": false,
      "lstrip": false,
      "rstrip": false,
      "normalized": true,
      "special": false
    },
    {
      "id": 130160,
      "content": "<unused_token_78>",
      "single_word": false,
      "lstrip": false,
      "rstrip": false,
      "normalized": true,
      "special": false
    },
    {
      "id": 130161,
      "content": "<unused_token_79>",
      "single_word": false,
      "lstrip": false,
      "rstrip": false,
      "normalized": true,
      "special": false
    },
    {
      "id": 130162,
      "content": "<unused_token_80>",
      "single_word": false,
      "lstrip": false,
      "rstrip": false,
      "normalized": true,
      "special": false
    },
    {
      "id": 130163,
      "content": "<unused_token_81>",
      "single_word": false,
      "lstrip": false,
      "rstrip": false,
      "normalized": true,
      "special": false
    },
    {
      "id": 130164,
      "content": "<unused_token_82>",
      "single_word": false,
      "lstrip": false,
      "rstrip": false,
      "normalized": true,
      "special": false
    },
    {
      "id": 130165,
      "content": "<unused_token_83>",
      "single_word": false,
      "lstrip": false,
      "rstrip": false,
      "normalized": true,
      "special": false
    },
    {
      "id": 130166,
      "content": "<unused_token_84>",
      "single_word": false,
      "lstrip": false,
      "rstrip": false,
      "normalized": true,
      "special": false
    },
    {
      "id": 130167,
      "content": "<unused_token_85>",
      "single_word": false,
      "lstrip": false,
      "rstrip": false,
      "normalized": true,
      "special": false
    },
    {
      "id": 130168,
      "content": "<unused_token_86>",
      "single_word": false,
      "lstrip": false,
      "rstrip": false,
      "normalized": true,
      "special": false
    },
    {
      "id": 130169,
      "content": "<unused_token_87>",
      "single_word": false,
      "lstrip": false,
      "rstrip": false,
      "normalized": true,
      "special": false
    },
    {
      "id": 130170,
      "content": "<unused_token_88>",
      "single_word": false,
      "lstrip": false,
      "rstrip": false,
      "normalized": true,
      "special": false
    },
    {
      "id": 130171,
      "content": "<unused_token_89>",
      "single_word": false,
      "lstrip": false,
      "rstrip": false,
      "normalized": true,
      "special": false
    },
    {
      "id": 130172,
      "content": "<unused_token_90>",
      "single_word": false,
      "lstrip": false,
      "rstrip": false,
      "normalized": true,
      "special": false
    },
    {
      "id": 130173,
      "content": "<unused_token_91>",
      "single_word": false,
      "lstrip": false,
      "rstrip": false,
      "normalized": true,
      "special": false
    },
    {
      "id": 130174,
      "content": "<unused_token_92>",
      "single_word": false,
      "lstrip": false,
      "rstrip": false,
      "normalized": true,
      "special": false
    },
    {
      "id": 130175,
      "content": "<unused_token_93>",
      "single_word": false,
      "lstrip": false,
      "rstrip": false,
      "normalized": true,
      "special": false
    },
    {
      "id": 130176,
      "content": "<unused_token_94>",
      "single_word": false,
      "lstrip": false,
      "rstrip": false,
      "normalized": true,
      "special": false
    },
    {
      "id": 130177,
      "content": "<unused_token_95>",
      "single_word": false,
      "lstrip": false,
      "rstrip": false,
      "normalized": true,
      "special": false
    },
    {
      "id": 130178,
      "content": "<unused_token_96>",
      "single_word": false,
      "lstrip": false,
      "rstrip": false,
      "normalized": true,
      "special": false
    },
    {
      "id": 130179,
      "content": "<unused_token_97>",
      "single_word": false,
      "lstrip": false,
      "rstrip": false,
      "normalized": true,
      "special": false
    },
    {
      "id": 130180,
      "content": "<unused_token_98>",
      "single_word": false,
      "lstrip": false,
      "rstrip": false,
      "normalized": true,
      "special": false
    },
    {
      "id": 130181,
      "content": "<unused_token_99>",
      "single_word": false,
      "lstrip": false,
      "rstrip": false,
      "normalized": true,
      "special": false
    },
    {
      "id": 130182,
      "content": "<unused_token_100>",
      "single_word": false,
      "lstrip": false,
      "rstrip": false,
      "normalized": true,
      "special": false
    },
    {
      "id": 130183,
      "content": "<unused_token_101>",
      "single_word": false,
      "lstrip": false,
      "rstrip": false,
      "normalized": true,
      "special": false
    },
    {
      "id": 130184,
      "content": "<unused_token_102>",
      "single_word": false,
      "lstrip": false,
      "rstrip": false,
      "normalized": true,
      "special": false
    },
    {
      "id": 130185,
      "content": "<unused_token_103>",
      "single_word": false,
      "lstrip": false,
      "rstrip": false,
      "normalized": true,
      "special": false
    },
    {
      "id": 130186,
      "content": "<unused_token_104>",
      "single_word": false,
      "lstrip": false,
      "rstrip": false,
      "normalized": true,
      "special": false
    },
    {
      "id": 130187,
      "content": "<unused_token_105>",
      "single_word": false,
      "lstrip": false,
      "rstrip": false,
      "normalized": true,
      "special": false
    },
    {
      "id": 130188,
      "content": "<unused_token_106>",
      "single_word": false,
      "lstrip": false,
      "rstrip": false,
      "normalized": true,
      "special": false
    },
    {
      "id": 130189,
      "content": "<unused_token_107>",
      "single_word": false,
      "lstrip": false,
      "rstrip": false,
      "normalized": true,
      "special": false
    },
    {
      "id": 130190,
      "content": "<unused_token_108>",
      "single_word": false,
      "lstrip": false,
      "rstrip": false,
      "normalized": true,
      "special": false
    },
    {
      "id": 130191,
      "content": "<unused_token_109>",
      "single_word": false,
      "lstrip": false,
      "rstrip": false,
      "normalized": true,
      "special": false
    },
    {
      "id": 130192,
      "content": "<unused_token_110>",
      "single_word": false,
      "lstrip": false,
      "rstrip": false,
      "normalized": true,
      "special": false
    },
    {
      "id": 130193,
      "content": "<unused_token_111>",
      "single_word": false,
      "lstrip": false,
      "rstrip": false,
      "normalized": true,
      "special": false
    },
    {
      "id": 130194,
      "content": "<unused_token_112>",
      "single_word": false,
      "lstrip": false,
      "rstrip": false,
      "normalized": true,
      "special": false
    },
    {
      "id": 130195,
      "content": "<unused_token_113>",
      "single_word": false,
      "lstrip": false,
      "rstrip": false,
      "normalized": true,
      "special": false
    },
    {
      "id": 130196,
      "content": "<unused_token_114>",
      "single_word": false,
      "lstrip": false,
      "rstrip": false,
      "normalized": true,
      "special": false
    },
    {
      "id": 130197,
      "content": "<unused_token_115>",
      "single_word": false,
      "lstrip": false,
      "rstrip": false,
      "normalized": true,
      "special": false
    },
    {
      "id": 130198,
      "content": "<unused_token_116>",
      "single_word": false,
      "lstrip": false,
      "rstrip": false,
      "normalized": true,
      "special": false
    },
    {
      "id": 130199,
      "content": "<unused_token_117>",
      "single_word": false,
      "lstrip": false,
      "rstrip": false,
      "normalized": true,
      "special": false
    },
    {
      "id": 130200,
      "content": "<unused_token_118>",
      "single_word": false,
      "lstrip": false,
      "rstrip": false,
      "normalized": true,
      "special": false
    },
    {
      "id": 130201,
      "content": "<unused_token_119>",
      "single_word": false,
      "lstrip": false,
      "rstrip": false,
      "normalized": true,
      "special": false
    },
    {
      "id": 130202,
      "content": "<unused_token_120>",
      "single_word": false,
      "lstrip": false,
      "rstrip": false,
      "normalized": true,
      "special": false
    },
    {
      "id": 130203,
      "content": "<unused_token_121>",
      "single_word": false,
      "lstrip": false,
      "rstrip": false,
      "normalized": true,
      "special": false
    },
    {
      "id": 130204,
      "content": "<unused_token_122>",
      "single_word": false,
      "lstrip": false,
      "rstrip": false,
      "normalized": true,
      "special": false
    },
    {
      "id": 130205,
      "content": "<unused_token_123>",
      "single_word": false,
      "lstrip": false,
      "rstrip": false,
      "normalized": true,
      "special": false
    },
    {
      "id": 130206,
      "content": "<unused_token_124>",
      "single_word": false,
      "lstrip": false,
      "rstrip": false,
      "normalized": true,
      "special": false
    },
    {
      "id": 130207,
      "content": "<unused_token_125>",
      "single_word": false,
      "lstrip": false,
      "rstrip": false,
      "normalized": true,
      "special": false
    },
    {
      "id": 130208,
      "content": "<unused_token_126>",
      "single_word": false,
      "lstrip": false,
      "rstrip": false,
      "normalized": true,
      "special": false
    },
    {
      "id": 130209,
      "content": "<unused_token_127>",
      "single_word": false,
      "lstrip": false,
      "rstrip": false,
      "normalized": true,
      "special": false
    },
    {
      "id": 130210,
      "content": "<unused_token_128>",
      "single_word": false,
      "lstrip": false,
      "rstrip": false,
      "normalized": true,
      "special": false
    },
    {
      "id": 130211,
      "content": "<unused_token_129>",
      "single_word": false,
      "lstrip": false,
      "rstrip": false,
      "normalized": true,
      "special": false
    },
    {
      "id": 130212,
      "content": "<unused_token_130>",
      "single_word": false,
      "lstrip": false,
      "rstrip": false,
      "normalized": true,
      "special": false
    },
    {
      "id": 130213,
      "content": "<unused_token_131>",
      "single_word": false,
      "lstrip": false,
      "rstrip": false,
      "normalized": true,
      "special": false
    },
    {
      "id": 130214,
      "content": "<unused_token_132>",
      "single_word": false,
      "lstrip": false,
      "rstrip": false,
      "normalized": true,
      "special": false
    },
    {
      "id": 130215,
      "content": "<unused_token_133>",
      "single_word": false,
      "lstrip": false,
      "rstrip": false,
      "normalized": true,
      "special": false
    },
    {
      "id": 130216,
      "content": "<unused_token_134>",
      "single_word": false,
      "lstrip": false,
      "rstrip": false,
      "normalized": true,
      "special": false
    },
    {
      "id": 130217,
      "content": "<unused_token_135>",
      "single_word": false,
      "lstrip": false,
      "rstrip": false,
      "normalized": true,
      "special": false
    },
    {
      "id": 130218,
      "content": "<unused_token_136>",
      "single_word": false,
      "lstrip": false,
      "rstrip": false,
      "normalized": true,
      "special": false
    },
    {
      "id": 130219,
      "content": "<unused_token_137>",
      "single_word": false,
      "lstrip": false,
      "rstrip": false,
      "normalized": true,
      "special": false
    },
    {
      "id": 130220,
      "content": "<unused_token_138>",
      "single_word": false,
      "lstrip": false,
      "rstrip": false,
      "normalized": true,
      "special": false
    },
    {
      "id": 130221,
      "content": "<unused_token_139>",
      "single_word": false,
      "lstrip": false,
      "rstrip": false,
      "normalized": true,
      "special": false
    },
    {
      "id": 130222,
      "content": "<unused_token_140>",
      "single_word": false,
      "lstrip": false,
      "rstrip": false,
      "normalized": true,
      "special": false
    },
    {
      "id": 130223,
      "content": "<unused_token_141>",
      "single_word": false,
      "lstrip": false,
      "rstrip": false,
      "normalized": true,
      "special": false
    },
    {
      "id": 130224,
      "content": "<unused_token_142>",
      "single_word": false,
      "lstrip": false,
      "rstrip": false,
      "normalized": true,
      "special": false
    },
    {
      "id": 130225,
      "content": "<unused_token_143>",
      "single_word": false,
      "lstrip": false,
      "rstrip": false,
      "normalized": true,
      "special": false
    },
    {
      "id": 130226,
      "content": "<unused_token_144>",
      "single_word": false,
      "lstrip": false,
      "rstrip": false,
      "normalized": true,
      "special": false
    },
    {
      "id": 130227,
      "content": "<unused_token_145>",
      "single_word": false,
      "lstrip": false,
      "rstrip": false,
      "normalized": true,
      "special": false
    },
    {
      "id": 130228,
      "content": "<unused_token_146>",
      "single_word": false,
      "lstrip": false,
      "rstrip": false,
      "normalized": true,
      "special": false
    },
    {
      "id": 130229,
      "content": "<unused_token_147>",
      "single_word": false,
      "lstrip": false,
      "rstrip": false,
      "normalized": true,
      "special": false
    },
    {
      "id": 130230,
      "content": "<unused_token_148>",
      "single_word": false,
      "lstrip": false,
      "rstrip": false,
      "normalized": true,
      "special": false
    },
    {
      "id": 130231,
      "content": "<unused_token_149>",
      "single_word": false,
      "lstrip": false,
      "rstrip": false,
      "normalized": true,
      "special": false
    },
    {
      "id": 130232,
      "content": "<unused_token_150>",
      "single_word": false,
      "lstrip": false,
      "rstrip": false,
      "normalized": true,
      "special": false
    },
    {
      "id": 130233,
      "content": "<unused_token_151>",
      "single_word": false,
      "lstrip": false,
      "rstrip": false,
      "normalized": true,
      "special": false
    },
    {
      "id": 130234,
      "content": "<unused_token_152>",
      "single_word": false,
      "lstrip": false,
      "rstrip": false,
      "normalized": true,
      "special": false
    },
    {
      "id": 130235,
      "content": "<unused_token_153>",
      "single_word": false,
      "lstrip": false,
      "rstrip": false,
      "normalized": true,
      "special": false
    },
    {
      "id": 130236,
      "content": "<unused_token_154>",
      "single_word": false,
      "lstrip": false,
      "rstrip": false,
      "normalized": true,
      "special": false
    },
    {
      "id": 130237,
      "content": "<unused_token_155>",
      "single_word": false,
      "lstrip": false,
      "rstrip": false,
      "normalized": true,
      "special": false
    },
    {
      "id": 130238,
      "content": "<unused_token_156>",
      "single_word": false,
      "lstrip": false,
      "rstrip": false,
      "normalized": true,
      "special": false
    },
    {
      "id": 130239,
      "content": "<unused_token_157>",
      "single_word": false,
      "lstrip": false,
      "rstrip": false,
      "normalized": true,
      "special": false
    },
    {
      "id": 130240,
      "content": "<unused_token_158>",
      "single_word": false,
      "lstrip": false,
      "rstrip": false,
      "normalized": true,
      "special": false
    },
    {
      "id": 130241,
      "content": "<unused_token_159>",
      "single_word": false,
      "lstrip": false,
      "rstrip": false,
      "normalized": true,
      "special": false
    },
    {
      "id": 130242,
      "content": "<unused_token_160>",
      "single_word": false,
      "lstrip": false,
      "rstrip": false,
      "normalized": true,
      "special": false
    },
    {
      "id": 130243,
      "content": "<unused_token_161>",
      "single_word": false,
      "lstrip": false,
      "rstrip": false,
      "normalized": true,
      "special": false
    },
    {
      "id": 130244,
      "content": "<unused_token_162>",
      "single_word": false,
      "lstrip": false,
      "rstrip": false,
      "normalized": true,
      "special": false
    },
    {
      "id": 130245,
      "content": "<unused_token_163>",
      "single_word": false,
      "lstrip": false,
      "rstrip": false,
      "normalized": true,
      "special": false
    },
    {
      "id": 130246,
      "content": "<unused_token_164>",
      "single_word": false,
      "lstrip": false,
      "rstrip": false,
      "normalized": true,
      "special": false
    },
    {
      "id": 130247,
      "content": "<unused_token_165>",
      "single_word": false,
      "lstrip": false,
      "rstrip": false,
      "normalized": true,
      "special": false
    },
    {
      "id": 130248,
      "content": "<unused_token_166>",
      "single_word": false,
      "lstrip": false,
      "rstrip": false,
      "normalized": true,
      "special": false
    },
    {
      "id": 130249,
      "content": "<unused_token_167>",
      "single_word": false,
      "lstrip": false,
      "rstrip": false,
      "normalized": true,
      "special": false
    },
    {
      "id": 130250,
      "content": "<unused_token_168>",
      "single_word": false,
      "lstrip": false,
      "rstrip": false,
      "normalized": true,
      "special": false
    },
    {
      "id": 130251,
      "content": "<unused_token_169>",
      "single_word": false,
      "lstrip": false,
      "rstrip": false,
      "normalized": true,
      "special": false
    },
    {
      "id": 130252,
      "content": "<unused_token_170>",
      "single_word": false,
      "lstrip": false,
      "rstrip": false,
      "normalized": true,
      "special": false
    },
    {
      "id": 130253,
      "content": "<unused_token_171>",
      "single_word": false,
      "lstrip": false,
      "rstrip": false,
      "normalized": true,
      "special": false
    },
    {
      "id": 130254,
      "content": "<unused_token_172>",
      "single_word": false,
      "lstrip": false,
      "rstrip": false,
      "normalized": true,
      "special": false
    },
    {
      "id": 130255,
      "content": "<unused_token_173>",
      "single_word": false,
      "lstrip": false,
      "rstrip": false,
      "normalized": true,
      "special": false
    },
    {
      "id": 130256,
      "content": "<unused_token_174>",
      "single_word": false,
      "lstrip": false,
      "rstrip": false,
      "normalized": true,
      "special": false
    },
    {
      "id": 130257,
      "content": "<unused_token_175>",
      "single_word": false,
      "lstrip": false,
      "rstrip": false,
      "normalized": true,
      "special": false
    },
    {
      "id": 130258,
      "content": "<unused_token_176>",
      "single_word": false,
      "lstrip": false,
      "rstrip": false,
      "normalized": true,
      "special": false
    },
    {
      "id": 130259,
      "content": "<unused_token_177>",
      "single_word": false,
      "lstrip": false,
      "rstrip": false,
      "normalized": true,
      "special": false
    },
    {
      "id": 130260,
      "content": "<unused_token_178>",
      "single_word": false,
      "lstrip": false,
      "rstrip": false,
      "normalized": true,
      "special": false
    },
    {
      "id": 130261,
      "content": "<unused_token_179>",
      "single_word": false,
      "lstrip": false,
      "rstrip": false,
      "normalized": true,
      "special": false
    },
    {
      "id": 130262,
      "content": "<unused_token_180>",
      "single_word": false,
      "lstrip": false,
      "rstrip": false,
      "normalized": true,
      "special": false
    },
    {
      "id": 130263,
      "content": "<unused_token_181>",
      "single_word": false,
      "lstrip": false,
      "rstrip": false,
      "normalized": true,
      "special": false
    },
    {
      "id": 130264,
      "content": "<unused_token_182>",
      "single_word": false,
      "lstrip": false,
      "rstrip": false,
      "normalized": true,
      "special": false
    },
    {
      "id": 130265,
      "content": "<unused_token_183>",
      "single_word": false,
      "lstrip": false,
      "rstrip": false,
      "normalized": true,
      "special": false
    },
    {
      "id": 130266,
      "content": "<unused_token_184>",
      "single_word": false,
      "lstrip": false,
      "rstrip": false,
      "normalized": true,
      "special": false
    },
    {
      "id": 130267,
      "content": "<unused_token_185>",
      "single_word": false,
      "lstrip": false,
      "rstrip": false,
      "normalized": true,
      "special": false
    },
    {
      "id": 130268,
      "content": "<unused_token_186>",
      "single_word": false,
      "lstrip": false,
      "rstrip": false,
      "normalized": true,
      "special": false
    },
    {
      "id": 130269,
      "content": "<unused_token_187>",
      "single_word": false,
      "lstrip": false,
      "rstrip": false,
      "normalized": true,
      "special": false
    },
    {
      "id": 130270,
      "content": "<unused_token_188>",
      "single_word": false,
      "lstrip": false,
      "rstrip": false,
      "normalized": true,
      "special": false
    },
    {
      "id": 130271,
      "content": "<unused_token_189>",
      "single_word": false,
      "lstrip": false,
      "rstrip": false,
      "normalized": true,
      "special": false
    },
    {
      "id": 130272,
      "content": "<unused_token_190>",
      "single_word": false,
      "lstrip": false,
      "rstrip": false,
      "normalized": true,
      "special": false
    },
    {
      "id": 130273,
      "content": "<unused_token_191>",
      "single_word": false,
      "lstrip": false,
      "rstrip": false,
      "normalized": true,
      "special": false
    },
    {
      "id": 130274,
      "content": "<unused_token_192>",
      "single_word": false,
      "lstrip": false,
      "rstrip": false,
      "normalized": true,
      "special": false
    },
    {
      "id": 130275,
      "content": "<unused_token_193>",
      "single_word": false,
      "lstrip": false,
      "rstrip": false,
      "normalized": true,
      "special": false
    },
    {
      "id": 130276,
      "content": "<unused_token_194>",
      "single_word": false,
      "lstrip": false,
      "rstrip": false,
      "normalized": true,
      "special": false
    },
    {
      "id": 130277,
      "content": "<unused_token_195>",
      "single_word": false,
      "lstrip": false,
      "rstrip": false,
      "normalized": true,
      "special": false
    },
    {
      "id": 130278,
      "content": "<unused_token_196>",
      "single_word": false,
      "lstrip": false,
      "rstrip": false,
      "normalized": true,
      "special": false
    },
    {
      "id": 130279,
      "content": "<unused_token_197>",
      "single_word": false,
      "lstrip": false,
      "rstrip": false,
      "normalized": true,
      "special": false
    },
    {
      "id": 130280,
      "content": "<unused_token_198>",
      "single_word": false,
      "lstrip": false,
      "rstrip": false,
      "normalized": true,
      "special": false
    },
    {
      "id": 130281,
      "content": "<unused_token_199>",
      "single_word": false,
      "lstrip": false,
      "rstrip": false,
      "normalized": true,
      "special": false
    },
    {
      "id": 130282,
      "content": "<unused_token_200>",
      "single_word": false,
      "lstrip": false,
      "rstrip": false,
      "normalized": true,
      "special": false
    },
    {
      "id": 130283,
      "content": "<unused_token_201>",
      "single_word": false,
      "lstrip": false,
      "rstrip": false,
      "normalized": true,
      "special": false
    },
    {
      "id": 130284,
      "content": "<unused_token_202>",
      "single_word": false,
      "lstrip": false,
      "rstrip": false,
      "normalized": true,
      "special": false
    },
    {
      "id": 130285,
      "content": "<unused_token_203>",
      "single_word": false,
      "lstrip": false,
      "rstrip": false,
      "normalized": true,
      "special": false
    },
    {
      "id": 130286,
      "content": "<unused_token_204>",
      "single_word": false,
      "lstrip": false,
      "rstrip": false,
      "normalized": true,
      "special": false
    },
    {
      "id": 130287,
      "content": "<unused_token_205>",
      "single_word": false,
      "lstrip": false,
      "rstrip": false,
      "normalized": true,
      "special": false
    },
    {
      "id": 130288,
      "content": "<unused_token_206>",
      "single_word": false,
      "lstrip": false,
      "rstrip": false,
      "normalized": true,
      "special": false
    },
    {
      "id": 130289,
      "content": "<unused_token_207>",
      "single_word": false,
      "lstrip": false,
      "rstrip": false,
      "normalized": true,
      "special": false
    },
    {
      "id": 130290,
      "content": "<unused_token_208>",
      "single_word": false,
      "lstrip": false,
      "rstrip": false,
      "normalized": true,
      "special": false
    },
    {
      "id": 130291,
      "content": "<unused_token_209>",
      "single_word": false,
      "lstrip": false,
      "rstrip": false,
      "normalized": true,
      "special": false
    },
    {
      "id": 130292,
      "content": "<unused_token_210>",
      "single_word": false,
      "lstrip": false,
      "rstrip": false,
      "normalized": true,
      "special": false
    },
    {
      "id": 130293,
      "content": "<unused_token_211>",
      "single_word": false,
      "lstrip": false,
      "rstrip": false,
      "normalized": true,
      "special": false
    },
    {
      "id": 130294,
      "content": "<unused_token_212>",
      "single_word": false,
      "lstrip": false,
      "rstrip": false,
      "normalized": true,
      "special": false
    },
    {
      "id": 130295,
      "content": "<unused_token_213>",
      "single_word": false,
      "lstrip": false,
      "rstrip": false,
      "normalized": true,
      "special": false
    },
    {
      "id": 130296,
      "content": "<unused_token_214>",
      "single_word": false,
      "lstrip": false,
      "rstrip": false,
      "normalized": true,
      "special": false
    },
    {
      "id": 130297,
      "content": "<unused_token_215>",
      "single_word": false,
      "lstrip": false,
      "rstrip": false,
      "normalized": true,
      "special": false
    },
    {
      "id": 130298,
      "content": "<unused_token_216>",
      "single_word": false,
      "lstrip": false,
      "rstrip": false,
      "normalized": true,
      "special": false
    },
    {
      "id": 130299,
      "content": "<unused_token_217>",
      "single_word": false,
      "lstrip": false,
      "rstrip": false,
      "normalized": true,
      "special": false
    },
    {
      "id": 130300,
      "content": "<unused_token_218>",
      "single_word": false,
      "lstrip": false,
      "rstrip": false,
      "normalized": true,
      "special": false
    },
    {
      "id": 130301,
      "content": "<unused_token_219>",
      "single_word": false,
      "lstrip": false,
      "rstrip": false,
      "normalized": true,
      "special": false
    },
    {
      "id": 130302,
      "content": "<unused_token_220>",
      "single_word": false,
      "lstrip": false,
      "rstrip": false,
      "normalized": true,
      "special": false
    },
    {
      "id": 130303,
      "content": "<unused_token_221>",
      "single_word": false,
      "lstrip": false,
      "rstrip": false,
      "normalized": true,
      "special": false
    },
    {
      "id": 130304,
      "content": "<unused_token_222>",
      "single_word": false,
      "lstrip": false,
      "rstrip": false,
      "normalized": true,
      "special": false
    },
    {
      "id": 130305,
      "content": "<unused_token_223>",
      "single_word": false,
      "lstrip": false,
      "rstrip": false,
      "normalized": true,
      "special": false
    },
    {
      "id": 130306,
      "content": "<unused_token_224>",
      "single_word": false,
      "lstrip": false,
      "rstrip": false,
      "normalized": true,
      "special": false
    },
    {
      "id": 130307,
      "content": "<unused_token_225>",
      "single_word": false,
      "lstrip": false,
      "rstrip": false,
      "normalized": true,
      "special": false
    },
    {
      "id": 130308,
      "content": "<unused_token_226>",
      "single_word": false,
      "lstrip": false,
      "rstrip": false,
      "normalized": true,
      "special": false
    },
    {
      "id": 130309,
      "content": "<unused_token_227>",
      "single_word": false,
      "lstrip": false,
      "rstrip": false,
      "normalized": true,
      "special": false
    },
    {
      "id": 130310,
      "content": "<unused_token_228>",
      "single_word": false,
      "lstrip": false,
      "rstrip": false,
      "normalized": true,
      "special": false
    },
    {
      "id": 130311,
      "content": "<unused_token_229>",
      "single_word": false,
      "lstrip": false,
      "rstrip": false,
      "normalized": true,
      "special": false
    },
    {
      "id": 130312,
      "content": "<unused_token_230>",
      "single_word": false,
      "lstrip": false,
      "rstrip": false,
      "normalized": true,
      "special": false
    },
    {
      "id": 130313,
      "content": "<unused_token_231>",
      "single_word": false,
      "lstrip": false,
      "rstrip": false,
      "normalized": true,
      "special": false
    },
    {
      "id": 130314,
      "content": "<unused_token_232>",
      "single_word": false,
      "lstrip": false,
      "rstrip": false,
      "normalized": true,
      "special": false
    },
    {
      "id": 130315,
      "content": "<unused_token_233>",
      "single_word": false,
      "lstrip": false,
      "rstrip": false,
      "normalized": true,
      "special": false
    },
    {
      "id": 130316,
      "content": "<unused_token_234>",
      "single_word": false,
      "lstrip": false,
      "rstrip": false,
      "normalized": true,
      "special": false
    },
    {
      "id": 130317,
      "content": "<unused_token_235>",
      "single_word": false,
      "lstrip": false,
      "rstrip": false,
      "normalized": true,
      "special": false
    },
    {
      "id": 130318,
      "content": "<unused_token_236>",
      "single_word": false,
      "lstrip": false,
      "rstrip": false,
      "normalized": true,
      "special": false
    },
    {
      "id": 130319,
      "content": "<unused_token_237>",
      "single_word": false,
      "lstrip": false,
      "rstrip": false,
      "normalized": true,
      "special": false
    },
    {
      "id": 130320,
      "content": "<unused_token_238>",
      "single_word": false,
      "lstrip": false,
      "rstrip": false,
      "normalized": true,
      "special": false
    },
    {
      "id": 130321,
      "content": "<unused_token_239>",
      "single_word": false,
      "lstrip": false,
      "rstrip": false,
      "normalized": true,
      "special": false
    },
    {
      "id": 130322,
      "content": "<unused_token_240>",
      "single_word": false,
      "lstrip": false,
      "rstrip": false,
      "normalized": true,
      "special": false
    },
    {
      "id": 130323,
      "content": "<unused_token_241>",
      "single_word": false,
      "lstrip": false,
      "rstrip": false,
      "normalized": true,
      "special": false
    },
    {
      "id": 130324,
      "content": "<unused_token_242>",
      "single_word": false,
      "lstrip": false,
      "rstrip": false,
      "normalized": true,
      "special": false
    },
    {
      "id": 130325,
      "content": "<unused_token_243>",
      "single_word": false,
      "lstrip": false,
      "rstrip": false,
      "normalized": true,
      "special": false
    },
    {
      "id": 130326,
      "content": "<unused_token_244>",
      "single_word": false,
      "lstrip": false,
      "rstrip": false,
      "normalized": true,
      "special": false
    },
    {
      "id": 130327,
      "content": "<unused_token_245>",
      "single_word": false,
      "lstrip": false,
      "rstrip": false,
      "normalized": true,
      "special": false
    },
    {
      "id": 130328,
      "content": "<unused_token_246>",
      "single_word": false,
      "lstrip": false,
      "rstrip": false,
      "normalized": true,
      "special": false
    },
    {
      "id": 130329,
      "content": "<unused_token_247>",
      "single_word": false,
      "lstrip": false,
      "rstrip": false,
      "normalized": true,
      "special": false
    },
    {
      "id": 130330,
      "content": "<unused_token_248>",
      "single_word": false,
      "lstrip": false,
      "rstrip": false,
      "normalized": true,
      "special": false
    },
    {
      "id": 130331,
      "content": "<unused_token_249>",
      "single_word": false,
      "lstrip": false,
      "rstrip": false,
      "normalized": true,
      "special": false
    },
    {
      "id": 130332,
      "content": "<unused_token_250>",
      "single_word": false,
      "lstrip": false,
      "rstrip": false,
      "normalized": true,
      "special": false
    },
    {
      "id": 130333,
      "content": "<unused_token_251>",
      "single_word": false,
      "lstrip": false,
      "rstrip": false,
      "normalized": true,
      "special": false
    },
    {
      "id": 130334,
      "content": "<unused_token_252>",
      "single_word": false,
      "lstrip": false,
      "rstrip": false,
      "normalized": true,
      "special": false
    },
    {
      "id": 130335,
      "content": "<unused_token_253>",
      "single_word": false,
      "lstrip": false,
      "rstrip": false,
      "normalized": true,
      "special": false
    },
    {
      "id": 130336,
      "content": "<unused_token_254>",
      "single_word": false,
      "lstrip": false,
      "rstrip": false,
      "normalized": true,
      "special": false
    },
    {
      "id": 130337,
      "content": "<unused_token_255>",
      "single_word": false,
      "lstrip": false,
      "rstrip": false,
      "normalized": true,
      "special": false
    },
    {
      "id": 130338,
      "content": "<unused_token_256>",
      "single_word": false,
      "lstrip": false,
      "rstrip": false,
      "normalized": true,
      "special": false
    },
    {
      "id": 130339,
      "content": "<unused_token_257>",
      "single_word": false,
      "lstrip": false,
      "rstrip": false,
      "normalized": true,
      "special": false
    },
    {
      "id": 130340,
      "content": "<unused_token_258>",
      "single_word": false,
      "lstrip": false,
      "rstrip": false,
      "normalized": true,
      "special": false
    },
    {
      "id": 130341,
      "content": "<unused_token_259>",
      "single_word": false,
      "lstrip": false,
      "rstrip": false,
      "normalized": true,
      "special": false
    },
    {
      "id": 130342,
      "content": "<unused_token_260>",
      "single_word": false,
      "lstrip": false,
      "rstrip": false,
      "normalized": true,
      "special": false
    },
    {
      "id": 130343,
      "content": "<unused_token_261>",
      "single_word": false,
      "lstrip": false,
      "rstrip": false,
      "normalized": true,
      "special": false
    },
    {
      "id": 130344,
      "content": "<unused_token_262>",
      "single_word": false,
      "lstrip": false,
      "rstrip": false,
      "normalized": true,
      "special": false
    },
    {
      "id": 130345,
      "content": "<unused_token_263>",
      "single_word": false,
      "lstrip": false,
      "rstrip": false,
      "normalized": true,
      "special": false
    },
    {
      "id": 130346,
      "content": "<unused_token_264>",
      "single_word": false,
      "lstrip": false,
      "rstrip": false,
      "normalized": true,
      "special": false
    },
    {
      "id": 130347,
      "content": "<unused_token_265>",
      "single_word": false,
      "lstrip": false,
      "rstrip": false,
      "normalized": true,
      "special": false
    },
    {
      "id": 130348,
      "content": "<unused_token_266>",
      "single_word": false,
      "lstrip": false,
      "rstrip": false,
      "normalized": true,
      "special": false
    },
    {
      "id": 130349,
      "content": "<unused_token_267>",
      "single_word": false,
      "lstrip": false,
      "rstrip": false,
      "normalized": true,
      "special": false
    },
    {
      "id": 130350,
      "content": "<unused_token_268>",
      "single_word": false,
      "lstrip": false,
      "rstrip": false,
      "normalized": true,
      "special": false
    },
    {
      "id": 130351,
      "content": "<unused_token_269>",
      "single_word": false,
      "lstrip": false,
      "rstrip": false,
      "normalized": true,
      "special": false
    },
    {
      "id": 130352,
      "content": "<unused_token_270>",
      "single_word": false,
      "lstrip": false,
      "rstrip": false,
      "normalized": true,
      "special": false
    },
    {
      "id": 130353,
      "content": "<unused_token_271>",
      "single_word": false,
      "lstrip": false,
      "rstrip": false,
      "normalized": true,
      "special": false
    },
    {
      "id": 130354,
      "content": "<unused_token_272>",
      "single_word": false,
      "lstrip": false,
      "rstrip": false,
      "normalized": true,
      "special": false
    },
    {
      "id": 130355,
      "content": "<unused_token_273>",
      "single_word": false,
      "lstrip": false,
      "rstrip": false,
      "normalized": true,
      "special": false
    },
    {
      "id": 130356,
      "content": "<unused_token_274>",
      "single_word": false,
      "lstrip": false,
      "rstrip": false,
      "normalized": true,
      "special": false
    },
    {
      "id": 130357,
      "content": "<unused_token_275>",
      "single_word": false,
      "lstrip": false,
      "rstrip": false,
      "normalized": true,
      "special": false
    },
    {
      "id": 130358,
      "content": "<unused_token_276>",
      "single_word": false,
      "lstrip": false,
      "rstrip": false,
      "normalized": true,
      "special": false
    },
    {
      "id": 130359,
      "content": "<unused_token_277>",
      "single_word": false,
      "lstrip": false,
      "rstrip": false,
      "normalized": true,
      "special": false
    },
    {
      "id": 130360,
      "content": "<unused_token_278>",
      "single_word": false,
      "lstrip": false,
      "rstrip": false,
      "normalized": true,
      "special": false
    },
    {
      "id": 130361,
      "content": "<unused_token_279>",
      "single_word": false,
      "lstrip": false,
      "rstrip": false,
      "normalized": true,
      "special": false
    },
    {
      "id": 130362,
      "content": "<unused_token_280>",
      "single_word": false,
      "lstrip": false,
      "rstrip": false,
      "normalized": true,
      "special": false
    },
    {
      "id": 130363,
      "content": "<unused_token_281>",
      "single_word": false,
      "lstrip": false,
      "rstrip": false,
      "normalized": true,
      "special": false
    },
    {
      "id": 130364,
      "content": "<unused_token_282>",
      "single_word": false,
      "lstrip": false,
      "rstrip": false,
      "normalized": true,
      "special": false
    },
    {
      "id": 130365,
      "content": "<unused_token_283>",
      "single_word": false,
      "lstrip": false,
      "rstrip": false,
      "normalized": true,
      "special": false
    },
    {
      "id": 130366,
      "content": "<unused_token_284>",
      "single_word": false,
      "lstrip": false,
      "rstrip": false,
      "normalized": true,
      "special": false
    },
    {
      "id": 130367,
      "content": "<unused_token_285>",
      "single_word": false,
      "lstrip": false,
      "rstrip": false,
      "normalized": true,
      "special": false
    },
    {
      "id": 130368,
      "content": "<unused_token_286>",
      "single_word": false,
      "lstrip": false,
      "rstrip": false,
      "normalized": true,
      "special": false
    },
    {
      "id": 130369,
      "content": "<unused_token_287>",
      "single_word": false,
      "lstrip": false,
      "rstrip": false,
      "normalized": true,
      "special": false
    },
    {
      "id": 130370,
      "content": "<unused_token_288>",
      "single_word": false,
      "lstrip": false,
      "rstrip": false,
      "normalized": true,
      "special": false
    },
    {
      "id": 130371,
      "content": "<unused_token_289>",
      "single_word": false,
      "lstrip": false,
      "rstrip": false,
      "normalized": true,
      "special": false
    },
    {
      "id": 130372,
      "content": "<unused_token_290>",
      "single_word": false,
      "lstrip": false,
      "rstrip": false,
      "normalized": true,
      "special": false
    },
    {
      "id": 130373,
      "content": "<unused_token_291>",
      "single_word": false,
      "lstrip": false,
      "rstrip": false,
      "normalized": true,
      "special": false
    },
    {
      "id": 130374,
      "content": "<unused_token_292>",
      "single_word": false,
      "lstrip": false,
      "rstrip": false,
      "normalized": true,
      "special": false
    },
    {
      "id": 130375,
      "content": "<unused_token_293>",
      "single_word": false,
      "lstrip": false,
      "rstrip": false,
      "normalized": true,
      "special": false
    },
    {
      "id": 130376,
      "content": "<unused_token_294>",
      "single_word": false,
      "lstrip": false,
      "rstrip": false,
      "normalized": true,
      "special": false
    },
    {
      "id": 130377,
      "content": "<unused_token_295>",
      "single_word": false,
      "lstrip": false,
      "rstrip": false,
      "normalized": true,
      "special": false
    },
    {
      "id": 130378,
      "content": "<unused_token_296>",
      "single_word": false,
      "lstrip": false,
      "rstrip": false,
      "normalized": true,
      "special": false
    },
    {
      "id": 130379,
      "content": "<unused_token_297>",
      "single_word": false,
      "lstrip": false,
      "rstrip": false,
      "normalized": true,
      "special": false
    },
    {
      "id": 130380,
      "content": "<unused_token_298>",
      "single_word": false,
      "lstrip": false,
      "rstrip": false,
      "normalized": true,
      "special": false
    },
    {
      "id": 130381,
      "content": "<unused_token_299>",
      "single_word": false,
      "lstrip": false,
      "rstrip": false,
      "normalized": true,
      "special": false
    },
    {
      "id": 130382,
      "content": "<unused_token_300>",
      "single_word": false,
      "lstrip": false,
      "rstrip": false,
      "normalized": true,
      "special": false
    },
    {
      "id": 130383,
      "content": "<unused_token_301>",
      "single_word": false,
      "lstrip": false,
      "rstrip": false,
      "normalized": true,
      "special": false
    },
    {
      "id": 130384,
      "content": "<unused_token_302>",
      "single_word": false,
      "lstrip": false,
      "rstrip": false,
      "normalized": true,
      "special": false
    },
    {
      "id": 130385,
      "content": "<unused_token_303>",
      "single_word": false,
      "lstrip": false,
      "rstrip": false,
      "normalized": true,
      "special": false
    },
    {
      "id": 130386,
      "content": "<unused_token_304>",
      "single_word": false,
      "lstrip": false,
      "rstrip": false,
      "normalized": true,
      "special": false
    },
    {
      "id": 130387,
      "content": "<unused_token_305>",
      "single_word": false,
      "lstrip": false,
      "rstrip": false,
      "normalized": true,
      "special": false
    },
    {
      "id": 130388,
      "content": "<unused_token_306>",
      "single_word": false,
      "lstrip": false,
      "rstrip": false,
      "normalized": true,
      "special": false
    },
    {
      "id": 130389,
      "content": "<unused_token_307>",
      "single_word": false,
      "lstrip": false,
      "rstrip": false,
      "normalized": true,
      "special": false
    },
    {
      "id": 130390,
      "content": "<unused_token_308>",
      "single_word": false,
      "lstrip": false,
      "rstrip": false,
      "normalized": true,
      "special": false
    },
    {
      "id": 130391,
      "content": "<unused_token_309>",
      "single_word": false,
      "lstrip": false,
      "rstrip": false,
      "normalized": true,
      "special": false
    },
    {
      "id": 130392,
      "content": "<unused_token_310>",
      "single_word": false,
      "lstrip": false,
      "rstrip": false,
      "normalized": true,
      "special": false
    },
    {
      "id": 130393,
      "content": "<unused_token_311>",
      "single_word": false,
      "lstrip": false,
      "rstrip": false,
      "normalized": true,
      "special": false
    },
    {
      "id": 130394,
      "content": "<unused_token_312>",
      "single_word": false,
      "lstrip": false,
      "rstrip": false,
      "normalized": true,
      "special": false
    },
    {
      "id": 130395,
      "content": "<unused_token_313>",
      "single_word": false,
      "lstrip": false,
      "rstrip": false,
      "normalized": true,
      "special": false
    },
    {
      "id": 130396,
      "content": "<unused_token_314>",
      "single_word": false,
      "lstrip": false,
      "rstrip": false,
      "normalized": true,
      "special": false
    },
    {
      "id": 130397,
      "content": "<unused_token_315>",
      "single_word": false,
      "lstrip": false,
      "rstrip": false,
      "normalized": true,
      "special": false
    },
    {
      "id": 130398,
      "content": "<unused_token_316>",
      "single_word": false,
      "lstrip": false,
      "rstrip": false,
      "normalized": true,
      "special": false
    },
    {
      "id": 130399,
      "content": "<unused_token_317>",
      "single_word": false,
      "lstrip": false,
      "rstrip": false,
      "normalized": true,
      "special": false
    },
    {
      "id": 130400,
      "content": "<unused_token_318>",
      "single_word": false,
      "lstrip": false,
      "rstrip": false,
      "normalized": true,
      "special": false
    },
    {
      "id": 130401,
      "content": "<unused_token_319>",
      "single_word": false,
      "lstrip": false,
      "rstrip": false,
      "normalized": true,
      "special": false
    },
    {
      "id": 130402,
      "content": "<unused_token_320>",
      "single_word": false,
      "lstrip": false,
      "rstrip": false,
      "normalized": true,
      "special": false
    },
    {
      "id": 130403,
      "content": "<unused_token_321>",
      "single_word": false,
      "lstrip": false,
      "rstrip": false,
      "normalized": true,
      "special": false
    },
    {
      "id": 130404,
      "content": "<unused_token_322>",
      "single_word": false,
      "lstrip": false,
      "rstrip": false,
      "normalized": true,
      "special": false
    },
    {
      "id": 130405,
      "content": "<unused_token_323>",
      "single_word": false,
      "lstrip": false,
      "rstrip": false,
      "normalized": true,
      "special": false
    },
    {
      "id": 130406,
      "content": "<unused_token_324>",
      "single_word": false,
      "lstrip": false,
      "rstrip": false,
      "normalized": true,
      "special": false
    },
    {
      "id": 130407,
      "content": "<unused_token_325>",
      "single_word": false,
      "lstrip": false,
      "rstrip": false,
      "normalized": true,
      "special": false
    },
    {
      "id": 130408,
      "content": "<unused_token_326>",
      "single_word": false,
      "lstrip": false,
      "rstrip": false,
      "normalized": true,
      "special": false
    },
    {
      "id": 130409,
      "content": "<unused_token_327>",
      "single_word": false,
      "lstrip": false,
      "rstrip": false,
      "normalized": true,
      "special": false
    },
    {
      "id": 130410,
      "content": "<unused_token_328>",
      "single_word": false,
      "lstrip": false,
      "rstrip": false,
      "normalized": true,
      "special": false
    },
    {
      "id": 130411,
      "content": "<unused_token_329>",
      "single_word": false,
      "lstrip": false,
      "rstrip": false,
      "normalized": true,
      "special": false
    },
    {
      "id": 130412,
      "content": "<unused_token_330>",
      "single_word": false,
      "lstrip": false,
      "rstrip": false,
      "normalized": true,
      "special": false
    },
    {
      "id": 130413,
      "content": "<unused_token_331>",
      "single_word": false,
      "lstrip": false,
      "rstrip": false,
      "normalized": true,
      "special": false
    },
    {
      "id": 130414,
      "content": "<unused_token_332>",
      "single_word": false,
      "lstrip": false,
      "rstrip": false,
      "normalized": true,
      "special": false
    },
    {
      "id": 130415,
      "content": "<unused_token_333>",
      "single_word": false,
      "lstrip": false,
      "rstrip": false,
      "normalized": true,
      "special": false
    },
    {
      "id": 130416,
      "content": "<unused_token_334>",
      "single_word": false,
      "lstrip": false,
      "rstrip": false,
      "normalized": true,
      "special": false
    },
    {
      "id": 130417,
      "content": "<unused_token_335>",
      "single_word": false,
      "lstrip": false,
      "rstrip": false,
      "normalized": true,
      "special": false
    },
    {
      "id": 130418,
      "content": "<unused_token_336>",
      "single_word": false,
      "lstrip": false,
      "rstrip": false,
      "normalized": true,
      "special": false
    },
    {
      "id": 130419,
      "content": "<unused_token_337>",
      "single_word": false,
      "lstrip": false,
      "rstrip": false,
      "normalized": true,
      "special": false
    },
    {
      "id": 130420,
      "content": "<unused_token_338>",
      "single_word": false,
      "lstrip": false,
      "rstrip": false,
      "normalized": true,
      "special": false
    },
    {
      "id": 130421,
      "content": "<unused_token_339>",
      "single_word": false,
      "lstrip": false,
      "rstrip": false,
      "normalized": true,
      "special": false
    },
    {
      "id": 130422,
      "content": "<unused_token_340>",
      "single_word": false,
      "lstrip": false,
      "rstrip": false,
      "normalized": true,
      "special": false
    },
    {
      "id": 130423,
      "content": "<unused_token_341>",
      "single_word": false,
      "lstrip": false,
      "rstrip": false,
      "normalized": true,
      "special": false
    },
    {
      "id": 130424,
      "content": "<unused_token_342>",
      "single_word": false,
      "lstrip": false,
      "rstrip": false,
      "normalized": true,
      "special": false
    },
    {
      "id": 130425,
      "content": "<unused_token_343>",
      "single_word": false,
      "lstrip": false,
      "rstrip": false,
      "normalized": true,
      "special": false
    },
    {
      "id": 130426,
      "content": "<unused_token_344>",
      "single_word": false,
      "lstrip": false,
      "rstrip": false,
      "normalized": true,
      "special": false
    },
    {
      "id": 130427,
      "content": "<unused_token_345>",
      "single_word": false,
      "lstrip": false,
      "rstrip": false,
      "normalized": true,
      "special": false
    },
    {
      "id": 130428,
      "content": "<unused_token_346>",
      "single_word": false,
      "lstrip": false,
      "rstrip": false,
      "normalized": true,
      "special": false
    },
    {
      "id": 130429,
      "content": "<unused_token_347>",
      "single_word": false,
      "lstrip": false,
      "rstrip": false,
      "normalized": true,
      "special": false
    },
    {
      "id": 130430,
      "content": "<unused_token_348>",
      "single_word": false,
      "lstrip": false,
      "rstrip": false,
      "normalized": true,
      "special": false
    },
    {
      "id": 130431,
      "content": "<unused_token_349>",
      "single_word": false,
      "lstrip": false,
      "rstrip": false,
      "normalized": true,
      "special": false
    },
    {
      "id": 130432,
      "content": "<unused_token_350>",
      "single_word": false,
      "lstrip": false,
      "rstrip": false,
      "normalized": true,
      "special": false
    },
    {
      "id": 130433,
      "content": "<unused_token_351>",
      "single_word": false,
      "lstrip": false,
      "rstrip": false,
      "normalized": true,
      "special": false
    },
    {
      "id": 130434,
      "content": "<unused_token_352>",
      "single_word": false,
      "lstrip": false,
      "rstrip": false,
      "normalized": true,
      "special": false
    },
    {
      "id": 130435,
      "content": "<unused_token_353>",
      "single_word": false,
      "lstrip": false,
      "rstrip": false,
      "normalized": true,
      "special": false
    },
    {
      "id": 130436,
      "content": "<unused_token_354>",
      "single_word": false,
      "lstrip": false,
      "rstrip": false,
      "normalized": true,
      "special": false
    },
    {
      "id": 130437,
      "content": "<unused_token_355>",
      "single_word": false,
      "lstrip": false,
      "rstrip": false,
      "normalized": true,
      "special": false
    },
    {
      "id": 130438,
      "content": "<unused_token_356>",
      "single_word": false,
      "lstrip": false,
      "rstrip": false,
      "normalized": true,
      "special": false
    },
    {
      "id": 130439,
      "content": "<unused_token_357>",
      "single_word": false,
      "lstrip": false,
      "rstrip": false,
      "normalized": true,
      "special": false
    },
    {
      "id": 130440,
      "content": "<unused_token_358>",
      "single_word": false,
      "lstrip": false,
      "rstrip": false,
      "normalized": true,
      "special": false
    },
    {
      "id": 130441,
      "content": "<unused_token_359>",
      "single_word": false,
      "lstrip": false,
      "rstrip": false,
      "normalized": true,
      "special": false
    },
    {
      "id": 130442,
      "content": "<unused_token_360>",
      "single_word": false,
      "lstrip": false,
      "rstrip": false,
      "normalized": true,
      "special": false
    },
    {
      "id": 130443,
      "content": "<unused_token_361>",
      "single_word": false,
      "lstrip": false,
      "rstrip": false,
      "normalized": true,
      "special": false
    },
    {
      "id": 130444,
      "content": "<unused_token_362>",
      "single_word": false,
      "lstrip": false,
      "rstrip": false,
      "normalized": true,
      "special": false
    },
    {
      "id": 130445,
      "content": "<unused_token_363>",
      "single_word": false,
      "lstrip": false,
      "rstrip": false,
      "normalized": true,
      "special": false
    },
    {
      "id": 130446,
      "content": "<unused_token_364>",
      "single_word": false,
      "lstrip": false,
      "rstrip": false,
      "normalized": true,
      "special": false
    },
    {
      "id": 130447,
      "content": "<unused_token_365>",
      "single_word": false,
      "lstrip": false,
      "rstrip": false,
      "normalized": true,
      "special": false
    },
    {
      "id": 130448,
      "content": "<unused_token_366>",
      "single_word": false,
      "lstrip": false,
      "rstrip": false,
      "normalized": true,
      "special": false
    },
    {
      "id": 130449,
      "content": "<unused_token_367>",
      "single_word": false,
      "lstrip": false,
      "rstrip": false,
      "normalized": true,
      "special": false
    },
    {
      "id": 130450,
      "content": "<unused_token_368>",
      "single_word": false,
      "lstrip": false,
      "rstrip": false,
      "normalized": true,
      "special": false
    },
    {
      "id": 130451,
      "content": "<unused_token_369>",
      "single_word": false,
      "lstrip": false,
      "rstrip": false,
      "normalized": true,
      "special": false
    },
    {
      "id": 130452,
      "content": "<unused_token_370>",
      "single_word": false,
      "lstrip": false,
      "rstrip": false,
      "normalized": true,
      "special": false
    },
    {
      "id": 130453,
      "content": "<unused_token_371>",
      "single_word": false,
      "lstrip": false,
      "rstrip": false,
      "normalized": true,
      "special": false
    },
    {
      "id": 130454,
      "content": "<unused_token_372>",
      "single_word": false,
      "lstrip": false,
      "rstrip": false,
      "normalized": true,
      "special": false
    },
    {
      "id": 130455,
      "content": "<unused_token_373>",
      "single_word": false,
      "lstrip": false,
      "rstrip": false,
      "normalized": true,
      "special": false
    },
    {
      "id": 130456,
      "content": "<unused_token_374>",
      "single_word": false,
      "lstrip": false,
      "rstrip": false,
      "normalized": true,
      "special": false
    },
    {
      "id": 130457,
      "content": "<unused_token_375>",
      "single_word": false,
      "lstrip": false,
      "rstrip": false,
      "normalized": true,
      "special": false
    },
    {
      "id": 130458,
      "content": "<unused_token_376>",
      "single_word": false,
      "lstrip": false,
      "rstrip": false,
      "normalized": true,
      "special": false
    },
    {
      "id": 130459,
      "content": "<unused_token_377>",
      "single_word": false,
      "lstrip": false,
      "rstrip": false,
      "normalized": true,
      "special": false
    },
    {
      "id": 130460,
      "content": "<unused_token_378>",
      "single_word": false,
      "lstrip": false,
      "rstrip": false,
      "normalized": true,
      "special": false
    },
    {
      "id": 130461,
      "content": "<unused_token_379>",
      "single_word": false,
      "lstrip": false,
      "rstrip": false,
      "normalized": true,
      "special": false
    },
    {
      "id": 130462,
      "content": "<unused_token_380>",
      "single_word": false,
      "lstrip": false,
      "rstrip": false,
      "normalized": true,
      "special": false
    },
    {
      "id": 130463,
      "content": "<unused_token_381>",
      "single_word": false,
      "lstrip": false,
      "rstrip": false,
      "normalized": true,
      "special": false
    },
    {
      "id": 130464,
      "content": "<unused_token_382>",
      "single_word": false,
      "lstrip": false,
      "rstrip": false,
      "normalized": true,
      "special": false
    },
    {
      "id": 130465,
      "content": "<unused_token_383>",
      "single_word": false,
      "lstrip": false,
      "rstrip": false,
      "normalized": true,
      "special": false
    },
    {
      "id": 130466,
      "content": "<unused_token_384>",
      "single_word": false,
      "lstrip": false,
      "rstrip": false,
      "normalized": true,
      "special": false
    },
    {
      "id": 130467,
      "content": "<unused_token_385>",
      "single_word": false,
      "lstrip": false,
      "rstrip": false,
      "normalized": true,
      "special": false
    },
    {
      "id": 130468,
      "content": "<unused_token_386>",
      "single_word": false,
      "lstrip": false,
      "rstrip": false,
      "normalized": true,
      "special": false
    },
    {
      "id": 130469,
      "content": "<unused_token_387>",
      "single_word": false,
      "lstrip": false,
      "rstrip": false,
      "normalized": true,
      "special": false
    },
    {
      "id": 130470,
      "content": "<unused_token_388>",
      "single_word": false,
      "lstrip": false,
      "rstrip": false,
      "normalized": true,
      "special": false
    },
    {
      "id": 130471,
      "content": "<unused_token_389>",
      "single_word": false,
      "lstrip": false,
      "rstrip": false,
      "normalized": true,
      "special": false
    },
    {
      "id": 130472,
      "content": "<unused_token_390>",
      "single_word": false,
      "lstrip": false,
      "rstrip": false,
      "normalized": true,
      "special": false
    },
    {
      "id": 130473,
      "content": "<unused_token_391>",
      "single_word": false,
      "lstrip": false,
      "rstrip": false,
      "normalized": true,
      "special": false
    },
    {
      "id": 130474,
      "content": "<unused_token_392>",
      "single_word": false,
      "lstrip": false,
      "rstrip": false,
      "normalized": true,
      "special": false
    },
    {
      "id": 130475,
      "content": "<unused_token_393>",
      "single_word": false,
      "lstrip": false,
      "rstrip": false,
      "normalized": true,
      "special": false
    },
    {
      "id": 130476,
      "content": "<unused_token_394>",
      "single_word": false,
      "lstrip": false,
      "rstrip": false,
      "normalized": true,
      "special": false
    },
    {
      "id": 130477,
      "content": "<unused_token_395>",
      "single_word": false,
      "lstrip": false,
      "rstrip": false,
      "normalized": true,
      "special": false
    },
    {
      "id": 130478,
      "content": "<unused_token_396>",
      "single_word": false,
      "lstrip": false,
      "rstrip": false,
      "normalized": true,
      "special": false
    },
    {
      "id": 130479,
      "content": "<unused_token_397>",
      "single_word": false,
      "lstrip": false,
      "rstrip": false,
      "normalized": true,
      "special": false
    },
    {
      "id": 130480,
      "content": "<unused_token_398>",
      "single_word": false,
      "lstrip": false,
      "rstrip": false,
      "normalized": true,
      "special": false
    },
    {
      "id": 130481,
      "content": "<unused_token_399>",
      "single_word": false,
      "lstrip": false,
      "rstrip": false,
      "normalized": true,
      "special": false
    },
    {
      "id": 130482,
      "content": "<unused_token_400>",
      "single_word": false,
      "lstrip": false,
      "rstrip": false,
      "normalized": true,
      "special": false
    },
    {
      "id": 130483,
      "content": "<unused_token_401>",
      "single_word": false,
      "lstrip": false,
      "rstrip": false,
      "normalized": true,
      "special": false
    },
    {
      "id": 130484,
      "content": "<unused_token_402>",
      "single_word": false,
      "lstrip": false,
      "rstrip": false,
      "normalized": true,
      "special": false
    },
    {
      "id": 130485,
      "content": "<unused_token_403>",
      "single_word": false,
      "lstrip": false,
      "rstrip": false,
      "normalized": true,
      "special": false
    },
    {
      "id": 130486,
      "content": "<unused_token_404>",
      "single_word": false,
      "lstrip": false,
      "rstrip": false,
      "normalized": true,
      "special": false
    },
    {
      "id": 130487,
      "content": "<unused_token_405>",
      "single_word": false,
      "lstrip": false,
      "rstrip": false,
      "normalized": true,
      "special": false
    },
    {
      "id": 130488,
      "content": "<unused_token_406>",
      "single_word": false,
      "lstrip": false,
      "rstrip": false,
      "normalized": true,
      "special": false
    },
    {
      "id": 130489,
      "content": "<unused_token_407>",
      "single_word": false,
      "lstrip": false,
      "rstrip": false,
      "normalized": true,
      "special": false
    },
    {
      "id": 130490,
      "content": "<unused_token_408>",
      "single_word": false,
      "lstrip": false,
      "rstrip": false,
      "normalized": true,
      "special": false
    },
    {
      "id": 130491,
      "content": "<unused_token_409>",
      "single_word": false,
      "lstrip": false,
      "rstrip": false,
      "normalized": true,
      "special": false
    },
    {
      "id": 130492,
      "content": "<unused_token_410>",
      "single_word": false,
      "lstrip": false,
      "rstrip": false,
      "normalized": true,
      "special": false
    },
    {
      "id": 130493,
      "content": "<unused_token_411>",
      "single_word": false,
      "lstrip": false,
      "rstrip": false,
      "normalized": true,
      "special": false
    },
    {
      "id": 130494,
      "content": "<unused_token_412>",
      "single_word": false,
      "lstrip": false,
      "rstrip": false,
      "normalized": true,
      "special": false
    },
    {
      "id": 130495,
      "content": "<unused_token_413>",
      "single_word": false,
      "lstrip": false,
      "rstrip": false,
      "normalized": true,
      "special": false
    },
    {
      "id": 130496,
      "content": "<unused_token_414>",
      "single_word": false,
      "lstrip": false,
      "rstrip": false,
      "normalized": true,
      "special": false
    },
    {
      "id": 130497,
      "content": "<unused_token_415>",
      "single_word": false,
      "lstrip": false,
      "rstrip": false,
      "normalized": true,
      "special": false
    },
    {
      "id": 130498,
      "content": "<unused_token_416>",
      "single_word": false,
      "lstrip": false,
      "rstrip": false,
      "normalized": true,
      "special": false
    },
    {
      "id": 130499,
      "content": "<unused_token_417>",
      "single_word": false,
      "lstrip": false,
      "rstrip": false,
      "normalized": true,
      "special": false
    },
    {
      "id": 130500,
      "content": "<unused_token_418>",
      "single_word": false,
      "lstrip": false,
      "rstrip": false,
      "normalized": true,
      "special": false
    },
    {
      "id": 130501,
      "content": "<unused_token_419>",
      "single_word": false,
      "lstrip": false,
      "rstrip": false,
      "normalized": true,
      "special": false
    },
    {
      "id": 130502,
      "content": "<unused_token_420>",
      "single_word": false,
      "lstrip": false,
      "rstrip": false,
      "normalized": true,
      "special": false
    },
    {
      "id": 130503,
      "content": "<unused_token_421>",
      "single_word": false,
      "lstrip": false,
      "rstrip": false,
      "normalized": true,
      "special": false
    },
    {
      "id": 130504,
      "content": "<unused_token_422>",
      "single_word": false,
      "lstrip": false,
      "rstrip": false,
      "normalized": true,
      "special": false
    },
    {
      "id": 130505,
      "content": "<unused_token_423>",
      "single_word": false,
      "lstrip": false,
      "rstrip": false,
      "normalized": true,
      "special": false
    },
    {
      "id": 130506,
      "content": "<unused_token_424>",
      "single_word": false,
      "lstrip": false,
      "rstrip": false,
      "normalized": true,
      "special": false
    },
    {
      "id": 130507,
      "content": "<unused_token_425>",
      "single_word": false,
      "lstrip": false,
      "rstrip": false,
      "normalized": true,
      "special": false
    },
    {
      "id": 130508,
      "content": "<unused_token_426>",
      "single_word": false,
      "lstrip": false,
      "rstrip": false,
      "normalized": true,
      "special": false
    },
    {
      "id": 130509,
      "content": "<unused_token_427>",
      "single_word": false,
      "lstrip": false,
      "rstrip": false,
      "normalized": true,
      "special": false
    },
    {
      "id": 130510,
      "content": "<unused_token_428>",
      "single_word": false,
      "lstrip": false,
      "rstrip": false,
      "normalized": true,
      "special": false
    },
    {
      "id": 130511,
      "content": "<unused_token_429>",
      "single_word": false,
      "lstrip": false,
      "rstrip": false,
      "normalized": true,
      "special": false
    },
    {
      "id": 130512,
      "content": "<unused_token_430>",
      "single_word": false,
      "lstrip": false,
      "rstrip": false,
      "normalized": true,
      "special": false
    },
    {
      "id": 130513,
      "content": "<unused_token_431>",
      "single_word": false,
      "lstrip": false,
      "rstrip": false,
      "normalized": true,
      "special": false
    },
    {
      "id": 130514,
      "content": "<unused_token_432>",
      "single_word": false,
      "lstrip": false,
      "rstrip": false,
      "normalized": true,
      "special": false
    },
    {
      "id": 130515,
      "content": "<unused_token_433>",
      "single_word": false,
      "lstrip": false,
      "rstrip": false,
      "normalized": true,
      "special": false
    },
    {
      "id": 130516,
      "content": "<unused_token_434>",
      "single_word": false,
      "lstrip": false,
      "rstrip": false,
      "normalized": true,
      "special": false
    },
    {
      "id": 130517,
      "content": "<unused_token_435>",
      "single_word": false,
      "lstrip": false,
      "rstrip": false,
      "normalized": true,
      "special": false
    },
    {
      "id": 130518,
      "content": "<unused_token_436>",
      "single_word": false,
      "lstrip": false,
      "rstrip": false,
      "normalized": true,
      "special": false
    },
    {
      "id": 130519,
      "content": "<unused_token_437>",
      "single_word": false,
      "lstrip": false,
      "rstrip": false,
      "normalized": true,
      "special": false
    },
    {
      "id": 130520,
      "content": "<unused_token_438>",
      "single_word": false,
      "lstrip": false,
      "rstrip": false,
      "normalized": true,
      "special": false
    },
    {
      "id": 130521,
      "content": "<unused_token_439>",
      "single_word": false,
      "lstrip": false,
      "rstrip": false,
      "normalized": true,
      "special": false
    },
    {
      "id": 130522,
      "content": "<unused_token_440>",
      "single_word": false,
      "lstrip": false,
      "rstrip": false,
      "normalized": true,
      "special": false
    },
    {
      "id": 130523,
      "content": "<unused_token_441>",
      "single_word": false,
      "lstrip": false,
      "rstrip": false,
      "normalized": true,
      "special": false
    },
    {
      "id": 130524,
      "content": "<unused_token_442>",
      "single_word": false,
      "lstrip": false,
      "rstrip": false,
      "normalized": true,
      "special": false
    },
    {
      "id": 130525,
      "content": "<unused_token_443>",
      "single_word": false,
      "lstrip": false,
      "rstrip": false,
      "normalized": true,
      "special": false
    },
    {
      "id": 130526,
      "content": "<unused_token_444>",
      "single_word": false,
      "lstrip": false,
      "rstrip": false,
      "normalized": true,
      "special": false
    },
    {
      "id": 130527,
      "content": "<unused_token_445>",
      "single_word": false,
      "lstrip": false,
      "rstrip": false,
      "normalized": true,
      "special": false
    },
    {
      "id": 130528,
      "content": "<unused_token_446>",
      "single_word": false,
      "lstrip": false,
      "rstrip": false,
      "normalized": true,
      "special": false
    },
    {
      "id": 130529,
      "content": "<unused_token_447>",
      "single_word": false,
      "lstrip": false,
      "rstrip": false,
      "normalized": true,
      "special": false
    },
    {
      "id": 130530,
      "content": "<unused_token_448>",
      "single_word": false,
      "lstrip": false,
      "rstrip": false,
      "normalized": true,
      "special": false
    },
    {
      "id": 130531,
      "content": "<unused_token_449>",
      "single_word": false,
      "lstrip": false,
      "rstrip": false,
      "normalized": true,
      "special": false
    },
    {
      "id": 130532,
      "content": "<unused_token_450>",
      "single_word": false,
      "lstrip": false,
      "rstrip": false,
      "normalized": true,
      "special": false
    },
    {
      "id": 130533,
      "content": "<unused_token_451>",
      "single_word": false,
      "lstrip": false,
      "rstrip": false,
      "normalized": true,
      "special": false
    },
    {
      "id": 130534,
      "content": "<unused_token_452>",
      "single_word": false,
      "lstrip": false,
      "rstrip": false,
      "normalized": true,
      "special": false
    },
    {
      "id": 130535,
      "content": "<unused_token_453>",
      "single_word": false,
      "lstrip": false,
      "rstrip": false,
      "normalized": true,
      "special": false
    },
    {
      "id": 130536,
      "content": "<unused_token_454>",
      "single_word": false,
      "lstrip": false,
      "rstrip": false,
      "normalized": true,
      "special": false
    },
    {
      "id": 130537,
      "content": "<unused_token_455>",
      "single_word": false,
      "lstrip": false,
      "rstrip": false,
      "normalized": true,
      "special": false
    },
    {
      "id": 130538,
      "content": "<unused_token_456>",
      "single_word": false,
      "lstrip": false,
      "rstrip": false,
      "normalized": true,
      "special": false
    },
    {
      "id": 130539,
      "content": "<unused_token_457>",
      "single_word": false,
      "lstrip": false,
      "rstrip": false,
      "normalized": true,
      "special": false
    },
    {
      "id": 130540,
      "content": "<unused_token_458>",
      "single_word": false,
      "lstrip": false,
      "rstrip": false,
      "normalized": true,
      "special": false
    },
    {
      "id": 130541,
      "content": "<unused_token_459>",
      "single_word": false,
      "lstrip": false,
      "rstrip": false,
      "normalized": true,
      "special": false
    },
    {
      "id": 130542,
      "content": "<unused_token_460>",
      "single_word": false,
      "lstrip": false,
      "rstrip": false,
      "normalized": true,
      "special": false
    },
    {
      "id": 130543,
      "content": "<unused_token_461>",
      "single_word": false,
      "lstrip": false,
      "rstrip": false,
      "normalized": true,
      "special": false
    },
    {
      "id": 130544,
      "content": "<unused_token_462>",
      "single_word": false,
      "lstrip": false,
      "rstrip": false,
      "normalized": true,
      "special": false
    },
    {
      "id": 130545,
      "content": "<unused_token_463>",
      "single_word": false,
      "lstrip": false,
      "rstrip": false,
      "normalized": true,
      "special": false
    },
    {
      "id": 130546,
      "content": "<unused_token_464>",
      "single_word": false,
      "lstrip": false,
      "rstrip": false,
      "normalized": true,
      "special": false
    },
    {
      "id": 130547,
      "content": "<unused_token_465>",
      "single_word": false,
      "lstrip": false,
      "rstrip": false,
      "normalized": true,
      "special": false
    },
    {
      "id": 130548,
      "content": "<unused_token_466>",
      "single_word": false,
      "lstrip": false,
      "rstrip": false,
      "normalized": true,
      "special": false
    },
    {
      "id": 130549,
      "content": "<unused_token_467>",
      "single_word": false,
      "lstrip": false,
      "rstrip": false,
      "normalized": true,
      "special": false
    },
    {
      "id": 130550,
      "content": "<unused_token_468>",
      "single_word": false,
      "lstrip": false,
      "rstrip": false,
      "normalized": true,
      "special": false
    },
    {
      "id": 130551,
      "content": "<unused_token_469>",
      "single_word": false,
      "lstrip": false,
      "rstrip": false,
      "normalized": true,
      "special": false
    },
    {
      "id": 130552,
      "content": "<unused_token_470>",
      "single_word": false,
      "lstrip": false,
      "rstrip": false,
      "normalized": true,
      "special": false
    },
    {
      "id": 130553,
      "content": "<unused_token_471>",
      "single_word": false,
      "lstrip": false,
      "rstrip": false,
      "normalized": true,
      "special": false
    },
    {
      "id": 130554,
      "content": "<unused_token_472>",
      "single_word": false,
      "lstrip": false,
      "rstrip": false,
      "normalized": true,
      "special": false
    },
    {
      "id": 130555,
      "content": "<unused_token_473>",
      "single_word": false,
      "lstrip": false,
      "rstrip": false,
      "normalized": true,
      "special": false
    },
    {
      "id": 130556,
      "content": "<unused_token_474>",
      "single_word": false,
      "lstrip": false,
      "rstrip": false,
      "normalized": true,
      "special": false
    },
    {
      "id": 130557,
      "content": "<unused_token_475>",
      "single_word": false,
      "lstrip": false,
      "rstrip": false,
      "normalized": true,
      "special": false
    },
    {
      "id": 130558,
      "content": "<unused_token_476>",
      "single_word": false,
      "lstrip": false,
      "rstrip": false,
      "normalized": true,
      "special": false
    },
    {
      "id": 130559,
      "content": "<unused_token_477>",
      "single_word": false,
      "lstrip": false,
      "rstrip": false,
      "normalized": true,
      "special": false
    }
  ],
  "normalizer": null,
  "pre_tokenizer": {
    "type": "Sequence",
    "pretokenizers": [
      {
        "type": "Split",
        "pattern": {
          "Regex": "\\p{N}{1,3}"
        },
        "behavior": "Isolated",
        "invert": false
      },
      {
        "type": "Split",
        "pattern": {
          "Regex": "(?i:'s|'t|'re|'ve|'m|'ll|'d)|[^\\r\\n\\p{L}\\p{N}]?\\p{L}+|\\p{N}+| ?[^\\s\\p{L}\\p{N}]+[\\r\\n]*|\\s*[\\r\\n]+|\\s+(?!\\S)|\\s+"
        },
        "behavior": "Isolated",
        "invert": false
      },
      {
        "type": "ByteLevel",
        "add_prefix_space": false,
        "trim_offsets": true,
        "use_regex": false
      }
    ]
  },
  "post_processor": {
    "type": "TemplateProcessing",
    "single": [
      {
        "SpecialToken": {
          "id": "<s>",
          "type_id": 0
        }
      },
      {
        "Sequence": {
          "id": "A",
          "type_id": 0
        }
      }
    ],
    "pair": [
      {
        "SpecialToken": {
          "id": "<s>",
          "type_id": 0
        }
      },
      {
        "Sequence": {
          "id": "A",
          "type_id": 0
        }
      },
      {
        "SpecialToken": {
          "id": "<s>",
          "type_id": 1
        }
      },
      {
        "Sequence": {
          "id": "B",
          "type_id": 1
        }
      }
    ],
    "special_tokens": {
      "<s>": {
        "id": "<s>",
        "ids": [
          0
        ],
        "tokens": [
          "<s>"
        ]
      }
    }
  },
  "decoder": {
    "type": "ByteLevel",
    "add_prefix_space": true,
    "trim_offsets": true,
    "use_regex": true
  },
  "model": {
    "type": "BPE",
    "dropout": null,
    "unk_token": "<unk>",
    "continuing_subword_prefix": null,
    "end_of_word_suffix": null,
    "fuse_unk": false,
    "byte_fallback": false,
    "ignore_merges": false,
    "vocab": {
      "<s>": 0,
      "</s>": 1,
      "<tool_call>": 2,
      "</tool_call>": 3,
      "<|im_sep|>": 4,
      "<|fim_prefix|>": 5,
      "<|fim_middle|>": 6,
      "<|fim_suffix|>": 7,
      "<think>": 8,
      "</think>": 9,
      "<tool_response>": 10,
      "</tool_response>": 11,
      "<tools>": 12,
      "</tools>": 13,
      "<arguments>": 14,
      "</arguments>": 15,
      "<parameters>": 16,
      "</parameters>": 17,
      "<function": 18,
      "</function>": 19,
      "<param": 20,
      "</param>": 21,
      "!": 22,
      "\"": 23,
      "#": 24,
      "$": 25,
      "%": 26,
      "&": 27,
      "'": 28,
      "(": 29,
      ")": 30,
      "*": 31,
      "+": 32,
      ",": 33,
      "-": 34,
      ".": 35,
      "/": 36,
      "0": 37,
      "1": 38,
      "2": 39,
      "3": 40,
      "4": 41,
      "5": 42,
      "6": 43,
      "7": 44,
      "8": 45,
      "9": 46,
      ":": 47,
      ";": 48,
      "<": 49,
      "=": 50,
      ">": 51,
      "?": 52,
      "@": 53,
      "A": 54,
      "B": 55,
      "C": 56,
      "D": 57,
      "E": 58,
      "F": 59,
      "G": 60,
      "H": 61,
      "I": 62,
      "J": 63,
      "K": 64,
      "L": 65,
      "M": 66,
      "N": 67,
      "O": 68,
      "P": 69,
      "Q": 70,
      "R": 71,
      "S": 72,
      "T": 73,
      "U": 74,
      "V": 75,
      "W": 76,
      "X": 77,
      "Y": 78,
      "Z": 79,
      "[": 80,
      "\\": 81,
      "]": 82,
      "^": 83,
      "_": 84,
      "`": 85,
      "a": 86,
      "b": 87,
      "c": 88,
      "d": 89,
      "e": 90,
      "f": 91,
      "g": 92,
      "h": 93,
      "i": 94,
      "j": 95,
      "k": 96,
      "l": 97,
      "m": 98,
      "n": 99,
      "o": 100,
      "p": 101,
      "q": 102,
      "r": 103,
      "s": 104,
      "t": 105,
      "u": 106,
      "v": 107,
      "w": 108,
      "x": 109,
      "y": 110,
      "z": 111,
      "{": 112,
      "|": 113,
      "}": 114,
      "~": 115,
      "¡": 116,
      "¢": 117,
      "£": 118,
      "¤": 119,
      "¥": 120,
      "¦": 121,
      "§": 122,
      "¨": 123,
      "©": 124,
      "ª": 125,
      "«": 126,
      "¬": 127,
      "®": 128,
      "¯": 129,
      "°": 130,
      "±": 131,
      "²": 132,
      "³": 133,
      "´": 134,
      "µ": 135,
      "¶": 136,
      "·": 137,
      "¸": 138,
      "¹": 139,
      "º": 140,
      "»": 141,
      "¼": 142,
      "½": 143,
      "¾": 144,
      "¿": 145,
      "À": 146,
      "Á": 147,
      "Â": 148,
      "Ã": 149,
      "Ä": 150,
      "Å": 151,
      "Æ": 152,
      "Ç": 153,
      "È": 154,
      "É": 155,
      "Ê": 156,
      "Ë": 157,
      "Ì": 158,
      "Í": 159,
      "Î": 160,
      "Ï": 161,
      "Ð": 162,
      "Ñ": 163,
      "Ò": 164,
      "Ó": 165,
      "Ô": 166,
      "Õ": 167,
      "Ö": 168,
      "×": 169,
      "Ø": 170,
      "Ù": 171,
      "Ú": 172,
      "Û": 173,
      "Ü": 174,
      "Ý": 175,
      "Þ": 176,
      "ß": 177,
      "à": 178,
      "á": 179,
      "â": 180,
      "ã": 181,
      "ä": 182,
      "å": 183,
      "æ": 184,
      "ç": 185,
      "è": 186,
      "é": 187,
      "ê": 188,
      "ë": 189,
      "ì": 190,
      "í": 191,
      "î": 192,
      "ï": 193,
      "ð": 194,
      "ñ": 195,
      "ò": 196,
      "ó": 197,
      "ô": 198,
      "õ": 199,
      "ö": 200,
      "÷": 201,
      "ø": 202,
      "ù": 203,
      "ú": 204,
      "û": 205,
      "ü": 206,
      "ý": 207,
      "þ": 208,
      "ÿ": 209,
      "Ā": 210,
      "ā": 211,
      "Ă": 212,
      "ă": 213,
      "Ą": 214,
      "ą": 215,
      "Ć": 216,
      "ć": 217,
      "Ĉ": 218,
      "ĉ": 219,
      "Ċ": 220,
      "ċ": 221,
      "Č": 222,
      "č": 223,
      "Ď": 224,
      "ď": 225,
      "Đ": 226,
      "đ": 227,
      "Ē": 228,
      "ē": 229,
      "Ĕ": 230,
      "ĕ": 231,
      "Ė": 232,
      "ė": 233,
      "Ę": 234,
      "ę": 235,
      "Ě": 236,
      "ě": 237,
      "Ĝ": 238,
      "ĝ": 239,
      "Ğ": 240,
      "ğ": 241,
      "Ġ": 242,
      "ġ": 243,
      "Ģ": 244,
      "ģ": 245,
      "Ĥ": 246,
      "ĥ": 247,
      "Ħ": 248,
      "ħ": 249,
      "Ĩ": 250,
      "ĩ": 251,
      "Ī": 252,
      "ī": 253,
      "Ĭ": 254,
      "ĭ": 255,
      "Į": 256,
      "į": 257,
      "İ": 258,
      "ı": 259,
      "Ĳ": 260,
      "ĳ": 261,
      "Ĵ": 262,
      "ĵ": 263,
      "Ķ": 264,
      "ķ": 265,
      "ĸ": 266,
      "Ĺ": 267,
      "ĺ": 268,
      "Ļ": 269,
      "ļ": 270,
      "Ľ": 271,
      "ľ": 272,
      "Ŀ": 273,
      "ŀ": 274,
      "Ł": 275,
      "ł": 276,
      "Ń": 277,
      "Ġt": 278,
      "he": 279,
      "Ġa": 280,
      "in": 281,
      "ĠĠ": 282,
      "on": 283,
      "re": 284,
      "Ġthe": 285,
      "at": 286,
      "er": 287,
      "Ġs": 288,
      "Ġo": 289,
      "en": 290,
      "Ġc": 291,
      "Ġw": 292,
      "is": 293,
      "es": 294,
      "it": 295,
      "an": 296,
      "or": 297,
      "al": 298,
      "Ġp": 299,
      "ed": 300,
      "Ġf": 301,
      "Ġb": 302,
      "ar": 303,
      "Ġof": 304,
      "Ġan": 305,
      "ing": 306,
      "Ġm": 307,
      "Ġd": 308,
      "à¸": 309,
      "Ġin": 310,
      "ou": 311,
      "ion": 312,
      "ic": 313,
      "td": 314,
      "le": 315,
      "Ġand": 316,
      "Ġto": 317,
      "as": 318,
      "Ġ{": 319,
      "ro": 320,
      "Ġh": 321,
      "ĠĠĠĠ": 322,
      "Ġ\\": 323,
      "Ġ}": 324,
      "ï¼": 325,
      "Ġth": 326,
      "ent": 327,
      "Ġe": 328,
      "ä¸": 329,
      "ct": 330,
      "Ġn": 331,
      "><": 332,
      "Ġl": 333,
      "el": 334,
      "om": 335,
      "st": 336,
      "ï¼Į": 337,
      "et": 338,
      "Ġre": 339,
      "il": 340,
      "im": 341,
      "ra": 342,
      "Ġ(": 343,
      "ĠT": 344,
      "ot": 345,
      "ol": 346,
      "id": 347,
      "Ġg": 348,
      "ig": 349,
      ".Ċ": 350,
      "ut": 351,
      "</": 352,
      "ve": 353,
      "ĠI": 354,
      "ation": 355,
      "ĠS": 356,
      "Ġis": 357,
      "ce": 358,
      "ĠA": 359,
      "ly": 360,
      "ch": 361,
      "ãĢ": 362,
      "çļ": 363,
      "us": 364,
      "Ġbe": 365,
      "ur": 366,
      "çļĦ": 367,
      "un": 368,
      "ow": 369,
      "Ġ$": 370,
      "ĠC": 371,
      "am": 372,
      "ad": 373,
      "Ġfor": 374,
      "äº": 375,
      "Ġon": 376,
      "ver": 377,
      "âĢ": 378,
      "ul": 379,
      "Ġthat": 380,
      "os": 381,
      "Ġst": 382,
      "Ġhe": 383,
      "ith": 384,
      "ir": 385,
      "ĠM": 386,
      "ay": 387,
      "Ġ_": 388,
      "if": 389,
      "Ġas": 390,
      "00": 391,
      "Ġcon": 392,
      "Ġy": 393,
      "ĠĠĠ": 394,
      "tr": 395,
      "ãĢĤ": 396,
      "ãģ": 397,
      "à¹": 398,
      "ĠP": 399,
      "od": 400,
      "Ġwith": 401,
      "qu": 402,
      "ĠÐ": 403,
      "ter": 404,
      "th": 405,
      "em": 406,
      "um": 407,
      "ĠB": 408,
      "Ġal": 409,
      "ä»": 410,
      "Ġit": 411,
      "Ġwh": 412,
      "ab": 413,
      "Ġpro": 414,
      "Ġde": 415,
      "ĠThe": 416,
      "ĠH": 417,
      "ath": 418,
      "Ġv": 419,
      "åı": 420,
      "ag": 421,
      "se": 422,
      "her": 423,
      "ht": 424,
      "res": 425,
      "Ð¾": 426,
      "pe": 427,
      "Ġwe": 428,
      "iv": 429,
      "and": 430,
      "æľ": 431,
      "ac": 432,
      "Ġwas": 433,
      "ĠR": 434,
      "Ġex": 435,
      "Ġr": 436,
      "ĠD": 437,
      "ĠF": 438,
      "ate": 439,
      "ĠE": 440,
      "ld": 441,
      "Ġ-": 442,
      "è¿": 443,
      "å¤": 444,
      "ĠL": 445,
      "ess": 446,
      "Ġyou": 447,
      "Ġor": 448,
      "ĠW": 449,
      "ers": 450,
      "est": 451,
      "==": 452,
      "Ðµ": 453,
      "ist": 454,
      "ity": 455,
      "19": 456,
      "Ġare": 457,
      "Ġ\"": 458,
      "Ġcom": 459,
      "ction": 460,
      "pp": 461,
      "ĠĠĠĠĠĠĠĠ": 462,
      "Ġse": 463,
      "ant": 464,
      "Ġat": 465,
      "math": 466,
      "æĺ": 467,
      "'s": 468,
      "ill": 469,
      "ore": 470,
      "Ġby": 471,
      "ain": 472,
      "åħ": 473,
      "Ġsu": 474,
      "op": 475,
      "ight": 476,
      "Ð°": 477,
      "rom": 478,
      "ĠN": 479,
      "oc": 480,
      "nd": 481,
      "åĪ": 482,
      "Ġ=": 483,
      "ke": 484,
      "ĠG": 485,
      "ä½": 486,
      "ies": 487,
      "Ġ^": 488,
      "ive": 489,
      "ment": 490,
      "20": 491,
      "Ġnot": 492,
      "å®": 493,
      "ure": 494,
      "Ġ'": 495,
      "ial": 496,
      "Ġun": 497,
      "åĲ": 498,
      "ib": 499,
      "ÑĤ": 500,
      "ä¹": 501,
      "art": 502,
      "></": 503,
      "Ð¸": 504,
      "åľ": 505,
      "Ġha": 506,
      "ä¸Ģ": 507,
      "end": 508,
      "Ġsh": 509,
      "Ġne": 510,
      "pl": 511,
      "Ġfrom": 512,
      "te": 513,
      "Ġch": 514,
      "Ġ)": 515,
      "Ġ,": 516,
      "ĠĠĊ": 517,
      "ort": 518,
      "æĺ¯": 519,
      "ge": 520,
      "Ġk": 521,
      "ould": 522,
      "pt": 523,
      "og": 524,
      "Ġle": 525,
      "ren": 526,
      "Ġ<": 527,
      "ie": 528,
      "ical": 529,
      "ĠJ": 530,
      "red": 531,
      "ud": 532,
      "Ġthis": 533,
      "æĪ": 534,
      "ine": 535,
      "å°": 536,
      "all": 537,
      "fe": 538,
      "Ð½": 539,
      "iz": 540,
      "ãĢĤĊ": 541,
      "ich": 542,
      "Ġus": 543,
      "ell": 544,
      "äºĨ": 545,
      ">Ċ": 546,
      "ĠO": 547,
      "per": 548,
      "çĶ": 549,
      "Ġ$\\": 550,
      "ĠĠĠĠĠ": 551,
      "Ñģ": 552,
      "),": 553,
      "ust": 554,
      "Ġ.": 555,
      "ä¸į": 556,
      "10": 557,
      "Ġhave": 558,
      "Ġme": 559,
      "ard": 560,
      "our": 561,
      "Ġhis": 562,
      "rou": 563,
      "Ð¾Ð": 564,
      "è¯": 565,
      "ÑĢ": 566,
      "rm": 567,
      "ç»": 568,
      "ri": 569,
      "ome": 570,
      "Ġcan": 571,
      "ãĤ": 572,
      "up": 573,
      "âĢľ": 574,
      "ph": 575,
      "æĿ": 576,
      "ated": 577,
      "åĬ": 578,
      "æĹ": 579,
      "Ġj": 580,
      "Ġab": 581,
      "able": 582,
      "ĠIn": 583,
      "hen": 584,
      "ime": 585,
      "ous": 586,
      "out": 587,
      "ans": 588,
      "ap": 589,
      "--": 590,
      "Ġ[": 591,
      "ide": 592,
      "ult": 593,
      "AA": 594,
      "âĢĿ": 595,
      "ost": 596,
      "ak": 597,
      "åĽ": 598,
      "Ġim": 599,
      "ther": 600,
      "ass": 601,
      "orm": 602,
      "Ġher": 603,
      "à¸²": 604,
      "ind": 605,
      "Ġen": 606,
      "Ġall": 607,
      "The": 608,
      "ãĢģ": 609,
      "mathrm": 610,
      "Ġwor": 611,
      "Ġcomp": 612,
      "åľ¨": 613,
      "åŃ": 614,
      "Ġcl": 615,
      "ue": 616,
      "Ġwhich": 617,
      "ations": 618,
      "ip": 619,
      "æī": 620,
      "æľī": 621,
      "Ġres": 622,
      "ition": 623,
      "cc": 624,
      "æĸ": 625,
      "ast": 626,
      "12": 627,
      "Ġpl": 628,
      "ä¼": 629,
      "Ġhad": 630,
      "ok": 631,
      "ong": 632,
      "ack": 633,
      "Ġdo": 634,
      "act": 635,
      "der": 636,
      "Ġqu": 637,
      "$Ċ": 638,
      "äºº": 639,
      "Ġdis": 640,
      "age": 641,
      "to": 642,
      "åį": 643,
      "gh": 644,
      "..": 645,
      "à¸Ļ": 646,
      "ame": 647,
      "du": 648,
      "',": 649,
      "ence": 650,
      "ĠU": 651,
      ").": 652,
      "ĠK": 653,
      "ary": 654,
      "åĩ": 655,
      "Ġbut": 656,
      "Ġ}$": 657,
      "ance": 658,
      "Ġad": 659,
      "ft": 660,
      "ep": 661,
      "Ġtr": 662,
      "Ġ+": 663,
      "ang": 664,
      "one": 665,
      "====": 666,
      ".,": 667,
      "ne": 668,
      "å¾": 669,
      "int": 670,
      "å¥": 671,
      "cl": 672,
      "è®": 673,
      "Ġì": 674,
      "ach": 675,
      "Ġwere": 676,
      ".\"": 677,
      "Ġone": 678,
      "éĩ": 679,
      "ub": 680,
      "rac": 681,
      "11": 682,
      "ens": 683,
      "ice": 684,
      "ia": 685,
      "ãĥ": 686,
      "ress": 687,
      "å¹": 688,
      "à¸²à¸": 689,
      "ff": 690,
      "Ġout": 691,
      "Ġper": 692,
      "èĢ": 693,
      "av": 694,
      "å¼": 695,
      "Ġtheir": 696,
      "è¿Ļ": 697,
      "ase": 698,
      "Ġthey": 699,
      "ĠV": 700,
      "15": 701,
      "Ġso": 702,
      "con": 703,
      "ĠTh": 704,
      "Ġgo": 705,
      "18": 706,
      "$$Ċ": 707,
      "ign": 708,
      "ber": 709,
      "oun": 710,
      "ose": 711,
      "ual": 712,
      "Ġman": 713,
      "å·": 714,
      "åĨ": 715,
      "ace": 716,
      "Ð»": 717,
      "Ġcont": 718,
      "ĥ½": 719,
      "__": 720,
      ",\"": 721,
      "ents": 722,
      "Ġhas": 723,
      "æĢ": 724,
      "ire": 725,
      "ions": 726,
      "Ġwill": 727,
      "'t": 728,
      "à¹Ī": 729,
      "ely": 730,
      "are": 731,
      "13": 732,
      "Ġshe": 733,
      "Ġi": 734,
      "ite": 735,
      "ru": 736,
      "åº": 737,
      "Ġup": 738,
      "14": 739,
      "Ġsp": 740,
      "16": 741,
      "è¡": 742,
      "âĢĶ": 743,
      "Ġmy": 744,
      "xt": 745,
      "Ġmore": 746,
      ")Ċ": 747,
      "urn": 748,
      "Ġother": 749,
      "å¯": 750,
      "ear": 751,
      "å¸": 752,
      "ook": 753,
      "form": 754,
      "row": 755,
      "çľ": 756,
      "Ġpart": 757,
      "ma": 758,
      "Ġev": 759,
      "vel": 760,
      "à¸Ń": 761,
      "ound": 762,
      "de": 763,
      "so": 764,
      "IC": 765,
      "ĠY": 766,
      "è§": 767,
      "Ġno": 768,
      "Ġx": 769,
      "ĠĠĠĊ": 770,
      "ä¸ª": 771,
      "å¿": 772,
      "rent": 773,
      "very": 774,
      "ä»ĸ": 775,
      "we": 776,
      "17": 777,
      "èµ": 778,
      "own": 779,
      "ys": 780,
      "æĪĳ": 781,
      "à¹Ģ": 782,
      "çĽ": 783,
      "Ġsa": 784,
      "ll": 785,
      "æķ": 786,
      "unction": 787,
      "ä¸Ń": 788,
      "ile": 789,
      "Ġar": 790,
      "000": 791,
      "åĴ": 792,
      "ors": 793,
      "25": 794,
      "low": 795,
      "Ġthere": 796,
      "ory": 797,
      "éĢ": 798,
      "Ġbeen": 799,
      "Ġapp": 800,
      "Ġif": 801,
      "oss": 802,
      "ord": 803,
      "Ġsc": 804,
      "ake": 805,
      "Ġwould": 806,
      "ks": 807,
      "Ġag": 808,
      "æŃ": 809,
      "port": 810,
      "here": 811,
      "ect": 812,
      "Ġwho": 813,
      "å¤§": 814,
      "ĠCh": 815,
      "Ġdes": 816,
      "Ñĥ": 817,
      "}$": 818,
      "ces": 819,
      "à¹Ģà¸": 820,
      "wo": 821,
      "æĿ¥": 822,
      "åİ": 823,
      "Ġhim": 824,
      "çİ": 825,
      "Ġpre": 826,
      "ĠHe": 827,
      "ms": 828,
      "ree": 829,
      "ater": 830,
      "æĬ": 831,
      "ta": 832,
      "ä¸º": 833,
      "ä¸Ĭ": 834,
      "ry": 835,
      "Ġits": 836,
      "Ġob": 837,
      "aus": 838,
      "Ðº": 839,
      "æł": 840,
      "Ġyour": 841,
      "Ġli": 842,
      "éĹ": 843,
      "Ġinto": 844,
      "Ġtime": 845,
      "ew": 846,
      "ple": 847,
      "Ġthan": 848,
      "ĠĠĠĠĠĠĠ": 849,
      "Ġabout": 850,
      "æ²": 851,
      "201": 852,
      "ĠSt": 853,
      "pr": 854,
      "à¹ī": 855,
      "åĴĮ": 856,
      "ish": 857,
      "Ã©": 858,
      "Ġsy": 859,
      "erv": 860,
      "ĠIt": 861,
      "Ġwhen": 862,
      "èĩ": 863,
      "ian": 864,
      "Ġ&": 865,
      "Ġte": 866,
      "ates": 867,
      "Ġsome": 868,
      "ray": 869,
      "Ġro": 870,
      "Ġover": 871,
      "ata": 872,
      "22": 873,
      "è¦": 874,
      "ings": 875,
      "hed": 876,
      "Ġspe": 877,
      "æĥ": 878,
      "Ġcol": 879,
      "200": 880,
      "30": 881,
      "Ġpr": 882,
      "Ġdif": 883,
      "ov": 884,
      "ç§": 885,
      "éģ": 886,
      "éĿ": 887,
      "ove": 888,
      "Ġkn": 889,
      "Ġany": 890,
      "vers": 891,
      "frac": 892,
      "ict": 893,
      "à¸ģ": 894,
      "åĮ": 895,
      "Ġrel": 896,
      "æ°": 897,
      "Ġbet": 898,
      ".\"Ċ": 899,
      "åĪ°": 900,
      "Ġalso": 901,
      "Ġthem": 902,
      "right": 903,
      "å½": 904,
      "Ġmod": 905,
      "è¦ģ": 906,
      "ark": 907,
      "eth": 908,
      "Ġbec": 909,
      "mathb": 910,
      "ally": 911,
      "ä»¥": 912,
      "ob": 913,
      "elf": 914,
      "],": 915,
      "ject": 916,
      "Ġinter": 917,
      "uc": 918,
      "Ġcons": 919,
      "ìĿ": 920,
      "Ñı": 921,
      "the": 922,
      "\",": 923,
      "çĿ": 924,
      "æĹ¶": 925,
      "Ag": 926,
      "à¸£": 927,
      "å°±": 928,
      "Ñĭ": 929,
      "Ġë": 930,
      "olog": 931,
      "Ġacc": 932,
      "lect": 933,
      "ays": 934,
      "åĩº": 935,
      "ious": 936,
      "old": 937,
      "ps": 938,
      "æŀ": 939,
      "ick": 940,
      "ific": 941,
      "ty": 942,
      "=\"": 943,
      "Ġ|": 944,
      "cre": 945,
      "rit": 946,
      "Ġtwo": 947,
      "mer": 948,
      "ons": 949,
      "Ġonly": 950,
      "à¸±": 951,
      "ail": 952,
      "è´": 953,
      "åĳ": 954,
      "tain": 955,
      "ood": 956,
      "fect": 957,
      ";Ċ": 958,
      "Ġass": 959,
      "ĠĠĠĠĠĠĠĠĠĠĠĠĠĠĠĠ": 960,
      "æ³": 961,
      "ild": 962,
      "24": 963,
      "Ġmay": 964,
      "irst": 965,
      "ener": 966,
      "Ġtra": 967,
      "çī": 968,
      "Ġind": 969,
      "Ð¼": 970,
      "æĶ": 971,
      "éĻ": 972,
      "reat": 973,
      "cess": 974,
      "å±": 975,
      "Ġwhat": 976,
      "\":": 977,
      "Ġ/": 978,
      "åı¯": 979,
      "ied": 980,
      "Ð²": 981,
      "oint": 982,
      "Ġval": 983,
      "ular": 984,
      "Ġwork": 985,
      "99": 986,
      "cal": 987,
      "à¸ĩ": 988,
      "Ġpe": 989,
      ":Ċ": 990,
      "èĥ½": 991,
      "In": 992,
      "hat": 993,
      "ä¼ļ": 994,
      "ink": 995,
      "ient": 996,
      "Ġla": 997,
      "eg": 998,
      "Ġsub": 999,
      "Ġunder": 1000,
      "Ġrec": 1001,
      "à¸¡": 1002,
      "Ġthese": 1003,
      "Ġcould": 1004,
      "âĢĿĊ": 1005,
      "Ġour": 1006,
      "27": 1007,
      "les": 1008,
      "ä¹Ł": 1009,
      "50": 1010,
      "ond": 1011,
      "à¸µ": 1012,
      "lic": 1013,
      "ĠÐ¿": 1014,
      "ating": 1015,
      "pect": 1016,
      "Ġam": 1017,
      "iss": 1018,
      "erm": 1019,
      "Ġem": 1020,
      "Ġsuch": 1021,
      "ÑĮ": 1022,
      "oth": 1023,
      "23": 1024,
      "ced": 1025,
      "ution": 1026,
      "Ġbl": 1027,
      "Ġcomm": 1028,
      "çĶŁ": 1029,
      "ĠThis": 1030,
      "ble": 1031,
      "fore": 1032,
      "igh": 1033,
      "æĦ": 1034,
      "ä¸ĭ": 1035,
      "çĿĢ": 1036,
      "``": 1037,
      "stem": 1038,
      "ï¼ļ": 1039,
      "Ġph": 1040,
      "ough": 1041,
      "----": 1042,
      "ss": 1043,
      "ative": 1044,
      "ise": 1045,
      "Ġoff": 1046,
      "Ġfe": 1047,
      "ram": 1048,
      "æİ": 1049,
      "Ġco": 1050,
      "ause": 1051,
      "':": 1052,
      "å¦": 1053,
      "ä½ł": 1054,
      "å¯¹": 1055,
      "ics": 1056,
      "fter": 1057,
      "Ġsaid": 1058,
      "Ġthen": 1059,
      "çº": 1060,
      "26": 1061,
      "199": 1062,
      "ning": 1063,
      "Ġlike": 1064,
      "28": 1065,
      "çĶ¨": 1066,
      "åľ°": 1067,
      "ä»¬": 1068,
      "ility": 1069,
      "Ġhow": 1070,
      "Ġnew": 1071,
      "36": 1072,
      "Ġra": 1073,
      "ä¿": 1074,
      "Ġact": 1075,
      "40": 1076,
      "var": 1077,
      "turn": 1078,
      "åŃĲ": 1079,
      "dition": 1080,
      "Ġstud": 1081,
      "ible": 1082,
      "rough": 1083,
      "éģĵ": 1084,
      "ER": 1085,
      "ween": 1086,
      "========": 1087,
      "Ġfirst": 1088,
      "æµ": 1089,
      "ade": 1090,
      "ful": 1091,
      "left": 1092,
      "Ġdiffe": 1093,
      "åī": 1094,
      "ational": 1095,
      "29": 1096,
      "è¾": 1097,
      "ities": 1098,
      "oy": 1099,
      "Ð´": 1100,
      "Ġ*": 1101,
      "è¿ĩ": 1102,
      "Ġtrans": 1103,
      "33": 1104,
      "ÑģÑĤ": 1105,
      "Ġnum": 1106,
      "ffect": 1107,
      "Ġsm": 1108,
      "round": 1109,
      "Ġknow": 1110,
      "Ġac": 1111,
      "imes": 1112,
      "æĭ": 1113,
      "sp": 1114,
      "åĵ": 1115,
      "itt": 1116,
      "æ¯": 1117,
      "Ġbetween": 1118,
      "èĩª": 1119,
      "ng": 1120,
      "com": 1121,
      "è¯´": 1122,
      "Ġfl": 1123,
      "pro": 1124,
      "Ġet": 1125,
      "ax": 1126,
      "(t": 1127,
      "ont": 1128,
      "Ġreg": 1129,
      "tern": 1130,
      ",Ċ": 1131,
      "ĠWe": 1132,
      "ange": 1133,
      "){": 1134,
      "get": 1135,
      "Ġfol": 1136,
      "éĤ": 1137,
      "ex": 1138,
      "uch": 1139,
      "ä¹ĭ": 1140,
      "Ġform": 1141,
      "resent": 1142,
      "ures": 1143,
      "ize": 1144,
      "wn": 1145,
      "Ġpol": 1146,
      "cept": 1147,
      "åĲİ": 1148,
      "ull": 1149,
      "Ġdid": 1150,
      "åĽ½": 1151,
      "å¹´": 1152,
      "Ġshould": 1153,
      "Ġback": 1154,
      "Ġthrough": 1155,
      "Ġwhere": 1156,
      "Ġset": 1157,
      "ract": 1158,
      "ec": 1159,
      "åıĳ": 1160,
      "Ġyear": 1161,
      "ĠUn": 1162,
      "æĮ": 1163,
      "à¸§": 1164,
      "Ġsim": 1165,
      "ICAg": 1166,
      "çĦ": 1167,
      "à¸¥": 1168,
      "çŃ": 1169,
      "Ġuse": 1170,
      "Ġsee": 1171,
      "ount": 1172,
      "ments": 1173,
      "Ġrem": 1174,
      "Ġpar": 1175,
      "//": 1176,
      "iel": 1177,
      "Ġneed": 1178,
      "çĲ": 1179,
      "Ġint": 1180,
      "io": 1181,
      "à¸Ķ": 1182,
      "Ġcor": 1183,
      "ric": 1184,
      "ug": 1185,
      "è¡Į": 1186,
      "Ġsystem": 1187,
      "ç¬": 1188,
      "eng": 1189,
      "ix": 1190,
      "è½": 1191,
      "æĪĲ": 1192,
      "Ġmost": 1193,
      "ç«": 1194,
      "Ġfollow": 1195,
      "iew": 1196,
      "ĠÐ²": 1197,
      "é¢": 1198,
      "fl": 1199,
      "clud": 1200,
      "Ġinv": 1201,
      "pos": 1202,
      "Ġprodu": 1203,
      "60": 1204,
      "äºİ": 1205,
      "other": 1206,
      "**": 1207,
      "æĸ¹": 1208,
      "cy": 1209,
      "____": 1210,
      "array": 1211,
      "Ġget": 1212,
      "Ġz": 1213,
      "Ñĩ": 1214,
      "Ġsur": 1215,
      "37": 1216,
      "AAAA": 1217,
      "éĺ": 1218,
      "its": 1219,
      "ock": 1220,
      "ife": 1221,
      "ork": 1222,
      "åŃ¦": 1223,
      "}}": 1224,
      "Ġeach": 1225,
      "ĠAn": 1226,
      "Ġgener": 1227,
      "Ġdet": 1228,
      "ten": 1229,
      "Ġjust": 1230,
      "hes": 1231,
      "ature": 1232,
      "Ġstr": 1233,
      "Ġvar": 1234,
      "ople": 1235,
      "ower": 1236,
      "Ġequ": 1237,
      "Ġprov": 1238,
      "ä¹Ī": 1239,
      "ily": 1240,
      "ident": 1241,
      "ined": 1242,
      "Ġatt": 1243,
      "_{": 1244,
      "å¾Ĺ": 1245,
      "35": 1246,
      "éĤ£": 1247,
      "Ġresult": 1248,
      "ased": 1249,
      "Ġclass": 1250,
      "ever": 1251,
      "ä¾": 1252,
      "ï¼Ł": 1253,
      "Ġinst": 1254,
      "198": 1255,
      "Ġdef": 1256,
      "çĦ¶": 1257,
      "ier": 1258,
      "èĢĮ": 1259,
      "cial": 1260,
      "trib": 1261,
      "ä½ľ": 1262,
      "ism": 1263,
      "this": 1264,
      "ds": 1265,
      "45": 1266,
      "çĤ": 1267,
      "ĠÑģ": 1268,
      "ON": 1269,
      "led": 1270,
      "ward": 1271,
      "à¸¢": 1272,
      "mathbf": 1273,
      "ues": 1274,
      "èĤ": 1275,
      "Ġused": 1276,
      "à¸Ĺ": 1277,
      "íķ": 1278,
      "éĥ½": 1279,
      "çľĭ": 1280,
      "ĠRe": 1281,
      "å¤ļ": 1282,
      "ĠPro": 1283,
      "als": 1284,
      "Ġ)$": 1285,
      "Ġent": 1286,
      "Ġhand": 1287,
      "function": 1288,
      "ÐµÐ½": 1289,
      "åĪĨ": 1290,
      "âĢ¦": 1291,
      "IN": 1292,
      "Ġagain": 1293,
      "çŁ": 1294,
      "à¸ļ": 1295,
      "Ġlook": 1296,
      "Ġpers": 1297,
      "Ġeven": 1298,
      "38": 1299,
      "Ġu": 1300,
      "ç®": 1301,
      "Ġafter": 1302,
      "å°ı": 1303,
      "{array": 1304,
      "21": 1305,
      "Ġest": 1306,
      "##": 1307,
      "48": 1308,
      "å¥½": 1309,
      "ins": 1310,
      "å¿ĥ": 1311,
      "ized": 1312,
      "Ġwell": 1313,
      ");": 1314,
      "?\"": 1315,
      "ĠCom": 1316,
      "amb": 1317,
      "Ġlong": 1318,
      "å®¶": 1319,
      "velop": 1320,
      "(\"": 1321,
      "iet": 1322,
      "Ġfunction": 1323,
      "Ġway": 1324,
      "ĠSe": 1325,
      "ather": 1326,
      "Ġmodel": 1327,
      "çİ°": 1328,
      "mathcal": 1329,
      "æ²¡": 1330,
      "^{": 1331,
      "},": 1332,
      "è¿ĺ": 1333,
      "Ġsupp": 1334,
      "à¸´": 1335,
      "Ġpoint": 1336,
      "gan": 1337,
      "Ġpeople": 1338,
      "ator": 1339,
      "ited": 1340,
      "éĿ¢": 1341,
      "å¥¹": 1342,
      "Ġexp": 1343,
      "ness": 1344,
      "Ġfact": 1345,
      "ample": 1346,
      "sc": 1347,
      "Ġright": 1348,
      "ĠÐ½": 1349,
      "sh": 1350,
      "over": 1351,
      "Ġext": 1352,
      "ES": 1353,
      "ç»ı": 1354,
      "æ³ķ": 1355,
      "Ġdifferent": 1356,
      "åĢ": 1357,
      "air": 1358,
      "åŁ": 1359,
      "å¦Ĥ": 1360,
      "75": 1361,
      "Ġgiv": 1362,
      "39": 1363,
      "ement": 1364,
      "Ġsame": 1365,
      "Ġdisc": 1366,
      "ctions": 1367,
      "44": 1368,
      "ool": 1369,
      "ages": 1370,
      "åĬ¨": 1371,
      "ĠX": 1372,
      "å®ļ": 1373,
      "ght": 1374,
      "Ġel": 1375,
      "Ġsol": 1376,
      "Ġnow": 1377,
      "of": 1378,
      "ĠZ": 1379,
      "eta": 1380,
      "Ġsign": 1381,
      "uring": 1382,
      "Ġconst": 1383,
      "ale": 1384,
      "Ġshow": 1385,
      "Ġinte": 1386,
      "100": 1387,
      "Ġbecause": 1388,
      "ÑĢÐ°": 1389,
      "Ġcar": 1390,
      "Ġê": 1391,
      "çĲĨ": 1392,
      "æ¬": 1393,
      "Ġmany": 1394,
      "à¸ª": 1395,
      "ave": 1396,
      "Ġdata": 1397,
      "ï¼ģ": 1398,
      "ype": 1399,
      "å¤©": 1400,
      "Ġpat": 1401,
      "Ġdown": 1402,
      "Ġevery": 1403,
      "Ġexper": 1404,
      "Ġappro": 1405,
      "val": 1406,
      "Ġvery": 1407,
      "ĠFor": 1408,
      "Ġmat": 1409,
      "ines": 1410,
      "ãģ®": 1411,
      "è·": 1412,
      "ck": 1413,
      "ran": 1414,
      "46": 1415,
      "æ±": 1416,
      "Ġbel": 1417,
      "Ġeffect": 1418,
      "arg": 1419,
      "éĩĮ": 1420,
      "put": 1421,
      "æ¸": 1422,
      "à¸ķ": 1423,
      "line": 1424,
      "Ġed": 1425,
      "und": 1426,
      "Ġwant": 1427,
      "Ġend": 1428,
      "ner": 1429,
      "ëĭ": 1430,
      "ts": 1431,
      "Ġmin": 1432,
      "Ġpartic": 1433,
      "Ġke": 1434,
      "ĠQ": 1435,
      "ene": 1436,
      "åİ»": 1437,
      "ting": 1438,
      "Ġfin": 1439,
      "Ð·": 1440,
      "prime": 1441,
      "Ġhigh": 1442,
      "ĠÐ¸": 1443,
      "åĬĽ": 1444,
      "ä¸ļ": 1445,
      "pha": 1446,
      "ization": 1447,
      "text": 1448,
      "dot": 1449,
      "Ġboth": 1450,
      "ince": 1451,
      "cent": 1452,
      "ern": 1453,
      "Ġmade": 1454,
      "Ġcall": 1455,
      "äºĭ": 1456,
      "Ġmake": 1457,
      "ically": 1458,
      "åģ": 1459,
      "AT": 1460,
      "ruct": 1461,
      "Ð¾Ð²": 1462,
      "aking": 1463,
      "æľ¬": 1464,
      "47": 1465,
      "for": 1466,
      "æ´": 1467,
      "Ġap": 1468,
      "å¼Ģ": 1469,
      "li": 1470,
      "Ġnumber": 1471,
      "irc": 1472,
      "æīĢ": 1473,
      "ĠShe": 1474,
      "Ġthose": 1475,
      "ivers": 1476,
      "è°": 1477,
      "da": 1478,
      "man": 1479,
      "Ġgra": 1480,
      "ody": 1481,
      "Ġbefore": 1482,
      "AN": 1483,
      "gg": 1484,
      "49": 1485,
      "arch": 1486,
      "æĢ§": 1487,
      "Ġmust": 1488,
      "é¡": 1489,
      "Ġinclud": 1490,
      "way": 1491,
      "Th": 1492,
      "self": 1493,
      "Ġgood": 1494,
      "80": 1495,
      "ox": 1496,
      "AR": 1497,
      "Ġ:": 1498,
      "Ġcent": 1499,
      "Ġcomple": 1500,
      "Ġdevelop": 1501,
      "Ġcur": 1502,
      "èµ·": 1503,
      "Ġmuch": 1504,
      "197": 1505,
      "éķ": 1506,
      "55": 1507,
      "Ġear": 1508,
      "ym": 1509,
      "à¸°": 1510,
      "à¸Ħ": 1511,
      "ural": 1512,
      "Ġown": 1513,
      "ICAgICAg": 1514,
      "ices": 1515,
      "æĽ": 1516,
      "åīį": 1517,
      "ĠAl": 1518,
      "ï¼ī": 1519,
      "Ġrep": 1520,
      "Ġrequ": 1521,
      "à¸«": 1522,
      "uss": 1523,
      "è¿Ľ": 1524,
      "66": 1525,
      "ä½ĵ": 1526,
      "éĥ": 1527,
      "åħ¶": 1528,
      "ci": 1529,
      "å®ŀ": 1530,
      "ared": 1531,
      "gy": 1532,
      "Ġimport": 1533,
      "}Ċ": 1534,
      "ology": 1535,
      "70": 1536,
      "Ġaut": 1537,
      "rest": 1538,
      "é«": 1539,
      "Ġprocess": 1540,
      "Ġgrou": 1541,
      "Ġfound": 1542,
      "ĉĉ": 1543,
      "alpha": 1544,
      "ven": 1545,
      "Ġdec": 1546,
      "formation": 1547,
      "yle": 1548,
      "åĲĮ": 1549,
      "èº": 1550,
      "ho": 1551,
      "ĠBut": 1552,
      "rence": 1553,
      "-b": 1554,
      "ute": 1555,
      "ublic": 1556,
      "Ġdep": 1557,
      "Ġgl": 1558,
      "Ġbeing": 1559,
      "Ġdire": 1560,
      "ä¸»": 1561,
      "Ġfind": 1562,
      "Ġposs": 1563,
      "à¹ģ": 1564,
      "ethod": 1565,
      "}{": 1566,
      "yp": 1567,
      "ä¸İ": 1568,
      "vent": 1569,
      "Ġdoes": 1570,
      "éļ": 1571,
      "æĻ": 1572,
      "EN": 1573,
      "ĠÐ¾": 1574,
      "ton": 1575,
      "Ġreal": 1576,
      "æĥ³": 1577,
      "Ñħ": 1578,
      "é«ĺ": 1579,
      "arge": 1580,
      "Ġsoc": 1581,
      "ç¨": 1582,
      "oh": 1583,
      "read": 1584,
      "çĤ¹": 1585,
      "èĦ": 1586,
      "hem": 1587,
      "Ð¿": 1588,
      "ĠIf": 1589,
      "Ġop": 1590,
      "Ġchild": 1591,
      "return": 1592,
      "app": 1593,
      "æīĭ": 1594,
      "ength": 1595,
      "?Ċ": 1596,
      "ases": 1597,
      "éĽ": 1598,
      "32": 1599,
      "Ġ\\\\": 1600,
      "Ġlife": 1601,
      "à¹Ħ": 1602,
      "ä¸Ģä¸ª": 1603,
      "Ġref": 1604,
      "Ġyears": 1605,
      "å§": 1606,
      "chn": 1607,
      "til": 1608,
      "90": 1609,
      "Ġproble": 1610,
      "par": 1611,
      "ider": 1612,
      "Ġincre": 1613,
      "OR": 1614,
      "34": 1615,
      "py": 1616,
      "çĻ": 1617,
      "]Ċ": 1618,
      "ĠAnd": 1619,
      "ield": 1620,
      "ç½": 1621,
      "å£": 1622,
      "31": 1623,
      "èĢħ": 1624,
      "ists": 1625,
      "å·¥": 1626,
      "ĠDe": 1627,
      "ash": 1628,
      "ars": 1629,
      "ode": 1630,
      "Ġpos": 1631,
      "éĹ´": 1632,
      "ah": 1633,
      "æı": 1634,
      "rain": 1635,
      "Ġhel": 1636,
      "çŃī": 1637,
      "ional": 1638,
      "str": 1639,
      ").Ċ": 1640,
      "é£": 1641,
      "æĦı": 1642,
      "col": 1643,
      "AL": 1644,
      "äºĽ": 1645,
      "any": 1646,
      "ç¥": 1647,
      "que": 1648,
      "ï¼Ī": 1649,
      "au": 1650,
      "Ġbr": 1651,
      "land": 1652,
      "èī": 1653,
      "ants": 1654,
      "Ġread": 1655,
      "ted": 1656,
      "ãģĦ": 1657,
      "Ġloc": 1658,
      "Ġbu": 1659,
      "ought": 1660,
      "alk": 1661,
      "ĠPh": 1662,
      "Ġspec": 1663,
      "span": 1664,
      "ision": 1665,
      "åħ¬": 1666,
      "Ġthink": 1667,
      "Ġpa": 1668,
      "be": 1669,
      "Ġexpl": 1670,
      "ç§į": 1671,
      "rol": 1672,
      "Ġmon": 1673,
      "Ġperson": 1674,
      "Ġcase": 1675,
      "èº«": 1676,
      "ross": 1677,
      "Ġdist": 1678,
      "ĠAs": 1679,
      "ually": 1680,
      "Ġsmall": 1681,
      "æģ": 1682,
      "meric": 1683,
      "Ġins": 1684,
      "Ġusing": 1685,
      "cond": 1686,
      "He": 1687,
      "Ġthree": 1688,
      "elta": 1689,
      "-s": 1690,
      "88": 1691,
      "tic": 1692,
      "Ġanal": 1693,
      "ĠNew": 1694,
      "Ġser": 1695,
      "è¢": 1696,
      "ung": 1697,
      "ç©": 1698,
      "lear": 1699,
      "ï¼ļâĢľ": 1700,
      "ĠCon": 1701,
      "Ġresp": 1702,
      "å½ĵ": 1703,
      "åĮĸ": 1704,
      "77": 1705,
      "Ġes": 1706,
      "aw": 1707,
      "ann": 1708,
      "æĹł": 1709,
      "ved": 1710,
      "ivid": 1711,
      "ives": 1712,
      "min": 1713,
      "ral": 1714,
      "Ġque": 1715,
      "ively": 1716,
      "ential": 1717,
      "Ġgu": 1718,
      "ouse": 1719,
      "...": 1720,
      "ĠÐº": 1721,
      "Ġmem": 1722,
      "arm": 1723,
      "igure": 1724,
      "Ġcoun": 1725,
      "æį": 1726,
      "Ġserv": 1727,
      "ense": 1728,
      "ĠĠĠĠĠĠĠĠĠĠĠ": 1729,
      "Ġgr": 1730,
      "set": 1731,
      "æĥħ": 1732,
      ")</": 1733,
      "202": 1734,
      "Ġhere": 1735,
      "ND": 1736,
      "ç¤": 1737,
      "åĲĪ": 1738,
      "æŁ": 1739,
      "ÐµÑĤ": 1740,
      "We": 1741,
      "åıª": 1742,
      "65": 1743,
      "åĿ": 1744,
      "yn": 1745,
      "```": 1746,
      "Ð¹": 1747,
      "è¶": 1748,
      "ãĢĤâĢĿĊ": 1749,
      "err": 1750,
      "ves": 1751,
      "Ġsom": 1752,
      "åºĶ": 1753,
      "Ð±": 1754,
      "ters": 1755,
      "ulation": 1756,
      "95": 1757,
      "'d": 1758,
      "].": 1759,
      "ished": 1760,
      "Ġpresent": 1761,
      "Ġfam": 1762,
      "hip": 1763,
      "Ġwhile": 1764,
      "Ġsl": 1765,
      "èĭ": 1766,
      "Ġdi": 1767,
      "Ġprog": 1768,
      "ien": 1769,
      "Ġdon": 1770,
      "mathbb": 1771,
      "It": 1772,
      "ĠThey": 1773,
      "Ġnon": 1774,
      "åħ¨": 1775,
      "éĥ¨": 1776,
      "Ġ$(": 1777,
      "196": 1778,
      "cr": 1779,
      "ĠHow": 1780,
      "atic": 1781,
      "Ġworld": 1782,
      "Ġmethod": 1783,
      "ability": 1784,
      "ffic": 1785,
      "Ġhum": 1786,
      "ambda": 1787,
      "Ġimp": 1788,
      "Ġdem": 1789,
      "æł·": 1790,
      "ĠAr": 1791,
      "Ġline": 1792,
      "éľ": 1793,
      "&&": 1794,
      "éķ¿": 1795,
      "Ġgiven": 1796,
      "ior": 1797,
      "AC": 1798,
      "åħ³": 1799,
      "85": 1800,
      "éĩį": 1801,
      "Ġtake": 1802,
      "amp": 1803,
      "Ġadd": 1804,
      "Ġlet": 1805,
      "çķ": 1806,
      "ality": 1807,
      "åĽł": 1808,
      "Ġbeh": 1809,
      "äº§": 1810,
      "ÑĢÐµ": 1811,
      "Ġtest": 1812,
      "Ġ{\\": 1813,
      "ç´": 1814,
      "à¹ĥ": 1815,
      "Ġmed": 1816,
      "ption": 1817,
      "ä½Ĩ": 1818,
      "els": 1819,
      "åķ": 1820,
      "çŁ¥": 1821,
      "\">": 1822,
      "Ġstill": 1823,
      "ĠThere": 1824,
      ".l": 1825,
      "ience": 1826,
      "Ġcour": 1827,
      "mu": 1828,
      "-d": 1829,
      "ìĹ": 1830,
      "Ġsay": 1831,
      "åº¦": 1832,
      "Ġhead": 1833,
      "OD": 1834,
      "Ġlead": 1835,
      ")$": 1836,
      "æĹ¥": 1837,
      "ĠâĢ": 1838,
      "ert": 1839,
      "ĠAmeric": 1840,
      "ç¾": 1841,
      "less": 1842,
      "RE": 1843,
      "ank": 1844,
      "æľĢ": 1845,
      "az": 1846,
      "ired": 1847,
      "Ġhelp": 1848,
      "05": 1849,
      ",e": 1850,
      "Ġtoo": 1851,
      "èĬ": 1852,
      "à¸Ī": 1853,
      "Ġocc": 1854,
      "Ġmight": 1855,
      "Ġav": 1856,
      "alth": 1857,
      "åĨħ": 1858,
      "Ġturn": 1859,
      "Ġwom": 1860,
      "ĠâĢľ": 1861,
      "ertain": 1862,
      "æĺİ": 1863,
      ");Ċ": 1864,
      "å¤´": 1865,
      "ç³": 1866,
      "ä¸ī": 1867,
      "çĹ": 1868,
      "inal": 1869,
      "ron": 1870,
      "å°Ĩ": 1871,
      "ä»İ": 1872,
      "01": 1873,
      "chool": 1874,
      "æķ°": 1875,
      "ĠÐ´": 1876,
      "78": 1877,
      "ãģ§": 1878,
      "ittle": 1879,
      "Ġorder": 1880,
      "Ġstand": 1881,
      "âĸ": 1882,
      "Ġoper": 1883,
      "ç¬¬": 1884,
      "acter": 1885,
      "Ġvalue": 1886,
      "æľº": 1887,
      "æĸĩ": 1888,
      "Ġconf": 1889,
      "å·±": 1890,
      "Ġlevel": 1891,
      "çģ": 1892,
      "æ¶": 1893,
      "Ġquest": 1894,
      "ying": 1895,
      "Ġstate": 1896,
      "new": 1897,
      "å¾Ī": 1898,
      "à¸²à¸£": 1899,
      "Ð³": 1900,
      "ital": 1901,
      "Ð¾Ð»": 1902,
      "Ġmain": 1903,
      "Ġwithout": 1904,
      "æŃ¤": 1905,
      "68": 1906,
      "Ġcontin": 1907,
      "):": 1908,
      "table": 1909,
      "ets": 1910,
      "Ġele": 1911,
      "Ġmeas": 1912,
      "ving": 1913,
      "raph": 1914,
      "oci": 1915,
      "stand": 1916,
      "po": 1917,
      "Ġpower": 1918,
      "aj": 1919,
      "iness": 1920,
      "Ġchar": 1921,
      "64": 1922,
      "Ġtem": 1923,
      "çī©": 1924,
      "å¤ĸ": 1925,
      "amma": 1926,
      "èĥ": 1927,
      "éĢļ": 1928,
      "çĪ": 1929,
      "yl": 1930,
      "Ġ~": 1931,
      "Ġday": 1932,
      "ides": 1933,
      "ID": 1934,
      "OT": 1935,
      "98": 1936,
      "ĠEx": 1937,
      "view": 1938,
      "èĩªå·±": 1939,
      "67": 1940,
      "egin": 1941,
      "Ġsk": 1942,
      "ole": 1943,
      "Ġaround": 1944,
      "ĠYou": 1945,
      "Ġexample": 1946,
      "}\\": 1947,
      "ane": 1948,
      "ãģĹ": 1949,
      "igma": 1950,
      "å¢": 1951,
      "Ġcre": 1952,
      "Ġpres": 1953,
      "itive": 1954,
      "Ġseem": 1955,
      "iversity": 1956,
      "?\"Ċ": 1957,
      "ots": 1958,
      "._": 1959,
      "ason": 1960,
      "æ²¡æľī": 1961,
      "éĩı": 1962,
      "è¢«": 1963,
      "åħ¥": 1964,
      "à¸µà¹Ī": 1965,
      "Ġloss": 1966,
      "Ġask": 1967,
      "Ñİ": 1968,
      "Ġpass": 1969,
      "çĽ¸": 1970,
      "ified": 1971,
      "Ġey": 1972,
      "pi": 1973,
      "ĠĊ": 1974,
      "åĪ¶": 1975,
      "Ġdel": 1976,
      "akes": 1977,
      "Ġappe": 1978,
      "ST": 1979,
      "æĸ°": 1980,
      "Ġmet": 1981,
      "Ġinformation": 1982,
      "Ġfollowing": 1983,
      "Ġmean": 1984,
      "--------": 1985,
      "ĠCl": 1986,
      "Ġstart": 1987,
      "Ġlear": 1988,
      "Ġanother": 1989,
      "rist": 1990,
      "Ġcondition": 1991,
      "bers": 1992,
      "ived": 1993,
      "æŃ£": 1994,
      "Ð½Ð¸": 1995,
      "Ġche": 1996,
      "Ġgreat": 1997,
      "ãģ«": 1998,
      "Ġduring": 1999,
      "rem": 2000,
      "à¹ĩ": 2001,
      "åĬł": 2002,
      "ä¸¤": 2003,
      "Ġide": 2004,
      "'Ċ": 2005,
      "ĠÃ": 2006,
      "not": 2007,
      "orn": 2008,
      "tt": 2009,
      "quad": 2010,
      "ĠLe": 2011,
      "ium": 2012,
      "oid": 2013,
      "Ġperform": 2014,
      "Ġinterest": 2015,
      "æ°Ķ": 2016,
      "èĲ": 2017,
      ".S": 2018,
      "ried": 2019,
      "part": 2020,
      "Ġreturn": 2021,
      "Ġless": 2022,
      "angle": 2023,
      "Ġplace": 2024,
      "begin": 2025,
      "Ġimportant": 2026,
      "ï¼ĮæĪĳ": 2027,
      "Ġthought": 2028,
      "69": 2029,
      "Ġobs": 2030,
      ".p": 2031,
      "atch": 2032,
      "Ġopen": 2033,
      "',Ċ": 2034,
      "hy": 2035,
      "ww": 2036,
      "ctor": 2037,
      "ately": 2038,
      "Ġ</": 2039,
      "cdot": 2040,
      "ik": 2041,
      "Ġsecond": 2042,
      "Ġlittle": 2043,
      "à¤": 2044,
      "ĠSh": 2045,
      "èģ": 2046,
      "Ġnever": 2047,
      "ination": 2048,
      "ways": 2049,
      "bar": 2050,
      "ëĭ¤": 2051,
      "Ġpur": 2052,
      "Ð½Ñĭ": 2053,
      "Ġbre": 2054,
      "å»": 2055,
      "çĸ": 2056,
      "èĪ": 2057,
      "Ġcommun": 2058,
      "çł": 2059,
      "Ġmark": 2060,
      "try": 2061,
      "Ġcap": 2062,
      "è¡¨": 2063,
      "Ġcal": 2064,
      "Ġtechn": 2065,
      "Ð¾Ð¼": 2066,
      "agn": 2067,
      "æ°´": 2068,
      "Ġorgan": 2069,
      "à¸·": 2070,
      "-f": 2071,
      "=t": 2072,
      "ivity": 2073,
      "Ġcell": 2074,
      "name": 2075,
      "Ġplay": 2076,
      "'m": 2077,
      "Ġinc": 2078,
      "Ġ]": 2079,
      "ãģ¦": 2080,
      "Ġver": 2081,
      "éĶ": 2082,
      "Ð½Ð¾": 2083,
      "tribut": 2084,
      "æ·": 2085,
      "æĪĸ": 2086,
      "ining": 2087,
      "ĠInd": 2088,
      "Ġagainst": 2089,
      "Ġlarge": 2090,
      "IT": 2091,
      "ĠOn": 2092,
      "'re": 2093,
      "Ġwater": 2094,
      "Ġve": 2095,
      "å·²": 2096,
      "ä»Ģ": 2097,
      "æŀľ": 2098,
      "ĠGod": 2099,
      "HE": 2100,
      "ìĿ´": 2101,
      "ling": 2102,
      "ä½į": 2103,
      "Ġ{Ċ": 2104,
      "Ġder": 2105,
      "Ġwithin": 2106,
      "Ġgroup": 2107,
      "à¸¸": 2108,
      "Ġcare": 2109,
      "Ġstat": 2110,
      "ï¼Įè¿Ļ": 2111,
      "Ġpublic": 2112,
      "Ġlast": 2113,
      "43": 2114,
      "79": 2115,
      "Ġident": 2116,
      "play": 2117,
      "Ġwrit": 2118,
      "lambda": 2119,
      "cul": 2120,
      "åĽŀ": 2121,
      "ä»Ģä¹Ī": 2122,
      "\\mathrm": 2123,
      "================": 2124,
      "ger": 2125,
      "41": 2126,
      "Ġprof": 2127,
      "med": 2128,
      "Ð°ÑĤ": 2129,
      "Ġmen": 2130,
      "\",\"": 2131,
      "Ġbas": 2132,
      "ush": 2133,
      "data": 2134,
      "ĠAd": 2135,
      "phi": 2136,
      "ently": 2137,
      "crib": 2138,
      "lt": 2139,
      "Ġobject": 2140,
      "gt": 2141,
      "________": 2142,
      "ients": 2143,
      "Ġinfl": 2144,
      "Ch": 2145,
      "Ġstruct": 2146,
      "Ð¸ÑĤ": 2147,
      "Ġleft": 2148,
      "ilar": 2149,
      "Ġvari": 2150,
      "Ã¡": 2151,
      "Ġí": 2152,
      "âĢĻ": 2153,
      "Ġproper": 2154,
      "ression": 2155,
      "à¸Ľ": 2156,
      "co": 2157,
      "conom": 2158,
      "Ã³": 2159,
      "Ġelect": 2160,
      "Ġfew": 2161,
      "Ġlim": 2162,
      "por": 2163,
      "Ġbook": 2164,
      "çĥ": 2165,
      "Ġdr": 2166,
      "ote": 2167,
      "à¸Ńà¸ĩ": 2168,
      "ples": 2169,
      "ç¼": 2170,
      "Ġ.Ċ": 2171,
      "Ġhist": 2172,
      "use": 2173,
      "sw": 2174,
      "ething": 2175,
      "ãģĻ": 2176,
      "Ð¾Ð´": 2177,
      "Ġold": 2178,
      "Ġparticular": 2179,
      "ency": 2180,
      "St": 2181,
      "Ġcome": 2182,
      "ief": 2183,
      "Ġgrow": 2184,
      "èµĦ": 2185,
      "çĽ®": 2186,
      "ither": 2187,
      "dis": 2188,
      "42": 2189,
      "AB": 2190,
      "åĸ": 2191,
      "ãģ¨": 2192,
      "å¹¶": 2193,
      "Ġfre": 2194,
      "uck": 2195,
      "ä½¿": 2196,
      "ysis": 2197,
      "äºĮ": 2198,
      "ĠÐ¼": 2199,
      "Ġconsider": 2200,
      "æıĲ": 2201,
      "ĠĠĠĠĠĠ": 2202,
      "ably": 2203,
      "ised": 2204,
      "NT": 2205,
      "ç³»": 2206,
      "nal": 2207,
      "æľĪ": 2208,
      "ention": 2209,
      "éĹ®": 2210,
      "ëĬ": 2211,
      "Ġsince": 2212,
      "Ġq": 2213,
      "Ġresults": 2214,
      "ividual": 2215,
      ",r": 2216,
      "eter": 2217,
      "fer": 2218,
      "âĢ¦âĢ¦": 2219,
      "Ġvis": 2220,
      "Ġter": 2221,
      "sum": 2222,
      "å¸¸": 2223,
      "Ġvol": 2224,
      "Ġadv": 2225,
      "Ð¾ÑĢ": 2226,
      "Ġbro": 2227,
      "gr": 2228,
      "pped": 2229,
      "Ġsupport": 2230,
      "Ġgoing": 2231,
      "iety": 2232,
      "ilon": 2233,
      "ÑĪ": 2234,
      "ek": 2235,
      "æ¬¡": 2236,
      "II": 2237,
      "thing": 2238,
      "ï¼Ľ": 2239,
      "Ġmult": 2240,
      "åı¯ä»¥": 2241,
      "ploy": 2242,
      "éħ": 2243,
      "Ġstudy": 2244,
      "Ġbus": 2245,
      "Ġgre": 2246,
      "ury": 2247,
      "ç±": 2248,
      "abl": 2249,
      "ç®¡": 2250,
      "Ġlight": 2251,
      "åįģ": 2252,
      "mb": 2253,
      "Ġfeel": 2254,
      "ological": 2255,
      "Ġsing": 2256,
      "ãģª": 2257,
      "ç¡": 2258,
      "aps": 2259,
      ">-": 2260,
      "åĲĳ": 2261,
      "hor": 2262,
      "ê³": 2263,
      "ÐµÐ»": 2264,
      "iod": 2265,
      "å¸Ĥ": 2266,
      "çĶµ": 2267,
      "Ġlo": 2268,
      "è§ģ": 2269,
      "ĠÑĤ": 2270,
      "éĩĳ": 2271,
      "son": 2272,
      "Ġsit": 2273,
      "ï¼Įä»ĸ": 2274,
      "58": 2275,
      "ç¥ŀ": 2276,
      "\\x": 2277,
      "uro": 2278,
      "Ġpract": 2279,
      "://": 2280,
      "æ¯Ķ": 2281,
      "åıĬ": 2282,
      "den": 2283,
      "çľ¼": 2284,
      "AAAAAAAA": 2285,
      "Ġgeneral": 2286,
      "Ġcontrol": 2287,
      "%$": 2288,
      "style": 2289,
      "Ð¶": 2290,
      "oper": 2291,
      "Ġhuman": 2292,
      "MD": 2293,
      "LE": 2294,
      "-m": 2295,
      "ĠEng": 2296,
      "Ġoften": 2297,
      "Ġsocial": 2298,
      "Ġbo": 2299,
      "iron": 2300,
      "08": 2301,
      "è¯Ŀ": 2302,
      "æİ¥": 2303,
      "Ġchang": 2304,
      "'ll": 2305,
      "inc": 2306,
      "æĦŁ": 2307,
      "Ġdeterm": 2308,
      "ç»Ļ": 2309,
      "èĢģ": 2310,
      "You": 2311,
      "ä¿¡": 2312,
      "An": 2313,
      "ains": 2314,
      "ga": 2315,
      "Ġdirect": 2316,
      "ĠÐ½Ð°": 2317,
      "åĵģ": 2318,
      "-p": 2319,
      "ission": 2320,
      "ãģŁ": 2321,
      "ç¨ĭ": 2322,
      "Ġdesign": 2323,
      "æľŁ": 2324,
      "éĴ": 2325,
      "âĸĪ": 2326,
      "Ġrepresent": 2327,
      "AS": 2328,
      "Ġhapp": 2329,
      "èĻ": 2330,
      "This": 2331,
      "èį": 2332,
      "Ġproblem": 2333,
      "IG": 2334,
      "ãĤĭ": 2335,
      "ç¦": 2336,
      "ental": 2337,
      "Ġener": 2338,
      "Ġproduct": 2339,
      "æĽ´": 2340,
      "Ġput": 2341,
      "MT": 2342,
      "Ġsomething": 2343,
      "beta": 2344,
      "Ġreport": 2345,
      "ÑĨ": 2346,
      "Ġview": 2347,
      "||": 2348,
      "åı£": 2349,
      "Ġindividual": 2350,
      "Ġallow": 2351,
      "type": 2352,
      "IS": 2353,
      "urther": 2354,
      "Ġbest": 2355,
      "oor": 2356,
      "Ġaway": 2357,
      "çľŁ": 2358,
      "Ġsat": 2359,
      ",and": 2360,
      "Ġpot": 2361,
      "Ġfil": 2362,
      "Ġpossible": 2363,
      "åıĪ": 2364,
      "ëĬĶ": 2365,
      "outh": 2366,
      "ĠÂ": 2367,
      "Ġredu": 2368,
      "195": 2369,
      "iter": 2370,
      "vious": 2371,
      "ference": 2372,
      "Ġtop": 2373,
      "ĠRes": 2374,
      "aterial": 2375,
      "Ġlow": 2376,
      "97": 2377,
      "by": 2378,
      "ends": 2379,
      "Ġself": 2380,
      "ccess": 2381,
      "sigma": 2382,
      "urs": 2383,
      "Ġalways": 2384,
      "ource": 2385,
      "let": 2386,
      "As": 2387,
      "rad": 2388,
      "Ġcalled": 2389,
      "è®©": 2390,
      "Ġlaw": 2391,
      "Ġprote": 2392,
      "å£°": 2393,
      "ohn": 2394,
      "ãģĮ": 2395,
      "éª": 2396,
      "rel": 2397,
      "ina": 2398,
      "Ġprob": 2399,
      "ION": 2400,
      "ä¿Ŀ": 2401,
      "Ġchildren": 2402,
      "ames": 2403,
      "times": 2404,
      "ering": 2405,
      "åĪ©": 2406,
      "à¸¹": 2407,
      "))": 2408,
      "Ġunderstand": 2409,
      "Ġ#": 2410,
      "é»": 2411,
      "che": 2412,
      "ead": 2413,
      "fic": 2414,
      "ume": 2415,
      "Ð¾Ð³": 2416,
      "raw": 2417,
      "æĬĬ": 2418,
      "-t": 2419,
      "ĠUniversity": 2420,
      "Ġfour": 2421,
      "Ġdidn": 2422,
      "å¹³": 2423,
      "Ġ>": 2424,
      "ĠTo": 2425,
      "à¸Ĥ": 2426,
      "olution": 2427,
      "iving": 2428,
      "ape": 2429,
      "where": 2430,
      "Ġcharacter": 2431,
      "ãģ¾": 2432,
      "Ġschool": 2433,
      "Ġpop": 2434,
      "ĠTr": 2435,
      "Ġobserv": 2436,
      "Ġchange": 2437,
      "ÐµÑĢ": 2438,
      "Ġleg": 2439,
      "è§£": 2440,
      "sy": 2441,
      "Ġmeasure": 2442,
      "Ġobtain": 2443,
      "Ġrun": 2444,
      "Ġhome": 2445,
      "AM": 2446,
      "Ġdiscuss": 2447,
      "ĠÐ¿ÑĢ": 2448,
      "eps": 2449,
      "Ġsignific": 2450,
      "èī²": 2451,
      "ĠWhat": 2452,
      "Ġabove": 2453,
      "ances": 2454,
      "æķĻ": 2455,
      "Ġrest": 2456,
      "ĠBe": 2457,
      "vern": 2458,
      "lo": 2459,
      "å®ī": 2460,
      "day": 2461,
      "ott": 2462,
      "Ġcr": 2463,
      "è®¡": 2464,
      "Pro": 2465,
      "ĠCol": 2466,
      "07": 2467,
      "ç²": 2468,
      "att": 2469,
      "Ġrelations": 2470,
      "ĠWhen": 2471,
      "çī¹": 2472,
      "åľº": 2473,
      "ç»ĵ": 2474,
      "ormal": 2475,
      "Ġopp": 2476,
      "ĠIs": 2477,
      "å±ķ": 2478,
      "istic": 2479,
      "Ġeas": 2480,
      "Ġrespect": 2481,
      "åıĺ": 2482,
      "EC": 2483,
      "ä»£": 2484,
      "æ¡": 2485,
      "Ġhard": 2486,
      "ï¼Įä¸į": 2487,
      "-c": 2488,
      "åĲį": 2489,
      "work": 2490,
      "apt": 2491,
      "EL": 2492,
      "Ġdescrib": 2493,
      "rag": 2494,
      "âĸĪâĸĪ": 2495,
      "face": 2496,
      "à¹Į": 2497,
      "Ġbody": 2498,
      "aut": 2499,
      "57": 2500,
      "ument": 2501,
      "Ġcost": 2502,
      "ification": 2503,
      "ided": 2504,
      "pre": 2505,
      "ãģ¯": 2506,
      "Ġmom": 2507,
      "çĶ±": 2508,
      "å»º": 2509,
      "Ġlist": 2510,
      "ãĤĴ": 2511,
      "Ġcertain": 2512,
      "Ġclear": 2513,
      "æĤ": 2514,
      "idence": 2515,
      "Ġcho": 2516,
      "ĠChrist": 2517,
      "ateg": 2518,
      "Ġside": 2519,
      "ograph": 2520,
      "plic": 2521,
      "ustr": 2522,
      "çĽ´": 2523,
      "Ð°Ð»": 2524,
      "ĠAt": 2525,
      "59": 2526,
      "ule": 2527,
      "Mz": 2528,
      "Ġsw": 2529,
      "Ġconc": 2530,
      "åİŁ": 2531,
      "Ġthings": 2532,
      "Ġ}Ċ": 2533,
      "ãĥ¼": 2534,
      "rop": 2535,
      "Ġgot": 2536,
      "cri": 2537,
      "theta": 2538,
      "å°ĳ": 2539,
      "Ġrow": 2540,
      "me": 2541,
      "Ġwar": 2542,
      "action": 2543,
      "åĬ¡": 2544,
      "ley": 2545,
      "Ġname": 2546,
      "ĠPl": 2547,
      "Ġrese": 2548,
      "æ°ĳ": 2549,
      "Ġinvol": 2550,
      "../": 2551,
      "ĠNo": 2552,
      "AD": 2553,
      "06": 2554,
      "æīį": 2555,
      "Ġmar": 2556,
      "\"Ċ": 2557,
      "Ġgive": 2558,
      "Ġtype": 2559,
      "Ġrad": 2560,
      "Ð¾ÑĤ": 2561,
      "br": 2562,
      ".com": 2563,
      "Ġgovern": 2564,
      "ìĦ": 2565,
      "Ġexpect": 2566,
      "leq": 2567,
      "éĵ": 2568,
      "ope": 2569,
      "ãĢĭ": 2570,
      "ended": 2571,
      "ìŀ": 2572,
      "_l": 2573,
      "Ġmove": 2574,
      "ãĢĬ": 2575,
      "Ġopt": 2576,
      "Ġinvest": 2577,
      "Ġbetter": 2578,
      "ÃŃ": 2579,
      "thon": 2580,
      "Ġeyes": 2581,
      "ĠYork": 2582,
      "Ġund": 2583,
      "Ġwhe": 2584,
      "Ġperiod": 2585,
      "Ġuntil": 2586,
      ".g": 2587,
      "ĠâĢĵ": 2588,
      "åĦ": 2589,
      "Ġposition": 2590,
      "ieve": 2591,
      "Ġlab": 2592,
      "ique": 2593,
      "Ġsugg": 2594,
      "ï¼Įä½Ĩ": 2595,
      ".s": 2596,
      "åŁº": 2597,
      "olds": 2598,
      "Ġsuggest": 2599,
      "å¼ı": 2600,
      "Ġsum": 2601,
      "æ»": 2602,
      "åģļ": 2603,
      "angu": 2604,
      "ories": 2605,
      "Ġfr": 2606,
      "ats": 2607,
      "Ġenergy": 2608,
      "bs": 2609,
      "Ġtot": 2610,
      "à¸ģà¸²à¸£": 2611,
      "ê°": 2612,
      "ĠMar": 2613,
      "å¤Ħ": 2614,
      "éĹ¨": 2615,
      "å¼º": 2616,
      "uation": 2617,
      "Ġfore": 2618,
      "itud": 2619,
      "ched": 2620,
      "Ġden": 2621,
      "Ġphys": 2622,
      "rt": 2623,
      "aken": 2624,
      "Ġbeg": 2625,
      "Ġiss": 2626,
      "åĨį": 2627,
      "å¥³": 2628,
      "è®¾": 2629,
      "though": 2630,
      "ìł": 2631,
      "Ġfield": 2632,
      "Ġnext": 2633,
      "wh": 2634,
      "ÐµÐ½Ð¸": 2635,
      "ĠComm": 2636,
      "ued": 2637,
      "æ´»": 2638,
      "ogn": 2639,
      "Ġnet": 2640,
      "Ġdev": 2641,
      "ĠSp": 2642,
      "Ġface": 2643,
      "09": 2644,
      "Ġmov": 2645,
      "ison": 2646,
      "Ġpolit": 2647,
      "æ®": 2648,
      "ery": 2649,
      "Ġindic": 2650,
      "Ġaddition": 2651,
      "Ġtell": 2652,
      "Ġfar": 2653,
      "Ġtyp": 2654,
      "Ġcame": 2655,
      "rodu": 2656,
      "eb": 2657,
      "ĠThese": 2658,
      "ream": 2659,
      "Ġplan": 2660,
      "çĻ½": 2661,
      "Ġfamily": 2662,
      "Ġmanag": 2663,
      "ìĹĲ": 2664,
      "ĠHowever": 2665,
      "resp": 2666,
      "æīĵ": 2667,
      "'ve": 2668,
      "af": 2669,
      "é¢ĺ": 2670,
      "Ġcrit": 2671,
      "poch": 2672,
      "ĠAmerican": 2673,
      "Ġcommon": 2674,
      "Ġclos": 2675,
      "reg": 2676,
      "ee": 2677,
      "Ġroom": 2678,
      "Ġtreat": 2679,
      "à¸ŀ": 2680,
      "à¸³": 2681,
      "Ġsimilar": 2682,
      "Ġcult": 2683,
      ".c": 2684,
      "çĭ": 2685,
      "ĠTe": 2686,
      "Ġarg": 2687,
      "Ġvalues": 2688,
      "ird": 2689,
      "Ġarm": 2690,
      "ĠWh": 2691,
      "partial": 2692,
      "Ã£": 2693,
      ":\"": 2694,
      "Ġexist": 2695,
      "Ġpred": 2696,
      "Ġlater": 2697,
      "\"I": 2698,
      ")}": 2699,
      "56": 2700,
      "ĠÐ±": 2701,
      "tribution": 2702,
      "Ġbased": 2703,
      "orth": 2704,
      "Ġtext": 2705,
      "ç¾İ": 2706,
      "ians": 2707,
      "Ð¾Ð¹": 2708,
      "cing": 2709,
      "Ġmeans": 2710,
      "ä»¶": 2711,
      "åĪ«": 2712,
      "Ġsever": 2713,
      "Ġtoward": 2714,
      "Ġpress": 2715,
      "Ã¼": 2716,
      "åĩł": 2717,
      "nu": 2718,
      "Ġkind": 2719,
      "most": 2720,
      "Ġsal": 2721,
      "Ġorig": 2722,
      "Ġhig": 2723,
      "ask": 2724,
      "(e": 2725,
      "Ġmaterial": 2726,
      "ĠOr": 2727,
      "gamma": 2728,
      "ify": 2729,
      "Ġmor": 2730,
      "è£": 2731,
      "_t": 2732,
      "Ġcirc": 2733,
      "Ġfac": 2734,
      "Ġspace": 2735,
      "alf": 2736,
      "ables": 2737,
      "æĶ¿": 2738,
      "Ġtimes": 2739,
      "Ġtw": 2740,
      "!Ċ": 2741,
      "ained": 2742,
      "arrow": 2743,
      "Ġquestion": 2744,
      "Ġlocal": 2745,
      "Ġrece": 2746,
      "ED": 2747,
      "Ġcourse": 2748,
      "åħī": 2749,
      "ç«ĭ": 2750,
      "ĠAll": 2751,
      "Ġnecess": 2752,
      "Ġleast": 2753,
      ".[": 2754,
      "```Ċ": 2755,
      "åĦ¿": 2756,
      "iver": 2757,
      "Ġmot": 2758,
      "Ġassoci": 2759,
      "Ġant": 2760,
      "idth": 2761,
      "enn": 2762,
      "Ġshown": 2763,
      "å°±æĺ¯": 2764,
      "usion": 2765,
      "ubl": 2766,
      "AP": 2767,
      "é©": 2768,
      "viron": 2769,
      "Ġnear": 2770,
      "å½¢": 2771,
      "LC": 2772,
      "Ġeconom": 2773,
      "Ġcurrent": 2774,
      "é¦": 2775,
      "Ġdevelopment": 2776,
      "ìĿĦ": 2777,
      "ording": 2778,
      "Ġfri": 2779,
      "Ġris": 2780,
      "mm": 2781,
      "epend": 2782,
      "Ġpost": 2783,
      "Ã£o": 2784,
      "Ġhy": 2785,
      "Ġexam": 2786,
      "ì§": 2787,
      "Ġrate": 2788,
      "ĠLet": 2789,
      "Ġbusiness": 2790,
      "à¸Ĭ": 2791,
      "Ã§": 2792,
      "Ġreason": 2793,
      "ajor": 2794,
      "uf": 2795,
      "racy": 2796,
      "duct": 2797,
      "Ġinit": 2798,
      "Ġmind": 2799,
      "osp": 2800,
      "Ġothers": 2801,
      "Ġanalysis": 2802,
      "Ġabs": 2803,
      "ai": 2804,
      ".</": 2805,
      "++": 2806,
      "delta": 2807,
      "Ġupon": 2808,
      "à¹Ĥ": 2809,
      "ened": 2810,
      "ailable": 2811,
      "Ġwords": 2812,
      "ards": 2813,
      "Ġamong": 2814,
      "åĮº": 2815,
      "æĮĩ": 2816,
      "ours": 2817,
      "Ġwr": 2818,
      "Ex": 2819,
      "íķĺ": 2820,
      "Ġdom": 2821,
      "Ġwomen": 2822,
      "Ġsubject": 2823,
      "194": 2824,
      "Ġeng": 2825,
      "Â·": 2826,
      "Ġprom": 2827,
      ";&": 2828,
      "à¹Īà¸²à¸": 2829,
      "Ġhowever": 2830,
      "Ġterm": 2831,
      "ered": 2832,
      "rho": 2833,
      "Ar": 2834,
      "Ġbehav": 2835,
      "åı¸": 2836,
      "Ġknown": 2837,
      "-l": 2838,
      "æĪĳä»¬": 2839,
      "elt": 2840,
      "Ġtook": 2841,
      "To": 2842,
      "Ġstrong": 2843,
      "Ġsignificant": 2844,
      "bl": 2845,
      "02": 2846,
      "tau": 2847,
      ".e": 2848,
      "Ġalong": 2849,
      "87": 2850,
      "Ġseveral": 2851,
      "stit": 2852,
      "etic": 2853,
      "Ġmass": 2854,
      "æº": 2855,
      "Ġapplic": 2856,
      "atter": 2857,
      "Ġenough": 2858,
      "äºĨä¸Ģ": 2859,
      "Nz": 2860,
      "apter": 2861,
      "Ġcomput": 2862,
      "ĠĠĠĠĠĠĠĠĠĠĠĠĠĠĠ": 2863,
      "Ġparam": 2864,
      "Ġthough": 2865,
      "Al": 2866,
      "lection": 2867,
      "Ġbecome": 2868,
      "¥¿": 2869,
      "åıĹ": 2870,
      "Ġshort": 2871,
      "ç¬ĳ": 2872,
      "RO": 2873,
      "Ġseen": 2874,
      ".length": 2875,
      "åħĥ": 2876,
      "æĶ¾": 2877,
      "ING": 2878,
      "Ġmus": 2879,
      "\\%$": 2880,
      ".j": 2881,
      "imal": 2882,
      "Ġill": 2883,
      "Mj": 2884,
      "Ġrather": 2885,
      "Ġemploy": 2886,
      ">N": 2887,
      "Ġinf": 2888,
      "Ġhouse": 2889,
      "Ġart": 2890,
      "ait": 2891,
      "èµ°": 2892,
      "åĳĺ": 2893,
      "ĠJohn": 2894,
      "Ġsuccess": 2895,
      "ival": 2896,
      "ĠBl": 2897,
      "ä½ķ": 2898,
      "imens": 2899,
      "96": 2900,
      "ledge": 2901,
      "pecial": 2902,
      "ä»»": 2903,
      "For": 2904,
      "ibility": 2905,
      "Ġprogram": 2906,
      "Ġlik": 2907,
      "Ġbound": 2908,
      "Ġland": 2909,
      "999": 2910,
      "åħĪ": 2911,
      "é£İ": 2912,
      "Ġterms": 2913,
      "Ġbuild": 2914,
      "Re": 2915,
      "Ġcomb": 2916,
      "Ġsingle": 2917,
      "è¨": 2918,
      "....": 2919,
      "Ġaccount": 2920,
      "ë¡": 2921,
      "aring": 2922,
      "gen": 2923,
      "Ġimpro": 2924,
      "Ġasked": 2925,
      "ready": 2926,
      "Ġfree": 2927,
      "What": 2928,
      "åŀ": 2929,
      "Ġhealth": 2930,
      "æĶ¶": 2931,
      "Ġarea": 2932,
      "èİ": 2933,
      "Ġkeep": 2934,
      "omega": 2935,
      "åĶ": 2936,
      "Ġfull": 2937,
      "sup": 2938,
      "Ġsuper": 2939,
      "Ġneg": 2940,
      "Ġtoget": 2941,
      "urch": 2942,
      "ET": 2943,
      "aster": 2944,
      "Ġtogether": 2945,
      "ĠThen": 2946,
      "ux": 2947,
      "è¥¿": 2948,
      "big": 2949,
      "Ġeither": 2950,
      "Cl": 2951,
      "****": 2952,
      "Ð°Ðº": 2953,
      "Nj": 2954,
      "çİĭ": 2955,
      "Ġmil": 2956,
      "oot": 2957,
      "Ġtotal": 2958,
      "And": 2959,
      "ä¸ľ": 2960,
      "ĠNe": 2961,
      "èĩ³": 2962,
      "Ġconne": 2963,
      "å¤ª": 2964,
      "Ġmoment": 2965,
      "æĢĿ": 2966,
      "ä»ĸä»¬": 2967,
      "çĬ": 2968,
      "æį®": 2969,
      "å¨": 2970,
      "aim": 2971,
      "ĠMr": 2972,
      "ators": 2973,
      "å®Į": 2974,
      "cont": 2975,
      "ĠHis": 2976,
      "ç¤¾": 2977,
      "æľ¯": 2978,
      "ler": 2979,
      "ĠPr": 2980,
      "ĠÐ·": 2981,
      "Ġwon": 2982,
      "ĠPhys": 2983,
      "ÑģÑı": 2984,
      "03": 2985,
      "193": 2986,
      "ĠCo": 2987,
      "Ð»Ð¸": 2988,
      "Ġtrue": 2989,
      "fficient": 2990,
      "ift": 2991,
      "æµģ": 2992,
      "Ġyoung": 2993,
      "ï¼Įä½ł": 2994,
      "Ġenc": 2995,
      "ĠSo": 2996,
      "EE": 2997,
      "Ġresearch": 2998,
      "Ġtre": 2999,
      "Ġapproach": 3000,
      "Ġpotential": 3001,
      "cer": 3002,
      "Ġair": 3003,
      "Ġauthor": 3004,
      "oney": 3005,
      "une": 3006,
      "æ¸ħ": 3007,
      "\"),": 3008,
      "ä¸įæĺ¯": 3009,
      "åĲĦ": 3010,
      "Delta": 3011,
      "circ": 3012,
      "ources": 3013,
      "Ñī": 3014,
      "sequ": 3015,
      "äº¤": 3016,
      "Ġflow": 3017,
      "ãĢĤâĢĿ": 3018,
      "ï¼ŁâĢĿĊ": 3019,
      "atures": 3020,
      "ids": 3021,
      "ÑģÐº": 3022,
      ",n": 3023,
      "Ġdie": 3024,
      "ml": 3025,
      "ches": 3026,
      "^{\\": 3027,
      "uff": 3028,
      "ç®Ĺ": 3029,
      "fty": 3030,
      "ä¸ĸ": 3031,
      "respond": 3032,
      "Ġstructure": 3033,
      "Ġwent": 3034,
      "ĠEn": 3035,
      "Ġdays": 3036,
      "ae": 3037,
      "Ġearly": 3038,
      "Ġnight": 3039,
      "ç»Ł": 3040,
      "ï¼Įä¸Ģ": 3041,
      "asing": 3042,
      "oll": 3043,
      "=function": 3044,
      "Ġnat": 3045,
      "Ã¤": 3046,
      ".A": 3047,
      "ember": 3048,
      "ĠThat": 3049,
      "see": 3050,
      "Ġhimself": 3051,
      "ĠAss": 3052,
      "Ġalready": 3053,
      "sych": 3054,
      "Ġeduc": 3055,
      "æŀĹ": 3056,
      "Ġspecial": 3057,
      "Ġdone": 3058,
      "ĠĠĠĠĠĠĠĠĠĠĠĠĠĠĠĠĠĠĠĠĠĠĠĠĠĠĠĠĠĠĠĠ": 3059,
      "Ġmajor": 3060,
      "rences": 3061,
      "anguage": 3062,
      "ìĿĺ": 3063,
      "Ġdue": 3064,
      "div": 3065,
      "åĽĽ": 3066,
      "ged": 3067,
      "ored": 3068,
      "omet": 3069,
      "ending": 3070,
      "Ġpain": 3071,
      "Ġincluding": 3072,
      "mod": 3073,
      "Ġsize": 3074,
      "Ġlarg": 3075,
      "åįķ": 3076,
      "ä¾¿": 3077,
      "ĠÑĥ": 3078,
      "()": 3079,
      "Ġexperim": 3080,
      "===": 3081,
      "ĠEpoch": 3082,
      "è¾¹": 3083,
      "ges": 3084,
      "ault": 3085,
      "éľĢ": 3086,
      "Ġlove": 3087,
      "_s": 3088,
      "If": 3089,
      "è¿Ļä¸ª": 3090,
      "ressed": 3091,
      "iol": 3092,
      "Ġsec": 3093,
      "è·¯": 3094,
      "Ġsystems": 3095,
      "Ġìŀ": 3096,
      "Ġonce": 3097,
      "imate": 3098,
      "è§Ħ": 3099,
      "æĪĺ": 3100,
      "åĥ": 3101,
      "US": 3102,
      "python": 3103,
      "But": 3104,
      "è´¨": 3105,
      "Ġreally": 3106,
      "Ph": 3107,
      "OL": 3108,
      "Ġfurther": 3109,
      "89": 3110,
      "åıį": 3111,
      "ĠMan": 3112,
      "aces": 3113,
      "idd": 3114,
      "side": 3115,
      "Ġcolspan": 3116,
      "Ġsens": 3117,
      "verage": 3118,
      "Ġavailable": 3119,
      "Ġbi": 3120,
      "iction": 3121,
      "ibr": 3122,
      "Ġlay": 3123,
      "roll": 3124,
      "infty": 3125,
      "erc": 3126,
      "è±": 3127,
      "à¸±à¸Ļ": 3128,
      "sq": 3129,
      "elves": 3130,
      "à¸±à¸ļ": 3131,
      "å±±": 3132,
      "å®ĥ": 3133,
      "è§ī": 3134,
      "æ±Ĥ": 3135,
      "istr": 3136,
      "Ġstudents": 3137,
      "bol": 3138,
      "æĳ": 3139,
      "vironment": 3140,
      "ä¼ł": 3141,
      "ips": 3142,
      "ï¼Įåľ¨": 3143,
      "Ġcomplex": 3144,
      "icy": 3145,
      "position": 3146,
      "Ġmonth": 3147,
      "{\\": 3148,
      "iple": 3149,
      "ï¼ĮèĢĮ": 3150,
      "Ġdeg": 3151,
      "ï¼Įä¹Ł": 3152,
      "Ġsure": 3153,
      ".'Ċ": 3154,
      "Ġable": 3155,
      "è®¤": 3156,
      "à¸²à¸¡": 3157,
      "¥¼": 3158,
      "ocus": 3159,
      "At": 3160,
      "500": 3161,
      "å½±": 3162,
      "Ġinde": 3163,
      "now": 3164,
      "ficult": 3165,
      "IL": 3166,
      "Ġquant": 3167,
      "Ġpast": 3168,
      "UR": 3169,
      "Ġwhether": 3170,
      "error": 3171,
      "rect": 3172,
      "Ġwind": 3173,
      "ä¸ĩ": 3174,
      "Ġsent": 3175,
      "å¸Ī": 3176,
      "Ġlooked": 3177,
      "De": 3178,
      "04": 3179,
      "å²": 3180,
      "çĹħ": 3181,
      "add": 3182,
      "ĠOne": 3183,
      "éŁ": 3184,
      "Ġconditions": 3185,
      "ĠCar": 3186,
      "ising": 3187,
      "Ġheart": 3188,
      "Ġarr": 3189,
      "Ġwhole": 3190,
      "color": 3191,
      "Ġfrequ": 3192,
      "ĠÐ½Ðµ": 3193,
      "çŁ¥éģĵ": 3194,
      "\\n": 3195,
      "empt": 3196,
      "fra": 3197,
      "ç±»": 3198,
      "Ġexperience": 3199,
      "æĿ¡": 3200,
      "hing": 3201,
      "Ġrelationship": 3202,
      "Ġtemper": 3203,
      "Ġtalk": 3204,
      "à¸²à¸ģ": 3205,
      "Ð½Ð°": 3206,
      "Ġcou": 3207,
      "ç©º": 3208,
      "Ġcannot": 3209,
      "61": 3210,
      "Ġprovide": 3211,
      "Ġwhy": 3212,
      "èħ": 3213,
      "Lj": 3214,
      "ãģĭ": 3215,
      "Ġpp": 3216,
      "63": 3217,
      "ĠìĿ": 3218,
      "chan": 3219,
      "itor": 3220,
      "ĠCan": 3221,
      "æµ·": 3222,
      "åĢĻ": 3223,
      "oph": 3224,
      "Ġaction": 3225,
      "na": 3226,
      "å¸¦": 3227,
      "Ġrespons": 3228,
      "ref": 3229,
      "Ġbene": 3230,
      "åĽ¾": 3231,
      "Ġpatients": 3232,
      "display": 3233,
      "Ĥ¬": 3234,
      "ĠÑ": 3235,
      "arget": 3236,
      "ado": 3237,
      "Ġmeet": 3238,
      "isf": 3239,
      "Ġmax": 3240,
      "ned": 3241,
      "è¡Ģ": 3242,
      "Ġcorrespond": 3243,
      "My": 3244,
      "She": 3245,
      "ences": 3246,
      "Ġspecific": 3247,
      "-w": 3248,
      "sub": 3249,
      "åĻ": 3250,
      "Ġmaking": 3251,
      "Ġprim": 3252,
      "51": 3253,
      "ĠUnited": 3254,
      "æĮģ": 3255,
      "iqu": 3256,
      "æ£": 3257,
      "Ġdifficult": 3258,
      "å·²ç»ı": 3259,
      "imum": 3260,
      "Ġtheory": 3261,
      "ĠSoc": 3262,
      "ĠApp": 3263,
      "ãĥ³": 3264,
      "ĠTHE": 3265,
      "Ġpay": 3266,
      "Ġthing": 3267,
      "Ġcases": 3268,
      "æłĩ": 3269,
      "Ġtold": 3270,
      "pper": 3271,
      "ä½ı": 3272,
      "Ġcaus": 3273,
      "æĢ»": 3274,
      "Ġpo": 3275,
      "uture": 3276,
      "å®¹": 3277,
      "vert": 3278,
      "Ġgen": 3279,
      "No": 3280,
      "ii": 3281,
      "order": 3282,
      "Ġtaken": 3283,
      "ä¹¦": 3284,
      "ç»Ħ": 3285,
      "Ġhaving": 3286,
      "Ġsense": 3287,
      "è½¬": 3288,
      "Ġever": 3289,
      "icro": 3290,
      "Ġdou": 3291,
      "åį´": 3292,
      "AG": 3293,
      "Ġdetail": 3294,
      "Ġproblems": 3295,
      "Ġproject": 3296,
      "Ġacross": 3297,
      "ustom": 3298,
      "ÐµÐ¼": 3299,
      "62": 3300,
      "Ġfood": 3301,
      "Ġexc": 3302,
      "æł¼": 3303,
      "ĠQu": 3304,
      "iven": 3305,
      "ĠGe": 3306,
      "Ġang": 3307,
      "æħ": 3308,
      "Ġrange": 3309,
      "Ġhigher": 3310,
      "è¯¥": 3311,
      "çª": 3312,
      "ï¼ĮâĢľ": 3313,
      "CT": 3314,
      "ones": 3315,
      "pg": 3316,
      "Ġalmost": 3317,
      "Ġvarious": 3318,
      "Ġfail": 3319,
      "onse": 3320,
      "rix": 3321,
      "Ġste": 3322,
      "OM": 3323,
      "Ġgovernment": 3324,
      "eral": 3325,
      "Ġblack": 3326,
      "ands": 3327,
      "\\begin": 3328,
      "]=": 3329,
      "equ": 3330,
      "ìĭ": 3331,
      "ĠSch": 3332,
      "irl": 3333,
      "Ġess": 3334,
      "ada": 3335,
      "ä»·": 3336,
      "æľį": 3337,
      ">C": 3338,
      "Ġmarket": 3339,
      "åķĨ": 3340,
      "ero": 3341,
      "Ġelse": 3342,
      ">S": 3343,
      "ceed": 3344,
      "Ġrele": 3345,
      "à¸²à¸Ļ": 3346,
      "è½¦": 3347,
      "atory": 3348,
      "åĪĻ": 3349,
      "ware": 3350,
      "swer": 3351,
      ",'": 3352,
      "æģ¯": 3353,
      "Im": 3354,
      "rid": 3355,
      "Ġ('": 3356,
      "(\\": 3357,
      "urope": 3358,
      "ë¡ľ": 3359,
      "52": 3360,
      "aining": 3361,
      "Ġpaper": 3362,
      "Ġactiv": 3363,
      "ĠBy": 3364,
      "operator": 3365,
      "On": 3366,
      "urb": 3367,
      "è®º": 3368,
      "Īëĭ¤": 3369,
      "itle": 3370,
      "inary": 3371,
      "ĠStates": 3372,
      "ä»Ĭ": 3373,
      "iam": 3374,
      "def": 3375,
      "éĿŀ": 3376,
      "ze": 3377,
      "ĠMe": 3378,
      "Ġ\\|": 3379,
      "IF": 3380,
      "Ġvers": 3381,
      "medi": 3382,
      "Ġhalf": 3383,
      "å¯¼": 3384,
      "lected": 3385,
      "arr": 3386,
      "wg": 3387,
      "èĮ": 3388,
      "ç¡®": 3389,
      "ä¹ī": 3390,
      "ãģ£": 3391,
      "Ġ...": 3392,
      "åĲ¬": 3393,
      "OS": 3394,
      "ari": 3395,
      "ties": 3396,
      "ilities": 3397,
      "53": 3398,
      "Ġestabl": 3399,
      "alse": 3400,
      "å¿«": 3401,
      "Ġkey": 3402,
      "ìļ": 3403,
      ".C": 3404,
      "å¼ł": 3405,
      "ãĤĤ": 3406,
      "ister": 3407,
      "operatorname": 3408,
      "ĠSc": 3409,
      "Ġintrodu": 3410,
      "ĠSu": 3411,
      "itude": 3412,
      "çķĮ": 3413,
      "ç§ĳ": 3414,
      "ournal": 3415,
      "Ġsolution": 3416,
      "192": 3417,
      "åħ·": 3418,
      "Ġpath": 3419,
      "æĬĢ": 3420,
      "åıĸ": 3421,
      ".t": 3422,
      "off": 3423,
      "æ²»": 3424,
      "íķľ": 3425,
      ".d": 3426,
      "Ġknew": 3427,
      "There": 3428,
      "éļ¾": 3429,
      "ĠSte": 3430,
      "Ġyet": 3431,
      "Ġbegin": 3432,
      "åŁİ": 3433,
      "Ġlower": 3434,
      "ĠPol": 3435,
      ".m": 3436,
      "Ġshall": 3437,
      "æ¨": 3438,
      "åħ¬åı¸": 3439,
      "ortun": 3440,
      "Ġmother": 3441,
      "utes": 3442,
      "Ġlog": 3443,
      "/s": 3444,
      "Ġvo": 3445,
      "Ġpoints": 3446,
      "¸°": 3447,
      "é¾": 3448,
      "posed": 3449,
      "Ġach": 3450,
      "54": 3451,
      "Ġdoor": 3452,
      "ills": 3453,
      "Ġsepar": 3454,
      "Ġgroups": 3455,
      "çļĦäºº": 3456,
      "Ġinflu": 3457,
      "Ġsound": 3458,
      "umn": 3459,
      "utions": 3460,
      "Ġitself": 3461,
      "æ¢": 3462,
      "ãĤĬ": 3463,
      "Ġword": 3464,
      "(n": 3465,
      "Ġpriv": 3466,
      "Ġce": 3467,
      "ament": 3468,
      "Ġple": 3469,
      "ĠRo": 3470,
      "rame": 3471,
      "xi": 3472,
      "go": 3473,
      "htt": 3474,
      "uth": 3475,
      "ensity": 3476,
      "irm": 3477,
      "uracy": 3478,
      "Ġconcept": 3479,
      "ĠOF": 3480,
      "Ġnothing": 3481,
      "Ġsil": 3482,
      "iation": 3483,
      "æŃ»": 3484,
      "æŃ¥": 3485,
      "å·¥ä½ľ": 3486,
      "-in": 3487,
      "Ġles": 3488,
      "omm": 3489,
      "ê³ł": 3490,
      "Ġrequire": 3491,
      "æķ´": 3492,
      "org": 3493,
      "Un": 3494,
      "Ġrole": 3495,
      "à¹ģà¸¥": 3496,
      "Ġground": 3497,
      "ump": 3498,
      "Ġhistory": 3499,
      "æł¹": 3500,
      "Ġshows": 3501,
      "hib": 3502,
      "Ġsection": 3503,
      "Ġnature": 3504,
      "cle": 3505,
      "ĠAm": 3506,
      "ĠMed": 3507,
      "åĥı": 3508,
      "illed": 3509,
      "çİ°åľ¨": 3510,
      "ĠÑĩ": 3511,
      ",a": 3512,
      "Ġsurface": 3513,
      "Ġpara": 3514,
      "Ġcy": 3515,
      "hers": 3516,
      "irt": 3517,
      "ured": 3518,
      "ä¸ŃåĽ½": 3519,
      "Ġaccept": 3520,
      "izing": 3521,
      "Ġspect": 3522,
      "Ġwalk": 3523,
      "Ġstyle": 3524,
      "Ġhold": 3525,
      "quot": 3526,
      "ĠWith": 3527,
      "è¨Ģ": 3528,
      "dd": 3529,
      "psilon": 3530,
      "çº¿": 3531,
      "Ġchanges": 3532,
      "sqrt": 3533,
      "Ġpolitical": 3534,
      "Ġknowledge": 3535,
      "Ġfocus": 3536,
      "<table": 3537,
      "èĢĥ": 3538,
      "è¿Ĳ": 3539,
      "displaystyle": 3540,
      "æĹ¶åĢĻ": 3541,
      "CH": 3542,
      "Ġblood": 3543,
      "åı¯èĥ½": 3544,
      "Ġnormal": 3545,
      "å¿ħ": 3546,
      "Ġprevious": 3547,
      "Ġage": 3548,
      "rack": 3549,
      "eters": 3550,
      "ius": 3551,
      ",t": 3552,
      "Ġdeath": 3553,
      "Ġmatter": 3554,
      "lex": 3555,
      "Ġamount": 3556,
      "è°ĥ": 3557,
      "back": 3558,
      "Ġmodels": 3559,
      "ÑģÑĤÐ²": 3560,
      "head": 3561,
      "è¯ģ": 3562,
      "Ġpercent": 3563,
      "Ġlearning": 3564,
      "Ġ;": 3565,
      "Ġoccur": 3566,
      "Ġhands": 3567,
      "-h": 3568,
      "73": 3569,
      "Ġrecord": 3570,
      "ymbol": 3571,
      "æļ": 3572,
      "ĠÃł": 3573,
      "Ġcalcul": 3574,
      "åıĳå±ķ": 3575,
      "Ġfelt": 3576,
      "&&(": 3577,
      "Ġtable": 3578,
      "orld": 3579,
      "Ġinclude": 3580,
      "ĠCal": 3581,
      "gl": 3582,
      "_{\\": 3583,
      "ixed": 3584,
      "Ġphot": 3585,
      "Ġsays": 3586,
      "è¿Ľè¡Į": 3587,
      "Ġmembers": 3588,
      "æĢİ": 3589,
      "Ð¾Ð±": 3590,
      "Ġfall": 3591,
      "ening": 3592,
      "ï¼Įå°±": 3593,
      "ondon": 3594,
      "ç¤º": 3595,
      "åŀĭ": 3596,
      "Ġcells": 3597,
      "ĠPress": 3598,
      "ï¼ģâĢĿĊ": 3599,
      "ground": 3600,
      "åį³": 3601,
      "IA": 3602,
      "_d": 3603,
      "ĠâĢĶ": 3604,
      "Ġassum": 3605,
      "ection": 3606,
      "Ġer": 3607,
      "pose": 3608,
      "ales": 3609,
      "Ġweight": 3610,
      "ires": 3611,
      "Ġsequ": 3612,
      "Ġdu": 3613,
      "ules": 3614,
      "ĠEurope": 3615,
      "ÐºÐ°": 3616,
      "ruction": 3617,
      "çº§": 3618,
      "Om": 3619,
      "åĳ¨": 3620,
      "Ġsaw": 3621,
      "Ġperformance": 3622,
      "Ġbig": 3623,
      "Ã³n": 3624,
      "-S": 3625,
      "ached": 3626,
      "place": 3627,
      "ĠĠĠĠĠĠĠĠĠ": 3628,
      "æĹ¶éĹ´": 3629,
      "Ġut": 3630,
      "ores": 3631,
      "Ġcompon": 3632,
      "ĠAb": 3633,
      "Ġlength": 3634,
      "Ġred": 3635,
      "Ġrecogn": 3636,
      "´ë": 3637,
      "Ġge": 3638,
      "Ġmagn": 3639,
      "Ġwoman": 3640,
      "aced": 3641,
      "ĠPar": 3642,
      "][": 3643,
      "Ġsimple": 3644,
      "vare": 3645,
      "ino": 3646,
      "ĠCor": 3647,
      "roup": 3648,
      "æ¯ı": 3649,
      "ĠIntern": 3650,
      "è®°": 3651,
      "åĩĨ": 3652,
      "tilde": 3653,
      "sf": 3654,
      "ises": 3655,
      "Ġclose": 3656,
      "Ġstates": 3657,
      "Ġmill": 3658,
      "Ġcut": 3659,
      "rown": 3660,
      "artment": 3661,
      "Ġeffects": 3662,
      "Ġbar": 3663,
      "åĨĽ": 3664,
      "fully": 3665,
      "æ¼": 3666,
      "72": 3667,
      "ä¼ģ": 3668,
      "bre": 3669,
      "Ġsatisf": 3670,
      "Ġlanguage": 3671,
      "ĠFig": 3672,
      "$\\": 3673,
      "('": 3674,
      "åŃĺ": 3675,
      "ows": 3676,
      "Ġjob": 3677,
      "Ġdefin": 3678,
      "omes": 3679,
      "body": 3680,
      "Ġport": 3681,
      "mp": 3682,
      "Ġprec": 3683,
      "Ġconcern": 3684,
      "idered": 3685,
      "Ġservice": 3686,
      "æĬ¥": 3687,
      "Ġrequired": 3688,
      "Ġà¹Ģà¸": 3689,
      "ike": 3690,
      "Ġincrease": 3691,
      "Ġinitial": 3692,
      "ENT": 3693,
      "Ġfuture": 3694,
      "IV": 3695,
      "Math": 3696,
      "uk": 3697,
      "åĮħ": 3698,
      "Ġstudies": 3699,
      "varepsilon": 3700,
      "äºĶ": 3701,
      "bo": 3702,
      "Ġmoney": 3703,
      "Ġdiv": 3704,
      "ç¦»": 3705,
      "aves": 3706,
      "no": 3707,
      "ï¼ģĊ": 3708,
      "pecially": 3709,
      "Ġwhite": 3710,
      "éŃ": 3711,
      "Ġfront": 3712,
      "ĠSy": 3713,
      "ĠUS": 3714,
      "Con": 3715,
      "Ġfather": 3716,
      "Ġparent": 3717,
      "Ġthus": 3718,
      "inter": 3719,
      "Ġenvironment": 3720,
      "çħ": 3721,
      ">M": 3722,
      "itted": 3723,
      "Ġcountry": 3724,
      "çłĶ": 3725,
      "ply": 3726,
      "bed": 3727,
      "Ġdise": 3728,
      "Ġâ": 3729,
      "ì§Ģ": 3730,
      "tical": 3731,
      "Ġcompany": 3732,
      "ãģĨ": 3733,
      "enc": 3734,
      "éĢī": 3735,
      "Ġcross": 3736,
      "ĠCent": 3737,
      "Ġsex": 3738,
      "uments": 3739,
      "å¢ŀ": 3740,
      "Ġdistribution": 3741,
      "éĢł": 3742,
      "Ġnatural": 3743,
      "ìĬ": 3744,
      "è¯Ĩ": 3745,
      "cret": 3746,
      "ster": 3747,
      "iff": 3748,
      "ky": 3749,
      "lish": 3750,
      "gor": 3751,
      "bt": 3752,
      "ĠBrit": 3753,
      "Ġconsidered": 3754,
      "è®¸": 3755,
      "Ġdefined": 3756,
      "andom": 3757,
      "ãĤĮ": 3758,
      "Figure": 3759,
      "lor": 3760,
      "iddle": 3761,
      "CC": 3762,
      "Ð»Ð°": 3763,
      "haps": 3764,
      "Ġeval": 3765,
      "191": 3766,
      "Ð¾Ð½": 3767,
      "æĿĥ": 3768,
      "åĻ¨": 3769,
      "Ġidea": 3770,
      "åĺ": 3771,
      "Ġfive": 3772,
      "ìľ": 3773,
      "Ġdeep": 3774,
      "Ġimage": 3775,
      "osed": 3776,
      "åĳ½": 3777,
      "Ġwanted": 3778,
      "sim": 3779,
      "pping": 3780,
      "Ġrowspan": 3781,
      "UT": 3782,
      "Ġnecessary": 3783,
      "è¾¾": 3784,
      "oms": 3785,
      "Ġmethods": 3786,
      "Ð¾Ñģ": 3787,
      "ĠMy": 3788,
      "Ġtri": 3789,
      "Fig": 3790,
      "Ġstandard": 3791,
      "but": 3792,
      "æķĪ": 3793,
      "ä¸Ķ": 3794,
      "74": 3795,
      "è¿ŀ": 3796,
      "ï¼ĮéĤ£": 3797,
      "Ġìł": 3798,
      "å¦Ĥæŀľ": 3799,
      "Ġanything": 3800,
      "MS": 3801,
      "Ġconstant": 3802,
      "anced": 3803,
      "}_": 3804,
      ":[": 3805,
      "å¤ĩ": 3806,
      "ynam": 3807,
      "è¯Ń": 3808,
      "ìķ": 3809,
      "Ġtreatment": 3810,
      "orem": 3811,
      "åĽłä¸º": 3812,
      "ĠPa": 3813,
      "Ġturned": 3814,
      "When": 3815,
      "Ġann": 3816,
      "ĠPer": 3817,
      "Ð¾Ð³Ð¾": 3818,
      "Ġsoft": 3819,
      "ha": 3820,
      "Type": 3821,
      "umber": 3822,
      "Ġbelow": 3823,
      "åĭ": 3824,
      "71": 3825,
      "erson": 3826,
      "à¸²à¸¢": 3827,
      "å§ĭ": 3828,
      "Ġmechan": 3829,
      "ĠÐ³": 3830,
      "à¸ĸ": 3831,
      "éĻ¢": 3832,
      "ĠRep": 3833,
      "NA": 3834,
      "ÑĢÑĥ": 3835,
      "ĠSee": 3836,
      "Ġdeal": 3837,
      "tot": 3838,
      "æ¶Ī": 3839,
      "opy": 3840,
      "Ġpattern": 3841,
      "ega": 3842,
      "Ġid": 3843,
      "Ġmakes": 3844,
      "à¹Ħà¸Ķ": 3845,
      "æĸŃ": 3846,
      "Ġprofess": 3847,
      "Ġstep": 3848,
      "(a": 3849,
      "åĪ°äºĨ": 3850,
      "irit": 3851,
      "MC": 3852,
      "Ġeff": 3853,
      "é¡¹": 3854,
      "æ·±": 3855,
      "Ġtraining": 3856,
      "Ġoffic": 3857,
      "Ġworking": 3858,
      "ĠÑĢÐ°": 3859,
      "Ġclaim": 3860,
      "mselves": 3861,
      "éĹ®é¢ĺ": 3862,
      "ĠSci": 3863,
      ".f": 3864,
      "84": 3865,
      "à¸£à¸°": 3866,
      "Ġhtt": 3867,
      "Ġappear": 3868,
      "ĠNot": 3869,
      "Ġaccess": 3870,
      "å¤į": 3871,
      "æĸĻ": 3872,
      "class": 3873,
      "acc": 3874,
      "Ġtherefore": 3875,
      "=e": 3876,
      "æŀĦ": 3877,
      "åĨ³": 3878,
      "Ġobtained": 3879,
      "Ġevent": 3880,
      "xim": 3881,
      "Ġthemselves": 3882,
      "Ġbed": 3883,
      "è¿ĳ": 3884,
      "ä½İ": 3885,
      "ê°Ģ": 3886,
      "centr": 3887,
      "rug": 3888,
      "ĠMay": 3889,
      "æĶ¹": 3890,
      "æ³¨": 3891,
      "Ġhor": 3892,
      "Ġregard": 3893,
      "ĠII": 3894,
      "å¾®": 3895,
      "ĠÃ©": 3896,
      "-g": 3897,
      "Ġassociated": 3898,
      "è§Ĥ": 3899,
      "/t": 3900,
      "cm": 3901,
      "urity": 3902,
      "ÑĤÐ¾": 3903,
      "éĽĨ": 3904,
      ".)": 3905,
      "101": 3906,
      ".jpg": 3907,
      "ãĤī": 3908,
      "èĬĤ": 3909,
      "Ġliter": 3910,
      "ëı": 3911,
      "æĿİ": 3912,
      "ney": 3913,
      "ĠGerm": 3914,
      "93": 3915,
      "itting": 3916,
      "})": 3917,
      "ÑĨÐ¸": 3918,
      "ĠEl": 3919,
      "Ġgirl": 3920,
      "Ġneeded": 3921,
      "èĬ±": 3922,
      "æĺĵ": 3923,
      "Ġimm": 3924,
      "åĬŁ": 3925,
      "ilt": 3926,
      "Ġ\\{": 3927,
      "91": 3928,
      "Ġbehind": 3929,
      "åŃĹ": 3930,
      "uous": 3931,
      "________________": 3932,
      "é©¬": 3933,
      "ret": 3934,
      "isc": 3935,
      "Ð¸Ð¼": 3936,
      "Ġfollows": 3937,
      "Ġproduction": 3938,
      "uit": 3939,
      "Ð»Ñı": 3940,
      "à¸¶": 3941,
      "ç¢": 3942,
      "ĠWill": 3943,
      "itch": 3944,
      "ependent": 3945,
      "Ġheav": 3946,
      "ĠAcc": 3947,
      "Ġdark": 3948,
      "Ġrat": 3949,
      "Ġlimit": 3950,
      "Ġaff": 3951,
      "lying": 3952,
      "ili": 3953,
      "gorith": 3954,
      "è·Ł": 3955,
      "è½»": 3956,
      "Ġdescribed": 3957,
      "Ġfunctions": 3958,
      "verse": 3959,
      "Ġpositive": 3960,
      "airs": 3961,
      "Ġum": 3962,
      "acy": 3963,
      "IM": 3964,
      "190": 3965,
      "Ġusually": 3966,
      "çĮ": 3967,
      "bf": 3968,
      "istics": 3969,
      "à¹ĥà¸Ļ": 3970,
      "value": 3971,
      "81": 3972,
      "uct": 3973,
      "ä¼ģä¸ļ": 3974,
      "How": 3975,
      "è§Ĩ": 3976,
      "120": 3977,
      "mon": 3978,
      "Ġbehavior": 3979,
      "åįĹ": 3980,
      "ĠEd": 3981,
      "à¥": 3982,
      "ros": 3983,
      "Ġbegan": 3984,
      "Ġpri": 3985,
      "Ð°Ð½": 3986,
      "\\\\": 3987,
      "bert": 3988,
      "iding": 3989,
      "Ġtradition": 3990,
      "Ġconsist": 3991,
      "astic": 3992,
      "Ġimag": 3993,
      "Ġaffect": 3994,
      "ç²¾": 3995,
      "ĠHer": 3996,
      "Ġexcept": 3997,
      "Ġneeds": 3998,
      "Ġestim": 3999,
      "rap": 4000,
      "åł": 4001,
      "83": 4002,
      "Ġworks": 4003,
      "ç½ĳ": 4004,
      ".x": 4005,
      "Ġdepend": 4006,
      "ç©¶": 4007,
      "bit": 4008,
      "Ġquite": 4009,
      "è¾ĥ": 4010,
      "ç´ł": 4011,
      "åĢ¼": 4012,
      "Ġentire": 4013,
      "Ġnetwork": 4014,
      "rangle": 4015,
      "Ġlikely": 4016,
      "Ġtarget": 4017,
      "Ġrisk": 4018,
      "tag": 4019,
      "ĠFran": 4020,
      "å¼ķ": 4021,
      "ĠIN": 4022,
      "ille": 4023,
      "à¸·à¹Ī": 4024,
      "_c": 4025,
      "æĢİä¹Ī": 4026,
      "Ġresponse": 4027,
      "300": 4028,
      "Ġsem": 4029,
      "è¶Ĭ": 4030,
      "pm": 4031,
      "Ġheld": 4032,
      "Ġequation": 4033,
      "ais": 4034,
      "ey": 4035,
      "èµ·æĿ¥": 4036,
      "Ġdoing": 4037,
      "à¸·à¸Ń": 4038,
      "ils": 4039,
      "Ġdemon": 4040,
      "Ġforce": 4041,
      "Is": 4042,
      "PS": 4043,
      "istance": 4044,
      "åĲ§": 4045,
      "Ġcoll": 4046,
      "Ð¾Ð¶": 4047,
      "ê²": 4048,
      "Ġwhose": 4049,
      "ãģĵ": 4050,
      "86": 4051,
      "Ġquick": 4052,
      "äººçļĦ": 4053,
      "&gt": 4054,
      "obal": 4055,
      "([": 4056,
      "éļı": 4057,
      "à¹ĩà¸Ļ": 4058,
      "èĦ¸": 4059,
      "AAAAAAAAAAAAAAAA": 4060,
      "Ġactivity": 4061,
      "ĠSome": 4062,
      "erve": 4063,
      "ields": 4064,
      "çı": 4065,
      "é¾Ļ": 4066,
      "cript": 4067,
      "Ġcompet": 4068,
      "Ġsix": 4069,
      "150": 4070,
      "ï¼Įè¿ĺ": 4071,
      "Ġgrowth": 4072,
      "ï¼Įå¥¹": 4073,
      "76": 4074,
      "ìĿĢ": 4075,
      "_p": 4076,
      "ĠThus": 4077,
      "ios": 4078,
      "actions": 4079,
      "Ġfun": 4080,
      "ĠCont": 4081,
      "à¹ĥà¸«": 4082,
      "å¤±": 4083,
      "ç¤¾ä¼ļ": 4084,
      "Ġtemperature": 4085,
      "82": 4086,
      "éĿĴ": 4087,
      "Ġbecame": 4088,
      "æŁ¥": 4089,
      "=n": 4090,
      "aving": 4091,
      "Ġpersonal": 4092,
      "æĴ": 4093,
      "ä¿®": 4094,
      "lied": 4095,
      "Us": 4096,
      "ught": 4097,
      "ender": 4098,
      "Ġson": 4099,
      "like": 4100,
      "omen": 4101,
      "(r": 4102,
      "åķĬ": 4103,
      "Ġcle": 4104,
      "æŀģ": 4105,
      "Omega": 4106,
      "èģĶ": 4107,
      "pri": 4108,
      "Ã¨": 4109,
      "åĨµ": 4110,
      "overed": 4111,
      "Ġret": 4112,
      "ĠFigure": 4113,
      "reen": 4114,
      "Ġ['": 4115,
      "with": 4116,
      "arent": 4117,
      "ols": 4118,
      "æºĲ": 4119,
      "Ġconcentr": 4120,
      ">P": 4121,
      "Ġpor": 4122,
      "EM": 4123,
      "éŁ³": 4124,
      "ë¦": 4125,
      "à¸ľ": 4126,
      "Ġrelig": 4127,
      "Ġevidence": 4128,
      "Ġlos": 4129,
      "Te": 4130,
      "çĻ¾": 4131,
      "Ġcheck": 4132,
      "ĠEnglish": 4133,
      "äºĳ": 4134,
      "Ġrev": 4135,
      "_loss": 4136,
      "Ġdat": 4137,
      "94": 4138,
      "çİĩ": 4139,
      "å¹²": 4140,
      "ites": 4141,
      "rs": 4142,
      "umb": 4143,
      "Ġcreat": 4144,
      "ĠGu": 4145,
      "æµİ": 4146,
      "çĬ¶": 4147,
      "trans": 4148,
      "Ġslow": 4149,
      "odes": 4150,
      "Ġstory": 4151,
      "ĠRev": 4152,
      "Ġweek": 4153,
      "Ġespecially": 4154,
      "ishing": 4155,
      ".M": 4156,
      "resh": 4157,
      "125": 4158,
      "Ġparticip": 4159,
      ".D": 4160,
      "ring": 4161,
      "iber": 4162,
      "åħ±": 4163,
      "tered": 4164,
      "Ġwall": 4165,
      "unt": 4166,
      "Ð°ÑĤÑĮ": 4167,
      "Ġcommunic": 4168,
      "ĠAct": 4169,
      "hel": 4170,
      "Ġlevels": 4171,
      "ĠIm": 4172,
      "oke": 4173,
      "vec": 4174,
      "log": 4175,
      "Ġdifference": 4176,
      "-st": 4177,
      "Ġvoice": 4178,
      "Ġrelated": 4179,
      "lement": 4180,
      "æĬķ": 4181,
      "Ã¶": 4182,
      "Ġ`": 4183,
      "(x": 4184,
      "æľª": 4185,
      "Ġcustom": 4186,
      "ĠGr": 4187,
      "à¹Ģà¸Ľ": 4188,
      "Ġcontr": 4189,
      "AK": 4190,
      "Ġquestions": 4191,
      "å¢ĥ": 4192,
      "light": 4193,
      "Ġsource": 4194,
      "Ġsyn": 4195,
      "Ġbelieve": 4196,
      "ĠDes": 4197,
      "æĪ¿": 4198,
      "Ġjud": 4199,
      "Tr": 4200,
      "ula": 4201,
      "Ġfinal": 4202,
      "ĠDo": 4203,
      "92": 4204,
      "128": 4205,
      "EST": 4206,
      "ç®¡çĲĨ": 4207,
      "é¢Ĩ": 4208,
      "Ġbreak": 4209,
      "abor": 4210,
      "www": 4211,
      "Ġcommunity": 4212,
      "Ġphysical": 4213,
      "å¾Ģ": 4214,
      "ops": 4215,
      "æĶ¯": 4216,
      "arc": 4217,
      "Ġsqu": 4218,
      "Ġanswer": 4219,
      "atively": 4220,
      "####": 4221,
      "Ġgave": 4222,
      "ĠĠĠĠĊ": 4223,
      "è¿Ļæł·": 4224,
      "ension": 4225,
      "Ġattempt": 4226,
      "ging": 4227,
      "Ġlonger": 4228,
      "aries": 4229,
      "Ġcomplete": 4230,
      "psi": 4231,
      "èĤ²": 4232,
      "Ġperm": 4233,
      "åĳĬ": 4234,
      "earch": 4235,
      "Ġaverage": 4236,
      "oved": 4237,
      "ham": 4238,
      "],[": 4239,
      "Ġlines": 4240,
      "orts": 4241,
      "Ci": 4242,
      "rams": 4243,
      "orks": 4244,
      "Ġgraph": 4245,
      "çļĦä¸Ģ": 4246,
      "Ġinvestig": 4247,
      "oul": 4248,
      "æľĽ": 4249,
      "epsilon": 4250,
      "Ġseries": 4251,
      "Ð¾ÑģÑĤ": 4252,
      "ĠCoun": 4253,
      "Ġagre": 4254,
      "Ġdoc": 4255,
      "aching": 4256,
      "arily": 4257,
      "Ġprinc": 4258,
      "plement": 4259,
      "Aw": 4260,
      "Ġpubl": 4261,
      "èĲ½": 4262,
      "ĠAfter": 4263,
      "aff": 4264,
      "uration": 4265,
      "Ġpractice": 4266,
      "Ġwasn": 4267,
      "hood": 4268,
      ".get": 4269,
      "Ġpredict": 4270,
      "è´¹": 4271,
      "Ġê°": 4272,
      ",i": 4273,
      "Ġexact": 4274,
      "frak": 4275,
      "ieved": 4276,
      "Ġobserved": 4277,
      "Ġways": 4278,
      "ìĦľ": 4279,
      "æ¥": 4280,
      "mathfrak": 4281,
      "abel": 4282,
      "Ġfriend": 4283,
      "ĠStr": 4284,
      "AQ": 4285,
      "æĺ¾": 4286,
      "Ġsus": 4287,
      "ĠStud": 4288,
      "print": 4289,
      "éľĢè¦ģ": 4290,
      "Ġcause": 4291,
      "åĵį": 4292,
      "ĠComp": 4293,
      "Ġintegr": 4294,
      "alle": 4295,
      "è±¡": 4296,
      "Ġfactor": 4297,
      "geq": 4298,
      "reet": 4299,
      "é¥": 4300,
      "Ġmess": 4301,
      "Ġpsych": 4302,
      "Ġlooking": 4303,
      "dro": 4304,
      "æ»¡": 4305,
      "Qu": 4306,
      "rought": 4307,
      "ems": 4308,
      "ä¸ĵ": 4309,
      "ï¼Įåıª": 4310,
      "])": 4311,
      "Ġprovided": 4312,
      "cted": 4313,
      "Ġinput": 4314,
      "Ġintern": 4315,
      "UL": 4316,
      "ĠLondon": 4317,
      "Ġens": 4318,
      "ĠDr": 4319,
      "IR": 4320,
      "Ġcity": 4321,
      "Ġcolor": 4322,
      "dom": 4323,
      "ev": 4324,
      "ï¼Įæĺ¯": 4325,
      "Ġprobably": 4326,
      "mathsf": 4327,
      "Ġareas": 4328,
      "----------------": 4329,
      "Ġnumbers": 4330,
      "Ġseems": 4331,
      "itation": 4332,
      "ãģı": 4333,
      "Ġpie": 4334,
      "Ġdemonstr": 4335,
      "bolds": 4336,
      "Ġpressure": 4337,
      "æ¨¡": 4338,
      "Ġbit": 4339,
      "wise": 4340,
      "];": 4341,
      "001": 4342,
      "Ġtax": 4343,
      ",s": 4344,
      "boldsymbol": 4345,
      "ony": 4346,
      "ĠÐ»": 4347,
      "éĢŁ": 4348,
      "Ġir": 4349,
      "ï¼ŁĊ": 4350,
      "Ġtaking": 4351,
      "çīĩ": 4352,
      "ste": 4353,
      "Ð°Ð½Ð¸": 4354,
      "plot": 4355,
      "à¸Ńà¸¢": 4356,
      "->": 4357,
      "Ġda": 4358,
      "osis": 4359,
      "acity": 4360,
      "åĬŀ": 4361,
      "QU": 4362,
      "à¹Ģà¸¥": 4363,
      "Ġsimply": 4364,
      "Ġanaly": 4365,
      "raction": 4366,
      "Ind": 4367,
      "Ġreview": 4368,
      "aly": 4369,
      "Ġfactors": 4370,
      "ĠAf": 4371,
      "èĤ¡": 4372,
      "urg": 4373,
      "ĠAg": 4374,
      "åĲĹ": 4375,
      "ĠSim": 4376,
      "Ġimprove": 4377,
      "ç»Ĩ": 4378,
      "Ġadj": 4379,
      "æĸ¯": 4380,
      "ĠInc": 4381,
      "Ġeducation": 4382,
      "Ġfund": 4383,
      "Ġnational": 4384,
      "èı": 4385,
      "ÐµÐ¹": 4386,
      "Ġcompar": 4387,
      "ãĤ¹": 4388,
      "Ġpopulation": 4389,
      "ä¸ŃçļĦ": 4390,
      "Ġbenef": 4391,
      "Ġchall": 4392,
      "ford": 4393,
      "elling": 4394,
      "Ġoutside": 4395,
      "åĮĹ": 4396,
      "Ġpull": 4397,
      "Ġlot": 4398,
      "By": 4399,
      "ç½®": 4400,
      "Ġteam": 4401,
      "åĲĥ": 4402,
      "All": 4403,
      "Ġaccording": 4404,
      "çģ«": 4405,
      "Ġgreater": 4406,
      "åĪĽ": 4407,
      "ĠMc": 4408,
      "{C": 4409,
      "åĩºæĿ¥": 4410,
      "Ġtypes": 4411,
      "Ġsam": 4412,
      "rew": 4413,
      "Ð¾Ðº": 4414,
      "ministr": 4415,
      "Ġpolicy": 4416,
      "iÃ³n": 4417,
      "Ġattention": 4418,
      "Ġbring": 4419,
      "ĠMod": 4420,
      "Ġexpected": 4421,
      "è¯ķ": 4422,
      "Ġten": 4423,
      "à¹ģà¸¥à¸°": 4424,
      "Ġartic": 4425,
      "pid": 4426,
      "(s": 4427,
      "çº¢": 4428,
      "Ġdam": 4429,
      "Ġcorrect": 4430,
      "Ġfav": 4431,
      "AY": 4432,
      "OC": 4433,
      "åıĤ": 4434,
      "Ġexpression": 4435,
      "åĪļ": 4436,
      "ica": 4437,
      "110": 4438,
      "åĮ»": 4439,
      "ilos": 4440,
      "\":\"": 4441,
      "En": 4442,
      "Ġeconomic": 4443,
      "Ġquality": 4444,
      "æ®µ": 4445,
      "ror": 4446,
      "Ġregion": 4447,
      "Ġcontext": 4448,
      "Ġsle": 4449,
      "osition": 4450,
      "-C": 4451,
      "æīĢä»¥": 4452,
      "Ġhours": 4453,
      "omp": 4454,
      "ĠMore": 4455,
      "Ġdraw": 4456,
      "Ġphase": 4457,
      "opt": 4458,
      "align": 4459,
      "æİ¨": 4460,
      "OW": 4461,
      "Ġspeak": 4462,
      "ĮĢ": 4463,
      "ëĵ": 4464,
      "Ġproced": 4465,
      "varphi": 4466,
      "ç»ıæµİ": 4467,
      "Ġstren": 4468,
      "raft": 4469,
      "Ġteac": 4470,
      "tries": 4471,
      "Ġelements": 4472,
      "Ġtry": 4473,
      "ĠÐ°": 4474,
      "ĠJournal": 4475,
      "ki": 4476,
      "Ġmach": 4477,
      "ĠAND": 4478,
      "ç«ł": 4479,
      "Ð°Ð¼": 4480,
      "éĻ¤": 4481,
      "Ġfeatures": 4482,
      "åİĭ": 4483,
      "ä¾Ľ": 4484,
      "ĠWar": 4485,
      "Sh": 4486,
      "Ġsoon": 4487,
      "Ġë°": 4488,
      "ï¼Įæľī": 4489,
      "cale": 4490,
      "max": 4491,
      "Ġfa": 4492,
      "æĢģ": 4493,
      "_f": 4494,
      "ĠBr": 4495,
      "ĠÑį": 4496,
      "Ġmanagement": 4497,
      "ë¥¼": 4498,
      "ç»Ń": 4499,
      "iles": 4500,
      "ecause": 4501,
      "ĠPart": 4502,
      "/d": 4503,
      "Ġinterpre": 4504,
      "Ġlearn": 4505,
      "Ġbasis": 4506,
      "è£ħ": 4507,
      "Ġwritten": 4508,
      "äº²": 4509,
      "è¿ľ": 4510,
      "ĠÐ¾ÑĤ": 4511,
      "lege": 4512,
      "ï¼Įå¹¶": 4513,
      "Ġseemed": 4514,
      "Ġinside": 4515,
      "Ġincreased": 4516,
      "Ġsomeone": 4517,
      "Ġcontent": 4518,
      "Ġeffective": 4519,
      "Ġliving": 4520,
      "æĸ½": 4521,
      ".b": 4522,
      "Ġattack": 4523,
      "nder": 4524,
      ".'": 4525,
      "oud": 4526,
      "ĠTrans": 4527,
      "ç¿": 4528,
      "ê¸°": 4529,
      "Ġstra": 4530,
      "ĠMin": 4531,
      "èĲ¥": 4532,
      "Ġminutes": 4533,
      "Ġgas": 4534,
      "åįİ": 4535,
      "Ġadm": 4536,
      "çİ¯": 4537,
      "å¤Ł": 4538,
      "index": 4539,
      "zz": 4540,
      "ä»ĸçļĦ": 4541,
      "Ġimmedi": 4542,
      "lier": 4543,
      "à¸Ńà¸Ļ": 4544,
      "ãģ¾ãģĻ": 4545,
      "Ġcat": 4546,
      "kn": 4547,
      "Ġinstead": 4548,
      "èĪ¬": 4549,
      "oe": 4550,
      "å¸ĥ": 4551,
      "inally": 4552,
      "Ġdisease": 4553,
      "Ġalgorith": 4554,
      "åĪĩ": 4555,
      "anc": 4556,
      "Ġìķ": 4557,
      "ĠNational": 4558,
      "raining": 4559,
      "111": 4560,
      "Ġservices": 4561,
      "Ð¸Ð²": 4562,
      "Ġlive": 4563,
      "Ġsituation": 4564,
      "bor": 4565,
      "ensive": 4566,
      "That": 4567,
      "ĠState": 4568,
      "éĢļè¿ĩ": 4569,
      "ements": 4570,
      "Ġdeveloped": 4571,
      "Ġequal": 4572,
      ">A": 4573,
      "sl": 4574,
      "FIG": 4575,
      "éĻ©": 4576,
      "which": 4577,
      "ana": 4578,
      "Ġoriginal": 4579,
      "date": 4580,
      "comp": 4581,
      "const": 4582,
      "åı·": 4583,
      "atives": 4584,
      "ĠHar": 4585,
      "),Ċ": 4586,
      "Ġthird": 4587,
      "itary": 4588,
      ".pro": 4589,
      "inger": 4590,
      "Ġheard": 4591,
      "è¿ĻäºĽ": 4592,
      "Ġfem": 4593,
      "Ġmaintain": 4594,
      "ãĥ¼ãĥ": 4595,
      "mber": 4596,
      "çĥŃ": 4597,
      "Ġbal": 4598,
      "Ġcentury": 4599,
      "Ġful": 4600,
      "Ġcount": 4601,
      "ĠChar": 4602,
      "Ġunderstanding": 4603,
      "key": 4604,
      "âĢĶâĢĶ": 4605,
      "nn": 4606,
      "æī¾": 4607,
      "ĉĉĉĉ": 4608,
      "roke": 4609,
      "ĠST": 4610,
      "bra": 4611,
      "./": 4612,
      "lib": 4613,
      "ë§": 4614,
      "ĠVal": 4615,
      "ATION": 4616,
      "Gamma": 4617,
      "Ġpack": 4618,
      "Ġtoday": 4619,
      "ÐºÐ¸": 4620,
      "ä½¿çĶ¨": 4621,
      "Īĺ": 4622,
      "ĠInt": 4623,
      "cription": 4624,
      "Ġelement": 4625,
      "-M": 4626,
      "Ġmonths": 4627,
      "èį¯": 4628,
      "pmb": 4629,
      "ä¹ł": 4630,
      "180": 4631,
      "isions": 4632,
      "So": 4633,
      "ĠUs": 4634,
      "Ġpict": 4635,
      "ura": 4636,
      "ĠReg": 4637,
      "Wh": 4638,
      "anger": 4639,
      "iques": 4640,
      "uly": 4641,
      "Ġgame": 4642,
      "Ġmicro": 4643,
      "ounds": 4644,
      "Ġincreasing": 4645,
      "è¶³": 4646,
      "aN": 4647,
      "é£Ł": 4648,
      "Le": 4649,
      "à¸±à¸ĩ": 4650,
      "\")": 4651,
      "imin": 4652,
      "ï¼Įä»¥": 4653,
      "Ġeverything": 4654,
      "hemical": 4655,
      "iting": 4656,
      "Ġ(\\": 4657,
      "à¸±à¹ī": 4658,
      "Ġfeet": 4659,
      "ãĤĵ": 4660,
      "ĠDep": 4661,
      "ocal": 4662,
      "Ð°ÑĢ": 4663,
      "Ġbase": 4664,
      "Ġ,Ċ": 4665,
      "âĸĪâĸĪâĸĪâĸĪ": 4666,
      "çłĶç©¶": 4667,
      "åı°": 4668,
      "éªĮ": 4669,
      "IP": 4670,
      "Ġimpact": 4671,
      "åįĬ": 4672,
      "102": 4673,
      "Ġdistance": 4674,
      "/+": 4675,
      "åħĭ": 4676,
      "ese": 4677,
      "éĻħ": 4678,
      "Ġhot": 4679,
      "Ġdirection": 4680,
      "ancial": 4681,
      "Se": 4682,
      "Ġtou": 4683,
      "cos": 4684,
      "vant": 4685,
      "ä¾ĭ": 4686,
      "Ġpatient": 4687,
      "ìĸ": 4688,
      "oly": 4689,
      "å©": 4690,
      "ordin": 4691,
      "èĩªå·±çļĦ": 4692,
      "overline": 4693,
      "Ġmatrix": 4694,
      "ĠPe": 4695,
      "æĹı": 4696,
      "Ġmeaning": 4697,
      "=[": 4698,
      "come": 4699,
      "Ġhyp": 4700,
      "hern": 4701,
      "Ġgives": 4702,
      "Ġlinear": 4703,
      "pec": 4704,
      "Ġsett": 4705,
      "Ġproperties": 4706,
      "Ġcreate": 4707,
      "VV": 4708,
      "mar": 4709,
      "à¸µà¸¢": 4710,
      "Ġconsum": 4711,
      "ICAgICAgICAgICAg": 4712,
      "-n": 4713,
      "çŁ³": 4714,
      "ett": 4715,
      "Ġdimens": 4716,
      "qq": 4717,
      "iform": 4718,
      "åĪ»": 4719,
      "èĩ´": 4720,
      "Ġ${": 4721,
      "æĹ©": 4722,
      "Ġbad": 4723,
      "èĳ": 4724,
      "rench": 4725,
      "ded": 4726,
      "oles": 4727,
      "ĠBar": 4728,
      "oo": 4729,
      "çģµ": 4730,
      "width": 4731,
      "Ġ{'": 4732,
      "ington": 4733,
      "é»ĳ": 4734,
      "AF": 4735,
      "Ð¸Ð½": 4736,
      "{m": 4737,
      "Ġhom": 4738,
      "å®¢": 4739,
      "éĺŁ": 4740,
      "Ġlate": 4741,
      "Ġreported": 4742,
      "Ġproperty": 4743,
      "-based": 4744,
      "å°Ķ": 4745,
      "Ġsample": 4746,
      "CiAg": 4747,
      "Ġbrought": 4748,
      "å£«": 4749,
      "Ġrandom": 4750,
      "Ġfire": 4751,
      "ç§°": 4752,
      "Ġdecl": 4753,
      "ivil": 4754,
      "Ġein": 4755,
      ",this": 4756,
      "Ġdynam": 4757,
      "à¸ĵ": 4758,
      "éĥ½æĺ¯": 4759,
      "Ġessential": 4760,
      "çĪ±": 4761,
      "Ġdecre": 4762,
      "Ġstay": 4763,
      "ĠFr": 4764,
      "Ġconduct": 4765,
      "æĺŁ": 4766,
      "Ġfigure": 4767,
      "âĢĻs": 4768,
      "iled": 4769,
      "å¾·": 4770,
      "ĠWorld": 4771,
      "aches": 4772,
      "tributed": 4773,
      "yond": 4774,
      "Ġinstit": 4775,
      "ulations": 4776,
      "Ġmiss": 4777,
      "\">Ċ": 4778,
      "Ġsubst": 4779,
      "Of": 4780,
      "189": 4781,
      "leg": 4782,
      "à¸²à¸ĩ": 4783,
      "ulated": 4784,
      "CE": 4785,
      "Ġstarted": 4786,
      "onal": 4787,
      "Ġopportun": 4788,
      "Ġevents": 4789,
      "æ¡Ī": 4790,
      "Ġmodern": 4791,
      "Ġprint": 4792,
      "æĲ": 4793,
      "lin": 4794,
      "Ġforms": 4795,
      "Ġexperien": 4796,
      "ä¸ĬçļĦ": 4797,
      "åºķ": 4798,
      "Ġca": 4799,
      "Ġviol": 4800,
      "çĶ·": 4801,
      "}^{": 4802,
      "OP": 4803,
      "Ġaddress": 4804,
      "inct": 4805,
      "Ġhistor": 4806,
      "Ġwait": 4807,
      "à¸Ĥà¸Ńà¸ĩ": 4808,
      "eneral": 4809,
      "room": 4810,
      "Ġissues": 4811,
      "Ġemer": 4812,
      "Ġleave": 4813,
      "Ġprice": 4814,
      "Ġcomplet": 4815,
      "ĠSince": 4816,
      "men": 4817,
      "åĬ¿": 4818,
      "ä¼¼": 4819,
      "Ġsn": 4820,
      "NS": 4821,
      "Ð¾Ð»ÑĮ": 4822,
      "igen": 4823,
      "asc": 4824,
      "izes": 4825,
      "ĠSystem": 4826,
      ".org": 4827,
      "éĻĲ": 4828,
      "ÑĦ": 4829,
      "Ġproducts": 4830,
      "']": 4831,
      "Ġapproxim": 4832,
      "ellow": 4833,
      "Ġinvolved": 4834,
      "è®®": 4835,
      "å¹¿": 4836,
      "Ġavoid": 4837,
      "Ġactually": 4838,
      "ĠSm": 4839,
      "Ġaud": 4840,
      "Ġparameters": 4841,
      "ustry": 4842,
      "Ġassess": 4843,
      "ĠÑģÑĤ": 4844,
      "vey": 4845,
      "(){": 4846,
      "Ġconv": 4847,
      "å±Ĥ": 4848,
      "Ij": 4849,
      "æĬ¤": 4850,
      "Ġpan": 4851,
      "Ġtrying": 4852,
      "ĠDis": 4853,
      "Ġalthough": 4854,
      "åıĮ": 4855,
      "Ġalone": 4856,
      "-B": 4857,
      "Ġappropri": 4858,
      "Pl": 4859,
      "olic": 4860,
      "Ġoutput": 4861,
      "åĳ¢": 4862,
      "è¯·": 4863,
      "Ġcry": 4864,
      "df": 4865,
      "ĠÐ·Ð°": 4866,
      "ĠLa": 4867,
      "ĠMon": 4868,
      "èĻ½": 4869,
      "ĠAmerica": 4870,
      "fill": 4871,
      "éĺ³": 4872,
      "ä¼Ĺ": 4873,
      "ĠÐ¾Ð±": 4874,
      "ingu": 4875,
      "å¡": 4876,
      "Ġprivate": 4877,
      "Ġsociety": 4878,
      "åŃ©": 4879,
      "Ġdecision": 4880,
      "Ġimplement": 4881,
      "Ġcontact": 4882,
      ".y": 4883,
      "çº¦": 4884,
      "uel": 4885,
      "Ġcountries": 4886,
      "Ġê²": 4887,
      "aint": 4888,
      "Ġsomet": 4889,
      "Ġcateg": 4890,
      "Ġcentral": 4891,
      "ëĭĪëĭ¤": 4892,
      "ades": 4893,
      "Ġcapital": 4894,
      "400": 4895,
      "Ġbott": 4896,
      "AE": 4897,
      "âĢĺ": 4898,
      ">B": 4899,
      "Ġwrite": 4900,
      "Ġprevent": 4901,
      "iment": 4902,
      "='": 4903,
      "more": 4904,
      "Ġeasy": 4905,
      "ography": 4906,
      "Ġdig": 4907,
      "è¿ĺæĺ¯": 4908,
      "Ġ\\}": 4909,
      "Ġerror": 4910,
      "Ã§Ã£o": 4911,
      "\"},": 4912,
      "ä¸įèĥ½": 4913,
      "enty": 4914,
      "Ġreve": 4915,
      "ato": 4916,
      "ãĤ¤": 4917,
      ">.": 4918,
      "Ġcompared": 4919,
      "Ġmention": 4920,
      "Ġprovides": 4921,
      "ĠDav": 4922,
      "Ġcomes": 4923,
      "ãģį": 4924,
      "Ġdirectly": 4925,
      "Ġpage": 4926,
      "Ġbuilding": 4927,
      "çħ§": 4928,
      "108": 4929,
      "Ġdegree": 4930,
      ">F": 4931,
      "langle": 4932,
      "TA": 4933,
      "Ġ@": 4934,
      "Ġtrain": 4935,
      "Ġprop": 4936,
      "Ġpresence": 4937,
      "Ġparts": 4938,
      "apan": 4939,
      "Ġapplication": 4940,
      "%</": 4941,
      "æµĭ": 4942,
      "Ġord": 4943,
      "ÐµÐ»ÑĮ": 4944,
      "{\"": 4945,
      "ding": 4946,
      "à¹Ħà¸¡": 4947,
      "Ġadded": 4948,
      "under": 4949,
      "Ġfollowed": 4950,
      "Ġlarger": 4951,
      "ä¾Ŀ": 4952,
      "used": 4953,
      "çªģ": 4954,
      "Ġactivities": 4955,
      "xy": 4956,
      "ĠAfric": 4957,
      ">D": 4958,
      "ëĤ": 4959,
      "æĭī": 4960,
      "Ġlas": 4961,
      "å¸Ĥåľº": 4962,
      "Ġparticularly": 4963,
      "iant": 4964,
      "Ġexpress": 4965,
      "æĥħåĨµ": 4966,
      "}}$": 4967,
      "Ġtakes": 4968,
      "do": 4969,
      "Ġhair": 4970,
      "æł¡": 4971,
      "èĭ¥": 4972,
      "Ġplant": 4973,
      "ĠFrom": 4974,
      "ĠSouth": 4975,
      "åĤ": 4976,
      "ken": 4977,
      "Ġdest": 4978,
      "Ġarch": 4979,
      "çŀ": 4980,
      "Ġsite": 4981,
      "etr": 4982,
      "vis": 4983,
      "ira": 4984,
      "Ġdrug": 4985,
      "Ġinstance": 4986,
      "êµ": 4987,
      "New": 4988,
      "!\"": 4989,
      "gu": 4990,
      "Ġdemand": 4991,
      "Ġindex": 4992,
      "Ġbroad": 4993,
      "Ġdro": 4994,
      "105": 4995,
      "æĮī": 4996,
      "Col": 4997,
      "gth": 4998,
      "Ġprior": 4999,
      "eds": 5000,
      "ĠÎ": 5001,
      "ÑĢÐµÐ´": 5002,
      "Ġaspect": 5003,
      "Ġlack": 5004,
      "BB": 5005,
      "Ġsch": 5006,
      "Ġissue": 5007,
      "åºľ": 5008,
      "åĩ»": 5009,
      "187": 5010,
      "ĠNow": 5011,
      "åĽ¢": 5012,
      "chi": 5013,
      "åĽ½å®¶": 5014,
      "ĠInternational": 5015,
      "Ã©s": 5016,
      "Ġsequence": 5017,
      "Ġcode": 5018,
      "å¤§çļĦ": 5019,
      "æĬĢæľ¯": 5020,
      "()Ċ": 5021,
      "Ġunit": 5022,
      "bon": 5023,
      "Ġspirit": 5024,
      "æĪ·": 5025,
      "import": 5026,
      "Ġsun": 5027,
[...]
